#version: 0.2 - Trained by `huggingface/tokenizers`
a n
a k
Ġ m
Ġ k
Ġ s
e r
Ġ d
Ġ t
Ġ b
e n
an g
a r
a h
i n
a t
Ġ p
y a
Ġ ak
a l
a p
e m
a m
i t
u n
Ġd i
Ġm en
k an
Ġak u
Ġs e
a u
a d
e l
a s
Ġ h
i k
Ġ y
Ġ l
i d
Ġk au
Ġ in
u k
ap a
Ġb er
Ġy ang
Ġ j
Ġt id
Ġtid ak
i s
it u
Ġm em
Ġk e
n ya
i l
Ġ itu
Ġp er
Ġin i
u s
Ġs a
o r
i h
Ġd an
Ġ an
a g
en g
Ġmen g
Ġ apa
Ġdi a
Ġak an
i r
d a
Ġ c
ar i
e k
Ġ ad
it a
Ġt er
o n
u r
u kan
i m
un t
t i
Ġk ita
Ġk am
un g
unt uk
Ġ untuk
Ġan da
in g
u t
Ġmem b
Ġ r
u h
u m
Ġm er
ak an
an ya
Ġd eng
u l
Ġsa ya
an a
e s
Ġt ah
u d
Ġ g
Ġb is
or ang
Ġ o
Ġ n
al ah
m u
Ġm el
a y
a i
ad i
Ġdeng an
Ġbis a
Ġt ak
al i
a ik
k u
o l
ek a
Ġad a
Ġmer eka
e b
e t
Ġtah u
j a
Ġ w
p er
Ġd ari
Ġs em
al am
Ġse k
ang an
a w
ar a
ap i
Ġb ag
en t
ih at
ak ukan
u a
Ġh ar
i a
u at
u p
Ġse b
am a
Ġ .
Ġb aik
Ġ ya
in i
Ġkam i
ik a
Ġin g
em b
l ah
Ġp ad
en ar
Ġt api
Ġkam u
Ġs i
Ġ orang
Ġhar us
g i
Ġ ,
g a
ud ah
Ġ ay
an t
p at
Ġad alah
Ġm as
Ġse per
un ya
Ġse l
Ġing in
Ġs udah
Ġmen y
a b
ar ang
Ġsa ja
in t
Ġseper ti
Ġ ap
Ġper gi
am p
Ġh anya
in ya
i c
ap at
e g
j adi
ag i
Ġ f
el ah
Ġd alam
o t
on g
Ġs ini
al u
Ġj ika
Ġsek arang
Ġb ukan
a c
Ġsem ua
Ġb ah
u ar
a im
at i
o m
u b
en d
a in
ik ir
as a
Ġmen d
Ġ at
Ġk el
o b
Ġb enar
o k
Ġj adi
ak ah
Ġt ent
Ġse s
i b
Ġo h
Ġt em
Ġh al
Ġbag aim
Ġk ali
am b
ak u
e d
Ġp unya
at akan
Ġbagaim ana
Ġs at
Ġmen c
k in
eb ih
o s
Ġj angan
Ġk ar
Ġl agi
e p
Ġp en
al an
e h
Ġpad a
ung kin
Ġl ebih
i an
Ġap akah
Ġh e
w a
ang at
ing g
Ġl akukan
Ġm ungkin
Ġmel ihat
a j
Ġmel akukan
an y
en a
Ġper n
im a
Ġber s
Ġp r
as i
Ġse d
a f
ung g
Ġsat u
Ġk em
Ġs angat
o h
Ġber t
uat u
Ġk as
u an
Ġt elah
Ġdi s
a ya
Ġ ?
Ġo k
Ġk en
Ġpern ah
Ġkel uar
at ang
Ġkali an
ad a
Ġkar ena
at a
am u
Ġj u
i kan
il ang
Ġm au
Ġk emb
Ġmemb uat
ar kan
il ik
uk a
Ġsi apa
ak s
an d
Ġl ihat
t u
ang g
Ġb el
Ġb eg
Ġd atang
Ġkemb ali
ang k
en ang
Ġay o
Ġh ari
un uh
Ġm a
is i
Ġtent ang
Ġke t
id up
Ġdi r
Ġter l
Ġmeng h
Ġju ga
ir i
Ġke p
Ġber h
ingg al
any ak
Ġat au
Ġbah wa
Ġd apat
at an
Ġses uatu
Ġkas ih
Ġmemb er
Ġay ah
Ġb ar
Ġper t
Ġse orang
Ġbeg itu
ik u
e pat
Ġsa at
Ġb anyak
Ġmen jadi
Ġb i
Ġber b
Ġc h
Ġk al
Ġter ima
Ġw ak
Ġke s
Ġl ain
Ġma af
Ġp eng
Ġ 1
Ġp ikir
is t
er ja
Ġan ak
Ġter jadi
Ġbag us
Ġy g
u ang
im u
Ġb es
Ġp as
int a
f f
an nya
ungg u
u c
Ġb eb
amb il
o d
Ġken apa
Ġh idup
Ġmend apat
ilik i
h ir
Ġhe i
ic ara
t er
am at
Ġs amp
Ġse t
Ġtem pat
Ġs end
an j
Ġok e
Ġm alam
in d
Ġmen em
Ġke c
er apa
e w
Ġter b
u ah
Ġ ib
Ġb ilang
uh an
Ġkal au
Ġs ana
Ġm ana
Ġwak tu
Ġ al
Ġ v
en ti
ek erja
Ġk er
Ġk u
Ġmem iliki
Ġmas ih
Ġr um
0 0
s i
Ġ ia
aw a
Ġt h
Ġm ati
Ġ i
Ġdi m
Ġp ak
Ġbeb erapa
Ġtah un
k ah
Ġmeng apa
Ġseb uah
Ġbaik lah
Ġk atakan
Ġsed ang
aks ud
Ġt et
ar ah
Ġ a
Ġper l
il ah
Ġl alu
Ġber p
ol ah
Ġy e
Ġke b
Ġmeng atakan
Ġsamp ai
Ġmen j
Ġsek ali
Ġs er
ah u
kan nya
Ġrum ah
Ġs alah
Ġsend iri
Ġbar u
o p
Ġye ah
Ġs t
c aya
am an
Ġm ul
g er
ob a
Ġket ika
Ġmas uk
Ġbes ar
Ġt an
Ġk an
ah an
Ġp el
Ġm an
Ġm aksud
o w
Ġmas alah
i p
ut uh
ak in
Ġmemb unuh
Ġmeng er
u j
y ang
Ġdi b
Ġperl u
Ġt unggu
Ġm akan
u anya
ap an
Ġber d
Ġt uhan
Ġ 2
Ġs ama
Ġ as
Ġmenem ukan
Ġp emb
aw an
Ġp em
Ġc epat
ar an
Ġt inggal
en c
Ġke h
Ġdeng ar
i e
b enar
eng ar
el um
Ġseb elum
ol ong
b aik
im p
Ġber k
Ġpad aku
Ġdis ini
Ġmendapat kan
ul ang
Ġsem uanya
Ġbenar benar
Ġmeng g
Ġpas ti
Ġd ua
l e
ag a
Ġsel amat
an c
Ġk ur
Ġj alan
ap un
Ġb r
e c
ar t
uk u
Ġtent u
Ġb ur
uk up
Ġm ari
Ġapa apa
Ġtem an
Ġb ol
Ġper caya
ik it
em u
ak hir
Ġc ukup
Ġsed ikit
Ġat as
ant u
il a
Ġbel um
e orang
Ġse h
Ġsa yang
p a
Ġs uka
Ġb icara
ak it
Ġsel alu
Ġmeng ambil
Ġs h
Ġses eorang
ung an
Ġs en
Ġsi ap
Ġmelakukan nya
aw at
Ġdim ana
Ġber ada
Ġmenger ti
un j
Ġse ti
Ġkec il
Ġk ot
Ġo l
Ġd it
Ġm u
Ġpr ia
Ġ ag
Ġberp ikir
Ġ uang
Ġbaik baik
Ġt r
Ġj am
Ġbah kan
Ġp ut
Ġt olong
Ġmem per
Ġw an
Ġ '
Ġse j
Ġset elah
u g
Ġk ak
as an
Ġib u
Ġseti ap
Ġt el
ag ai
Ġp es
j alan
ad is
Ġb ekerja
Ġse p
Ġd un
Ġy ah
Ġterl alu
Ġ Ġ
au h
Ġter s
Ġwan ita
Ġmen inggal
Ġbert emu
el l
on t
Ġtet ap
c h
al a
Ġt angan
Ġl ama
Ġseb agai
as kan
r i
Ġy akin
ak a
Ġhe y
Ġs u
ob il
Ġper m
an mu
Ġth e
s a
ik ut
Ġp ol
Ġt i
or m
il l
em pat
Ġm obil
Ġpert ama
Ġn am
Ġc ara
Ġy o
Ġmul ai
un d
Ġay olah
Ġpad amu
Ġdi l
Ġdun ia
ul an
Ġberh enti
an ti
Ġber m
um u
Ġg adis
Ġl uar
Ġm us
Ġdir i
Ġsel ama
Ġ ist
it ahu
as il
un c
Ġp et
Ġke d
Ġol eh
Ġmenc ari
em p
Ġm in
ur an
Ġb utuh
Ġb ang
um p
Ġmend engar
ir a
ak nya
Ġbers ama
Ġter t
Ġk h
Ġd ep
n a
Ġ 3
un akan
us ah
t a
o c
Ġs enang
ur uh
us ia
Ġmer asa
ul u
Ġbol eh
i g
Ġmenc oba
e y
Ġc er
Ġkem ud
Ġdi k
Ġ nya
us nya
Ġm at
es ai
e v
Ġap apun
ub ah
ah kan
Ġp un
ar k
ing in
Ġk ab
ur u
Ġkemud ian
Ġtid ur
Ġbur uk
, ,
Ġkep ada
Ġing at
Ġmemb awa
Ġk ap
aw ah
Ġp int
ar ik
Ġk ul
Ġg r
ing an
Ġmeny el
Ġter us
Ġp ekerja
Ġseb enar
Ġbi arkan
Ġt uan
Ġber l
emb ak
Ġsebenar nya
Ġp ed
a v
oh on
angg il
il ih
Ġorang orang
Ġk ub
al ing
Ġtan pa
Ġber apa
Ġberb icara
ur ut
ing k
e j
Ġn y
Ġw h
Ġmaksud ku
t inya
ep on
eb ut
ungg uh
Ġak hir
Ġpen y
unj uk
Ġpol isi
o g
an ku
ar ap
Ġp ulang
Ġs akit
Ġitu lah
Ġter akhir
Ġf r
Ġdengan mu
Ġk om
Ġtak ut
Ġt amp
Ġd ud
enti kan
Ġkur asa
angk ap
Ġp ara
Ġb ay
Ġ ambil
at uh
Ġ ar
Ġseh ar
od oh
Ġ am
n y
Ġpen j
Ġd ulu
Ġc inta
ir im
Ġper s
Ġsi alan
Ġg ila
Ġdi p
ul i
Ġse ger
Ġin d
Ġter k
Ġn ama
Ġhal o
on s
Ġt epat
eb at
er i
Ġbag ian
Ġm es
Ġseger a
Ġse g
Ġmen ya
Ġs o
Ġ ah
Ġmem ang
Ġmin um
Ġmember ikan
Ġsehar usnya
anj ang
Ġsi al
ent ar
ek at
Ġmemb antu
Ġd r
amp ir
Ġb awah
Ġse c
an k
Ġm e
Ġti ga
Ġdep an
Ġj auh
au d
aj ar
usah a
m an
en al
Ġt enang
Ġa ir
Ġkot a
ac k
Ġ 5
Ġs p
Ġterl ihat
Ġc ar
t r
an da
ur un
Ġmen urut
Ġan akan
ung i
Ġc l
Ġp end
Ġt im
Ġ id
Ġmeninggal kan
Ġb odoh
Ġdud uk
Ġbi asa
a ja
Ġm inta
Ġ aw
Ġk r
Ġpad anya
Ġanakan ak
Ġseb entar
Ġm ar
Ġs ungguh
Ġp agi
il angan
Ġk at
e da
Ġ ut
Ġj el
ic ar
awat ir
' s
Ġdir imu
Ġ it
Ġbag i
it ar
Ġkeh ilangan
Ġr asa
Ġmen ik
Ġ 4
Ġ en
r y
Ġman usia
ur i
ut up
Ġ um
Ġber ikan
ul it
ent ing
ah at
Ġdi am
Ġmen unggu
Ġ z
er s
Ġh ebat
Ġtet api
Ġpekerja an
ur us
eng ah
Ġmeny er
Ġn eg
Ġl up
Ġmaaf kan
Ġyo u
ak i
an i
ant ai
Ġsel esai
Ġb awa
Ġb aj
unjuk kan
Ġseper tinya
Ġb en
Ġt ua
i arkan
Ġberh asil
Ġtak kan
um a
Ġb uat
Ġterb aik
Ġs uatu
Ġk up
Ġan d
ut an
ger ak
ic k
Ġsel uruh
ak ang
Ġd e
Ġsen j
al l
Ġ uh
o v
Ġbers am
Ġsek olah
Ġh ai
Ġp aling
j u
Ġmen it
Ġ e
ingg u
Ġkeluar ga
Ġmen ang
Ġp enting
Ġan t
Ġmelihat nya
Ġ em
ant uan
Ġn anti
Ġber c
Ġkab ar
Ġl ap
Ġmenc int
Ġ ikut
Ġkh awatir
us at
ic h
Ġberm ain
ug as
Ġm r
Ġan eh
Ġn ak
Ġber jalan
Ġber gerak
ul is
Ġd ok
Ġd ar
enang kan
un y
Ġn ah
Ġsek itar
Ġuntuk mu
Ġs am
Ġj atuh
Ġc uma
ay ar
o o
Ġped uli
ar ti
Ġs ur
Ġmengg unakan
i us
Ġdis ana
Ġb ulan
Ġberd ua
Ġbis akah
Ġl uc
Ġk uk
um b
icar akan
ik sa
Ġb at
Ġpemb unuh
Ġbes ok
Ġmemb iarkan
Ġb ung
Ġl e
Ġh ub
Ġkep ala
Ġc oba
Ġmas a
oh ong
ab is
in a
anc ur
at kan
Ġmen el
er ima
Ġber arti
el i
on d
utuh kan
in c
ff ff
Ġr e
Ġbang un
Ġp an
Ġh at
Ġt adi
Ġb et
Ġj aw
i v
Ġ aman
Ġk um
ar d
Ġd em
Ġjaw ab
Ġm ilik
Ġt o
Ġk os
Ġk apan
ang kan
ac am
ah am
Ġs aud
Ġmem p
Ġk ut
Ġ eh
Ġkam ar
Ġw al
enc ana
Ġmemb aw
int ah
ap kan
Ġke j
Ġmem er
Ġh ampir
Ġmember itahu
ut us
Ġt n
Ġbel akang
Ġber j
Ġt urun
Ġd ekat
ati an
Ġmen arik
Ġdi per
ant ik
uc k
u e
t or
Ġingin kan
Ġh entikan
uk ul
Ġn o
Ġke k
on a
as anya
Ġg er
Ġl ang
Ġsec ara
Ġpint u
r a
o y
Ġk or
ep askan
t on
Ġ1 0
Ġk l
Ġke ku
aj ah
Ġdapat kan
Ġkeb er
Ġkes empat
Ġsej ak
Ġper g
Ġsenj ata
Ġm il
Ġsebelum nya
anj i
ai an
Ġ ab
ar is
ac a
Ġs ulit
Ġp l
Ġl i
Ġmember i
Ġm udah
Ġk uat
Ġmaksud mu
angk at
Ġb antuan
at ih
Ġmenik ah
or g
amb at
m m
Ġs il
it as
Ġh ati
Ġter h
Ġ art
ek s
ing gi
Ġb l
Ġd arah
ar uh
Ġm aka
anj ut
Ġt au
Ġtel epon
Ġ el
Ġmenyel amat
r e
Ġdi d
Ġc antik
Ġkesempat an
an s
Ġan j
o a
Ġpert anya
Ġb u
Ġm ata
er a
ut a
00 0
Ġg el
Ġind ah
Ġkeh idup
Ġker as
ahu i
om b
Ġj en
Ġm inggu
Ġt ib
Ġj oh
Ġmem as
r is
Ġjel as
l y
Ġc ari
Ġdil akukan
ak kan
ot ong
Ġayah ku
Ġh i
Ġberk ata
u al
Ġkem ari
Ġmemb utuhkan
Ġkup ikir
Ġb e
ing ga
Ġber n
ah as
Ġayah mu
Ġb os
Ġal asan
is a
Ġber akhir
Ġk awan
i um
Ġb uk
ah aya
Ġ angg
Ġdok ter
t en
Ġjoh n
in e
Ġbukan kah
uk um
Ġb al
ub uh
p ada
Ġt e
Ġberh arap
Ġf il
Ġanj ing
Ġd et
ak il
Ġkos ong
kan mu
Ġdengan nya
Ġn g
Ġakhir nya
au t
Ġmeng irim
Ġr es
eng k
ti f
ant ung
Ġbenar kah
Ġj um
Ġber ubah
as ar
Ġber g
b an
Ġmeny enangkan
Ġp ilih
Ġp anggil
Ġo b
Ġ 6
Ġo m
as akan
Ġg o
Ġper jalan
aim u
ar at
Ġw ajah
Ġlain nya
Ġn aik
Ġsat usat
Ġser ius
Ġh ilang
Ġk ata
Ġkeku atan
il an
p un
Ġper h
Ġmem inta
Ġm ak
Ġdengan ku
Ġsatusat unya
es s
Ġb arang
Ġk erja
Ġter p
uj u
ak ar
Ġn om
Ġk ant
Ġmeng et
unt ung
Ġh it
Ġam er
iku ti
it ah
s ung
Ġkehidup an
Ġt ubuh
Ġber i
Ġkem ana
n is
Ġkap al
im b
Ġdeng arkan
Ġs c
Ġid e
Ġr o
Ġbert anya
Ġbi ar
Ġbaj ingan
Ġp ul
Ġkak i
o f
al anya
ul ai
ih kan
m a
Ġj ack
Ġmen embak
Ġ is
Ġ alam
om p
Ġberb eda
Ġb uku
Ġl ima
Ġmemb ayar
Ġkem ar
Ġd asar
es i
Ġk ira
Ġpertanya an
ac ar
Ġsil akan
Ġwak t
Ġpen c
Ġp os
Ġked ua
Ġr uang
Ġperg ilah
s on
Ġmen angkap
Ġperjalan an
Ġmenyelamat kan
Ġb unuh
Ġkap ten
Ġper ang
p on
on al
Ġpikir kan
Ġl ew
u ali
Ġag en
Ġdari pada
Ġl akil
eg ang
Ġdi h
ag ia
Ġperm isi
Ġmel alu
Ġmeng en
Ġamer ika
Ġl ari
Ġl o
um i
Ġt inggi
Ġtah an
Ġt uj
h al
Ġbel ajar
Ġlup a
Ġkes alah
Ġp at
Ġlakil aki
Ġnom or
ar l
Ġber itahu
ad ang
Ġp ant
Ġkum ohon
up akan
Ġmu da
s ek
Ġkul akukan
Ġw ell
as ih
oc k
Ġ on
Ġtan ah
Ġmakan an
Ġmenurut mu
Ġs itu
Ġso al
Ġdi c
Ġmem anggil
et a
Ġm arah
Ġl et
Ġberd iri
imp i
Ġmembuat ku
ai kan
unc i
Ġmemb ant
Ġmen unjukkan
Ġmelalu i
Ġcer ita
or d
Ġs al
Ġ un
Ġd a
Ġluc u
ain an
Ġlihat lah
ancur kan
Ġsu ara
angk a
ac au
Ġpen uh
ac ara
Ġb ila
Ġs ir
u i
Ġkep ad
on y
b er
Ġber ikut
Ġag ar
Ġneg ara
Ġmeny eb
at nya
Ġo t
ad ap
or an
Ġkas us
Ġsep anjang
l i
Ġ ent
ag u
h t
us t
Ġom ong
o e
Ġmen uju
Ġas t
Ġt ugas
as ama
Ġkec uali
Ġdem i
Ġdir iku
em an
Ġw ar
emb uny
ot o
eb ak
Ġw ow
Ġmember itah
Ġpes awat
Ġl epaskan
Ġmel awan
Ġast aga
Ġpan as
Ġant ara
h er
Ġb ab
Ġc at
Ġd on
Ġj er
Ġj end
ak ai
Ġr encana
p ur
angg ung
any akan
es t
amp u
Ġsu am
Ġ api
Ġi ya
el a
ilah kan
w an
us i
Ġkant or
Ġp e
Ġh ukum
Ġmenel epon
Ġsend ir
Ġaw al
Ġr aja
al kan
it akan
Ġterb ang
Ġkak ak
Ġb ir
ar g
Ġdir inya
Ġmel ew
Ġnam anya
Ġ empat
Ġkom p
er ah
Ġk ont
ot a
Ġterl ambat
Ġb icarakan
asa an
Ġok ay
Ġ 7
Ġper b
Ġter d
imp an
Ġmeng enal
Ġber usaha
Ġl aut
ihat i
Ġib umu
Ġs ilahkan
uk ai
au s
Ġap os
Ġsur at
Ġ ang
Ġin f
Ġkem atian
e e
Ġm ay
ont on
Ġpes ta
Ġmend eng
Ġ2 0
Ġper k
ent uh
enc i
ent ara
ati kan
Ġb uka
Ġm ur
int ang
Ġtamp ak
Ġad ik
ahas ia
le y
or e
i j
Ġmem ilih
Ġ up
eng sek
Ġlang sung
Ġm al
Ġpes an
Ġfil m
Ġp acar
Ġbay i
Ġn ona
Ġmembuat nya
Ġmen ulis
Ġsendir ian
Ġbert ahan
emp uan
aks i
Ġ ulang
Ġist r
Ġper empuan
Ġm is
Ġsem entara
Ġr at
h a
Ġ er
Ġr ahasia
Ġ 8
ud i
m y
Ġmendeng arkan
ti kan
Ġcl ark
Ġmeng ej
Ġmen ak
Ġmem ikir
or t
Ġk ol
Ġsem acam
ak at
Ġdi g
Ġmeng aj
Ġd ol
i f
o nya
Ġper intah
Ġw ill
Ġmel ind
amb ut
am anya
Ġuntuk ku
Ġs k
Ġmendapat kannya
Ġ 9
Ġ ed
imp in
Ġmeny es
Ġg uru
Ġkesalah an
abis kan
Ġn at
Ġm y
Ġter j
Ġbr engsek
Ġmen erima
Ġseb aik
Ġj uta
Ġsem pur
Ġbah agia
Ġtib a
Ġib uku
Ġmencint aimu
ind ah
und ur
ac h
eng g
at or
Ġlew at
Ġwakt unya
ir kan
Ġmes in
Ġpilih an
Ġsempur na
Ġb ad
Ġper usaha
Ġmeny akit
Ġart inya
Ġd o
Ġhal hal
Ġent ah
Ġber untung
Ġmeng ing
Ġd ingin
em en
er an
Ġny ata
Ġseb ab
l er
Ġj ar
Ġsem b
Ġbis nis
Ġr asanya
Ġmes k
Ġtem ukan
Ġs y
ul a
Ġkel ihat
Ġh ak
Ġt ok
Ġb umi
Ġc r
Ġset engah
amb ar
Ġt utup
enc an
unc ul
Ġsem akin
Ġtinggal kan
Ġkel as
Ġmeng el
ah l
an e
a ir
Ġmem akai
Ġanak ku
is ah
Ġmenemukan nya
Ġperm ainan
Ġnam un
Ġseg alanya
Ġmeng ingin
Ġpem er
or i
Ġl em
s t
Ġo f
n e
Ġl u
Ġberc anda
Ġmer asakan
Ġn ew
Ġm uncul
alam an
us ak
Ġp aman
Ġmul ia
u angan
Ġs ih
Ġwh oa
ud ara
et t
Ġmembuat mu
Ġb y
Ġperusaha an
Ġm et
Ġm and
m as
Ġ es
Ġberikut nya
Ġmengh ub
at as
Ġmul ut
Ġj anji
Ġmemb eli
Ġg e
Ġman is
ang un
end ali
Ġhidup ku
al ik
Ġmenj aga
b uk
Ġ q
au l
Ġsebaik nya
Ġtem ant
o ga
Ġt om
e x
Ġters ebut
Ġf l
es ar
Ġm undur
Ġken al
Ġker en
Ġpikir an
id aknya
Ġ arah
Ġg ag
Ġpas ukan
Ġmengh ancurkan
Ġg un
Ġ il
angg u
Ġb antu
Ġt embak
Ġ urus
op i
er b
ik e
r ol
Ġb intang
Ġ ev
Ġd ew
as t
Ġpak ai
Ġm ain
Ġmus im
Ġs ad
Ġk uc
adi ah
Ġj i
Ġmeng ubah
Ġpenj ara
ik at
Ġseg ala
ga b
Ġmem ukul
ir ahat
Ġr ob
Ġtamp aknya
Ġpern ik
Ġmembunuh nya
Ġmelihat mu
Ġch arl
Ġput r
Ġt ik
t ar
Ġseh ingga
ingk at
Ġkur ang
it ik
Ġd av
Ġsem oga
Ġke ada
Ġkes ini
tu ju
ig ht
Ġl el
Ġh adiah
Ġmenget ahui
ay an
Ġset idaknya
alah kan
b y
us an
Ġm ich
ist ol
Ġsi ang
Ġist ri
Ġmer ah
Ġtan da
Ġpr ib
Ġk ons
,, ,
Ġmemb aca
Ġhub ungan
Ġhat ihati
Ġterh adap
Ġm o
Ġse tuju
Ġfr ank
utus kan
Ġmembaw anya
Ġt u
Ġmenyes al
ik asi
Ġc o
Ġm impi
Ġput ri
it h
s u
ah un
Ġhar ap
e wa
Ġpr es
Ġr ambut
Ġp istol
Ġmeny ebut
Ġlup akan
Ġmengh ilang
angk ah
Ġag ak
Ġst r
gab ung
ump ah
g n
or ong
Ġpembunuh an
Ġpet er
Ġsaud ar
Ġsiap apun
Ġbol a
at ur
er ita
Ġh a
Ġh ad
Ġl ah
Ġkeluar g
Ġd es
Ġk ud
und ang
Ġl agu
Ġhit am
Ġpernik ahan
Ġp aham
Ġber ita
r o
orm asi
m en
Ġk uh
Ġm ah
Ġser ing
od e
id en
Ġ1 9
Ġkuk atakan
Ġen am
Ġh uh
un a
er t
ut kan
Ġper c
id e
er al
Ġob at
Ġm ed
Ġkub ilang
Ġr ek
Ġj ahat
j akan
, ?
Ġmenc uri
aka an
Ġsaud ara
a el
Ġmen utup
Ġut k
Ġg ue
Ġm aj
Ġber ani
ip un
Ġs isi
Ġmat ah
ur a
n i
Ġter g
Ġberb ohong
in j
Ġjen is
Ġw e
id ak
ul kan
es an
Ġs ist
t ur
l is
Ġmemp unya
Ġmenj el
Ġt engah
Ġmengh abiskan
Ġben da
em ukan
an et
Ġjum pa
or n
Ġmengh entikan
ang i
Ġmesk ipun
Ġpr of
g ris
i z
Ġbet apa
Ġmus uh
Ġm ant
Ġmenj ual
Ġt emb
Ġbah asa
i am
ang ga
Ġbersam asama
Ġh o
Ġkemar in
as h
Ġb enci
Ġp h
Ġk unci
en si
w ab
Ġmenang is
Ġmenya d
os i
Ġmempunya i
Ġ1 2
Ġb o
Ġmenger ikan
Ġing gris
Ġber gabung
Ġseb elah
Ġj im
Ġmem utuskan
ik o
Ġ eks
l uk
Ġ udara
Ġl ok
Ġmatah ari
or k
Ġterl uka
Ġg ambar
Ġmenyel esai
Ġ ul
Ġp indah
Ġmemikir kan
ja wab
k h
Ġberb ahaya
uka inya
Ġber at
Ġmus ik
Ġo per
ent uk
Ġkan an
aks a
Ġbeb as
ep as
Ġsel amanya
Ġh mm
om e
Ġker eta
angan i
Ġb and
ot t
Ġd el
Ġdol ar
ir an
Ġken c
Ġbat u
Ġs ang
Ġpeng h
Ġj al
Ġh ot
Ġl antai
Ġmeng ikuti
Ġkes ep
Ġmenj alan
ok ok
y ata
em uan
Ġmenyer ah
l ukan
Ġf oto
en s
Ġbuk ti
Ġprib adi
' t
Ġse pat
Ġput ih
ib at
Ġn er
Ġtuj uan
en uh
Ġin ilah
Ġny onya
in k
s an
Ġs is
Ġg u
Ġf uck
Ġsebab nya
Ġmenem pat
Ġmich ael
Ġmengen ai
Ġmeny ukainya
v e
Ġmemb uka
ar ga
Ġp ec
h an
Ġm c
Ġmelew ati
Ġin s
r ik
Ġ1 5
Ġkh us
ek or
Ġmenyer ang
Ġmeny ukai
Ġdapat kah
alam i
Ġ ali
Ġtok o
Ġs m
Ġp anjang
Ġb ob
Ġmen onton
a z
anjut kan
Ġdar iku
Ġpl anet
on e
en angan
ab uk
Ġp o
Ġsist em
ek si
og r
Ġn ik
Ġbers alah
Ġdis ebut
Ġkeber atan
ot h
Ġmemer iksa
Ġp al
Ġmelind ungi
art emen
Ġbukan lah
Ġl ay
Ġharus nya
Ġpint ar
Ġcat atan
Ġd ag
Ġmencint ai
Ġr uangan
Ġinf ormasi
Ġmand i
Ġkes ana
Ġf or
Ġkor ban
Ġpak aian
oc ok
en ek
Ġb as
Ġl emb
ak e
Ġen ak
Ġke g
Ġsel ain
b a
Ġt amb
amp un
b i
m ati
ung k
aman an
Ġsad ar
Ġr ib
Ġ3 0
Ġsi buk
Ġp ar
Ġb ank
Ġbur ung
Ġs aling
Ġb ill
en j
Ġb in
Ġber as
Ġner aka
j ur
orm at
Ġpel ac
Ġk iri
i ah
Ġpeng g
Ġs w
Ġnam aku
Ġb au
uc i
Ġkar tu
n ie
Ġb ib
ar ung
Ġn enek
Ġkeb enar
Ġh ell
Ġh asil
Ġberj anji
Ġser angan
Ġkuk ira
ong k
Ġb us
c e
Ġd itu
Ġs up
v er
Ġmengej ar
ow n
Ġbi asanya
Ġc el
Ġkec el
Ġb on
am ana
Ġj ad
Ġal ex
r ak
Ġm ad
Ġmeny entuh
Ġdim ulai
Ġm ampu
Ġt d
Ġju jur
Ġpres iden
ol o
Ġdet ik
Ġy es
Ġmemb angun
Ġw il
kan ku
Ġmeng alami
ad ilan
Ġkot ak
il ai
Ġper asaan
Ġc ahaya
l o
Ġpanggil an
Ġg unakan
atih an
Ġ uj
unt ungan
Ġsaat nya
Ġteman ku
Ġmenj auh
s h
i ap
Ġkecel akaan
Ġr am
Ġg ar
Ġl ab
akan nya
Ġt as
el am
ari kan
l a
Ġke amanan
Ġk o
i el
Ġr om
Ġ aj
ari an
Ġj antung
Ġtent ara
om pat
Ġd ah
Ġbeg ini
Ġ im
Ġd am
angg ap
Ġh ah
Ġseb erapa
Ġmen er
Ġtangan mu
i i
er e
' m
Ġt ek
Ġist irahat
Ġn orm
s es
Ġr adi
Ġterb uka
ol ak
k er
Ġd af
Ġt angg
Ġtd k
Ġbag iku
Ġkul it
Ġkeada an
Ġb ud
Ġ acara
Ġc ol
d an
Ġsek s
o od
Ġkep utus
Ġpet ugas
any i
unj ukan
Ġg en
Ġp ukul
Ġtert arik
apa i
Ġg a
Ġp ohon
Ġmembunuh mu
omp ok
h e
Ġtemant eman
Ġdib er
Ġak al
Ġin ter
ahl awan
h luk
Ġmemb icarakan
Ġm art
Ġsa b
Ġkhus us
Ġ ikan
Ġgag al
Ġc ocok
ah atan
d y
Ġk ad
Ġot ak
Ġt umb
Ġmem ulai
Ġmemper caya
ay ah
Ġs and
agi an
Ġmenempat kan
Ġt unjukkan
Ġangg ota
Ġt ip
at e
ut ang
Ġpos isi
Ġd er
ur it
Ġmen olong
Ġwal ter
Ġm abuk
Ġmasalah nya
in s
Ġmenyelesai kan
Ġut ama
Ġku da
Ġh el
Ġper iksa
Ġ us
os a
Ġdag ing
ek tif
ul uh
om ong
Ġ1 00
Ġseper t
ur n
en y
Ġper d
Ġ angk
et an
Ġmer ind
e f
is an
Ġmak hluk
Ġdaf tar
Ġm om
Ġl ub
id ik
Ġsu per
Ġmengingin kan
Ġk alah
um ur
as e
Ġbers iap
in kan
Ġmenyad ari
Ġp ahlawan
ut ar
uc apkan
Ġk opi
uk ur
Ġk a
Ġh ingga
Ġsamp ah
Ġkej ahatan
ti ga
Ġperh atian
ic e
Ġtr ans
l and
Ġkabar mu
Ġk irim
Ġs us
ac e
anc is
Ġmeny uruh
Ġm ohon
Ġh am
Ġy ork
embuny i
Ġp ark
ob at
Ġh ol
Ġ5 0
Ġkuh arap
ov e
Ġk n
Ġj o
u ga
er ang
Ġmen jawab
er h
Ġpercaya lah
Ġsej auh
Ġpert emuan
Ġmengel uar
ik ap
Ġr ep
Ġnam amu
Ġk ag
Ġth at
Ġd gn
et ak
n g
Ġmemb uang
Ġg l
Ġput us
Ġda erah
Ġg il
Ġge org
Ġtert awa
it er
Ġmerind ukan
ut er
Ġpenj aga
Ġmer upakan
Ġk ay
org an
ah ab
Ġj aga
Ġs ung
Ġdig unakan
Ġg i
Ġem as
Ġoper asi
Ġmengg anggu
Ġdit emukan
Ġg ak
Ġbin atang
Ġs op
Ġsej arah
Ġm m
Ġke jadi
ip t
Ġlub ang
ek u
Ġhot el
Ġtel pon
Ġmenc ium
Ġmel upakan
Ġterl ibat
Ġk ini
is h
Ġt ind
and ingan
Ġmeng alahkan
it t
Ġayah nya
Ġme ja
Ġhell o
Ġd in
a il
Ġmengatakan nya
er itakan
Ġket ak
Ġkak ek
aj urit
Ġmenjel askan
Ġmeny ed
Ġl angkah
and ing
Ġb om
Ġk un
Ġk im
Ġh antu
Ġkem ungkin
Ġmel arikan
Ġgel ap
e ja
er n
Ġl a
Ġmemper t
Ġpant as
Ġma x
ny ata
Ġpelac ur
Ġj e
Ġbers umpah
Ġcer itakan
Ġkebenar an
Ġ ir
Ġn as
amp uan
Ġkam era
Ġk aya
Ġmem egang
Ġmem otong
ih an
ara an
Ġkab ur
Ġentah lah
Ġ x
il ing
Ġar e
baik i
Ġ ikuti
Ġpr ajurit
Ġk on
aik u
Ġhar apan
it e
Ġlap ar
Ġh utan
il y
anjut nya
Ġtumb uh
o kan
Ġmem aham
Ġken yata
Ġmembunuh ku
Ġtemb akan
Ġk ond
Ġb uah
Ġsuam i
Ġs im
s e
Ġal l
Ġpemer intah
i o
ed ia
Ġsel anjutnya
Ġmilik ku
Ġ or
Ġter nyata
Ġped ang
ar inya
Ġp ang
Ġbung a
Ġm isi
Ġbel i
Ġmembant umu
Ġkul ihat
Ġberas al
Ġsitu asi
Ġmeng ant
Ġmeng aku
Ġut ara
t h
Ġk us
im ak
Ġbers enang
Ġp u
Ġ angkat
Ġl ib
Ġp is
Ġm iliki
Ġg ed
an n
Ġbern ama
an apun
and angan
m er
Ġdik atakan
Ġmemas uk
olo gi
Ġg em
ak atan
s at
Ġbutuh kan
on el
Ġr os
Ġm ama
Ġkem ampuan
uj an
Ġlap oran
Ġbah aya
u ai
Ġmem int
Ġs uk
Ġpert andingan
at anya
Ġmel ed
Ġm on
Ġtr uk
Ġdil uar
Ġte kan
Ġp aul
al nya
Ġmenging at
m e
y s
Ġp usat
Ġketak utan
Ġr em
Ġo ff
Ġal at
l akukan
Ġb ohong
in an
Ġsp esi
k a
Ġt anya
Ġkemar ilah
Ġberg una
Ġm ag
Ġc ob
Ġlah ir
Ġmeng emb
Ġj ari
Ġkam p
Ġh y
it an
imak asih
Ġsel atan
Ġp op
Ġseb agian
Ġv ampir
Ġkemungkin an
Ġdid alam
Ġsep uluh
en ya
Ġmeny ingk
Ġmenem u
ih ak
Ġtuj uh
ad e
Ġl uk
Ġ ampun
Ġkesep akatan
at is
Ġt itik
Ġs ing
Ġhanya lah
Ġmendengar nya
Ġmengh ad
ung annya
Ġhidup mu
ind ing
Ġum um
un i
Ġminum an
Ġpant at
s enang
Ġyo ur
Ġdew asa
in al
Ġmay at
Ġl elah
y ar
Ġc as
Ġh ujan
Ġcharl ie
Ġlay ak
Ġked engar
Ġ 0
Ġr ak
Ġbert anggung
Ġnat al
Ġang in
Ġberm aksud
Ġkep arat
Ġkomp uter
c o
Ġas ing
Ġmenel pon
Ġged ung
Ġ imp
Ġmenurut ku
embuny ikan
erh ana
Ġsepat u
Ġnorm al
Ġmaj u
Ġm alu
Ġterd engar
Ġmeng aw
el it
i at
Ġmel emp
Ġmember imu
Ġmenya m
Ġmen ahan
Ġkedengar annya
Ġkal inya
Ġkuc ing
c a
Ġbang ga
Ġkejadi an
Ġm ot
Ġm ark
Ġde an
Ġdav id
Ġpint unya
ipt akan
Ġs obat
Ġsen i
Ġm ac
Ġn ick
ati ba
Ġt arik
Ġo ut
ol eh
Ġm acam
ab kan
Ġjawab an
Ġp otong
Ġtib atiba
Ġji wa
Ġt v
Ġnya man
Ġbers ih
Ġs in
orm atan
Ġgeorg e
aya m
Ġpel aj
Ġah li
Ġkelihat annya
i ot
Ġmenghub ungi
Ġm od
Ġg aris
Ġo oh
Ġk acau
ur nya
Ġterb ur
Ġal lah
h i
Ġhe wan
m ain
Ġt es
Ġteman mu
Ġkeputus an
ap as
Ġj oe
ay angkan
Ġb ak
Ġhub ungi
Ġbal ik
ek tur
Ġkr ist
Ġpel uru
Ġt en
Ġkot oran
Ġt angkap
Ġker aja
Ġber angkat
Ġat uran
Ġt uk
Ġmen ari
Ġkat ak
Ġsung ai
Ġh id
Ġkelihat an
Ġterb esar
ub ungan
Ġd ad
Ġmemberitah umu
Ġp antai
Ġk ok
ur at
Ġc on
Ġters erah
Ġtind akan
Ġj on
Ġle x
Ġpers etan
Ġmemas tikan
Ġl uka
Ġde wa
at ap
Ġterk enal
f a
Ġmeny impan
ap or
Ġl atihan
Ġke ingin
Ġbr o
ak t
Ġt op
ind ak
Ġi z
Ġlang it
as inya
Ġr usak
Ġgr e
Ġp art
Ġkot or
and ang
Ġkub er
Ġd inding
Ġh abis
Ġurus an
Ġkad angk
end am
Ġuang nya
Ġwal au
Ġbersenang senang
Ġv ir
Ġcar anya
Ġm ew
Ġtidak kah
ol d
Ġdalam nya
Ġpend apat
Ġmeng atur
Ġsec epat
ingg ir
asi onal
Ġw ah
Ġmen olak
Ġh ancur
Ġrat u
Ġses uai
Ġil mu
Ġbersam amu
Ġkadangk adang
Ġmilik mu
Ġt amu
Ġsem es
al is
Ġjend ela
Ġc inc
Ġjum lah
Ġters isa
ony ol
g e
Ġse ekor
Ġad il
Ġpeng acara
Ġberh arga
Ġt engg
Ġp eg
Ġp egang
Ġj as
Ġpr os
Ġdib unuh
Ġdari mu
Ġt ulang
Ġh en
Ġw as
ay akan
Ġjend eral
n er
Ġk ent
Ġm ike
ap ura
Ġpasti kan
Ġradi o
p h
Ġberh ubungan
Ġib unya
Ġt ab
Ġpemb er
Ġmember s
Ġmeng em
Ġl ingk
um ah
ia ya
Ġmenc apai
Ġt eh
Ġl ampu
1 1
Ġpeny el
Ġperh atikan
Ġl ar
Ġp il
eri ak
Ġyes us
ec k
f s
Ġmemb uk
Ġpas angan
kh ian
Ġper j
ind ahkan
Ġmenjalan kan
Ġbert indak
m i
Ġbah an
Ġk onyol
al ukan
Ġj ep
ogr am
aw ar
Ġsed erhana
Ġj ess
Ġpen erb
Ġ ac
ar ing
Ġmemb el
Ġmenem ui
Ġn e
um kan
Ġhar ga
n an
Ġmengambil nya
Ġter imakasih
Ġbaj u
Ġt a
Ġb a
Ġmenik mati
Ġs ar
Ġmemaham i
Ġmem ec
ub ahan
Ġ ayam
l in
l ihat
mas uk
Ġ usah
Ġl ove
eng an
Ġmel epaskan
Ġke tiga
Ġr encan
Ġt un
Ġdib uat
Ġbersam aku
Ġby e
Ġc int
Ġkat anya
arg ai
Ġmau kah
end ah
ew as
Ġkom and
Ġj ane
Ġdi j
Ġmenghub ung
Ġkeraja an
Ġl tu
Ġbert eriak
arg et
Ġcinc in
Ġjer man
j ub
Ġs ub
Ġper ubahan
ati f
Ġsepert imu
Ġgi gi
Ġmenc eritakan
iri p
ug h
Ġb uang
Ġkr im
Ġr ed
Ġhar ry
n et
Ġmeng urus
Ġmer ek
Ġdet ektif
Ġberc inta
Ġkur si
y at
Ġp i
Ġkel ompok
af as
Ġt ewas
g ak
Ġt ulis
Ġkeluar kan
Ġkeh ormatan
Ġbir u
am e
Ġmeng ag
Ġhub ungannya
Ġistr iku
i en
od y
am in
Ġpeng adilan
Ġr oh
ih ir
Ġ2 00
Ġb entuk
Ġku e
it ung
Ġneg eri
Ġh er
Ġsat unya
ump ulkan
au r
er gi
Ġc an
ur kan
ur apura
Ġmeny embunyikan
Ġs umb
Ġ amb
Ġtenang lah
Ġd ul
is ik
Ġpenj ahat
Ġk ode
Ġk isah
ul ik
Ġv an
Ġsem alam
Ġo p
Ġt ingkat
Ġterj ebak
ut h
Ġ1 8
Ġberl ari
emp ut
Ġbay angkan
Ġj ag
z z
Ġf bi
d ir
Ġuntuk nya
Ġp s
Ġol iv
h o
Ġpeng aw
Ġc ium
Ġpul au
Ġb ot
Ġr ock
Ġser san
Ġmeng ira
Ġanak mu
or is
Ġbert arung
Ġ1 1
Ġm it
k i
Ġkl ub
Ġng gak
Ġb ut
Ġpet unjuk
as aran
t ah
r asi
Ġg ug
Ġaw as
Ġpis au
m in
el an
Ġl ist
e kan
Ġch uck
jub kan
Ġdel apan
Ġl t
Ġper asa
Ġberj uang
ul us
Ġst ev
Ġket emu
Ġwar na
ar u
Ġtek n
Ġke per
Ġpers is
l an
Ġter masuk
uk ung
Ġun it
Ġjep ang
Ġpem ain
Ġmer usak
Ġmembaw amu
Ġ ik
Ġmember iku
Ġsed ih
Ġib lis
Ġmenak jubkan
Ġpal su
Ġharus kah
Ġlap angan
Ġlem ah
r et
Ġgun ung
Ġap artemen
et akkan
w ay
Ġkenc an
Ġhat iku
Ġkatak ata
Ġs arah
Ġbag imu
Ġbar at
aw arkan
Ġhidup nya
el as
Ġmel ompat
ang nya
Ġtangan ku
Ġum ur
Ġt arget
Ġmen angani
Ġmasuk lah
Ġtik et
Ġs antai
Ġ2 5
Ġm or
Ġb oy
Ġkepad anya
Ġmeng acau
v in
Ġsem inggu
Ġg al
Ġp ihak
Ġs eng
ing at
Ġr ah
m at
t as
ip u
an ian
Ġc amp
amb ah
Ġpem impin
Ġ af
Ġv ide
Ġkepad aku
Ġmeng anggap
unt ahun
Ġmaksud nya
k au
Ġtim ur
ain kan
Ġbert erima
Ġmenyed ihkan
Ġmar y
Ġpenerb angan
Ġset an
Ġmembant uku
Ġmenyakit i
Ġmember inya
Ġm ons
Ġg anti
ic a
Ġpang eran
r al
Ġberb uat
Ġdan ny
Ġterb unuh
q u
Ġmenghad api
Ġmil iter
m ana
Ġb aw
ah uan
Ġmemer lukan
Ġlet akkan
tr a
Ġtuk ang
Ġperm inta
Ġter c
Ġm mm
Ġber f
Ġbers embunyi
Ġd endam
Ġmen ungg
Ġl ed
Ġterb akar
Ġs aran
Ġbab i
Ġo w
Ġs uar
Ġkepad amu
Ġmeng ec
d er
Ġp asi
Ġmen aruh
Ġm ist
Ġm ey
inj am
Ġch l
Ġcob alah
f t
f er
Ġk ir
Ġin t
Ġbert ah
uny i
b ffff
Ġp ons
Ġmem impin
Ġmenyeb abkan
Ġm inggir
Ġr y
Ġpeng ec
d i
Ġmend erita
Ġbay ar
Ġjel ek
Ġmengeluar kan
Ġs an
at o
all y
Ġk ac
Ġmel apor
n ey
end ang
Ġmemberitah uku
Ġdib awah
Ġcer d
Ġpel an
Ġpons el
Ġid iot
Ġm irip
Ġs isa
Ġl anjutkan
Ġmem akan
Ġs ch
ac un
ok us
Ġmembers ihkan
Ġmem enangkan
Ġpul uh
Ġk unc
Ġt y
Ġle e
or it
Ġsaudar aku
Ġj ust
Ġpeny ihir
p r
Ġg ot
Ġcel ana
Ġger eja
Ġpel ayan
Ġh alaman
Ġseb ut
t idak
Ġs l
Ġc ok
Ġberh at
Ġb oc
amp ok
Ġmis s
ahab at
Ġduduk lah
Ġpert unjukan
Ġas li
Ġbet ul
Ġlel aki
Ġp ir
Ġseh at
Ġadik ku
b ur
Ġmobil nya
Ġchl oe
ing ung
Ġb ed
Ġbi g
Ġmons ter
Ġr endah
enuh i
Ġmem ilik
Ġj ej
Ġkej utan
Ġger b
Ġkag ak
ap us
Ġmeng ajar
Ġmas ter
Ġt ol
Ġangg ur
Ġr eg
Ġlet nan
inya l
Ġapaapa an
Ġv ic
Ġs ud
Ġch e
Ġku per
Ġbib i
int ahkan
Ġtangg al
uh kan
Ġdes a
um en
Ġpel angg
Ġmat amu
Ġs ant
Ġhad ir
uc on
Ġq u
Ġb aca
Ġrumah ku
Ġ4 0
id ikan
Ġter asa
Ġti ap
Ġpend ek
Ġsur ga
Ġpert emp
Ġkeb anyakan
ali kan
av e
1 0
ay ang
Ġmeng ur
Ġwh at
Ġhen ry
Ġket ahui
lah an
Ġper ahu
Ġmemb akar
Ġlel ucon
Ġmengirim kan
em as
Ġker tas
Ġbertah untahun
Ġp ip
Ġmen anyakan
g h
Ġtak dir
Ġsc ott
Ġmend orong
Ġkol onel
Ġk end
Ġdi v
Ġg as
eh er
al as
el iling
Ġw ay
Ġlok asi
Ġk y
Ġfr ed
Ġmeng ucapkan
er y
Ġdi atas
epat an
Ġpeny akit
Ġpertemp uran
Ġdar urat
ac ak
Ġcar l
Ġlo u
Ġr up
Ġkeber untungan
Ġdari mana
Ġmat t
um an
os an
os h
Ġb angk
Ġmengh argai
Ġmenc iptakan
Ġp apa
ol usi
Ġkeb et
il le
endali kan
Ġanak nya
in asi
Ġjim my
Ġs impan
Ġb ek
Ġl og
Ġvide o
at us
Ġf in
l ik
o u
Ġpr ogram
Ġjam es
Ġr usia
am i
Ġlist rik
Ġj ul
Ġtik us
Ġham il
Ġmas ing
Ġkebet ulan
Ġmeny uk
Ġl ol
j i
Ġtu antuan
arap kan
Ġmenak utkan
Ġmeng k
Ġkes ulit
Ġc al
angg ar
yar akat
it y
k y
Ġbegitu lah
Ġst asi
Ġr us
Ġs ore
ap ak
Ġmen atap
Ġtamp an
Ġjal ang
Ġper ut
Ġl eher
Ġc ont
Ġkom un
Ġr ich
ti p
Ġl eb
uk ah
Ġb akar
en da
Ġtem ui
Ġs inyal
Ġber es
Ġseorang pun
Ġmemper baiki
ej ut
Ġh ow
Ġg et
Ġt aman
Ġrib u
Ġ1 4
Ġkesulit an
Ġkas ar
Ġmengant ar
Ġmas yarakat
Ġjal ur
Ġt and
Ġsem angat
Ġs ara
l ar
Ġh ormat
os t
Ġwil ayah
Ġgun anya
Ġb iaya
Ġmel etakkan
Ġr ay
ong an
Ġbersam anya
Ġterg antung
Ġstasi un
Ġ ell
Ġmend ekat
Ġse olah
Ġf o
Ġd ap
Ġl ni
Ġsek si
Ġhi j
ut ut
Ġc ek
Ġst op
Ġbob by
in o
Ġber per
ali a
ed ar
ul l
Ġcepat lah
Ġkek asih
eb asan
e ffff
z a
Ġberd oa
ung si
Ġterk ejut
er l
Ġf ir
ter i
Ġsup aya
Ġsumb er
Ġgo od
Ġwar ga
et er
orm ati
Ġr asakan
Ġt omb
Ġmenging atkan
Ġsej ati
Ġpelaj aran
Ġhij au
Ġt ump
emb er
Ġa ah
Ġbers ikap
d ia
Ġ u
Ġmen ent
od uk
Ġkond isi
ond on
es ter
Ġsep enuh
Ġmenya lah
Ġc ew
ak aran
u as
Ġsih ir
Ġf okus
Ġgu ys
a a
a af
Ġsa y
b arang
Ġs n
or ban
Ġkeluarg aku
Ġmembuk tikan
Ġmengh ind
Ġs uruh
Ġl eg
Ġl ondon
Ġc ur
inta inya
Ġset ahun
Ġt angga
Ġper p
l es
Ġwalau pun
Ġsud ut
Ġmengg anti
eb askan
Ġrek aman
Ġperminta an
Ġkenyata an
Ġ1 6
Ġdit erima
Ġsemes ta
Ġs alam
Ġf ak
Ġl epas
alam u
Ġmer ubah
Ġkep alanya
et h
Ġmenyebut nya
Ġs uci
Ġt ar
at uran
it if
Ġn aga
Ġmengaj ak
Ġmen awarkan
Ġmeng angkat
Ġdik enal
Ġmeled ak
Ġen ergi
anj ian
enc e
s el
Ġs aksi
Ġh angat
Ġv al
ad y
ul ah
Ġw at
Ġmelind ung
l ing
Ġpert ahan
Ġp arah
Ġbarang barang
aik at
Ġkem enangan
Ġkud engar
Ġc ap
Ġkec epatan
Ġtahan an
Ġw ith
Ġperb uat
Ġberd arah
Ġjar ak
Ġprof es
p ir
Ġl ana
Ġc ina
Ġcerd as
Ġf av
en e
gi g
Ġr ick
Ġmeng ab
Ġist im
Ġdiber ikan
Ġel ena
Ġs un
Ġd uk
Ġin v
Ġbat as
ahu inya
Ġpem ilik
Ġbad ai
Ġbert aruh
Ġmey akin
Ġs entuh
uk uran
Ġter ang
Ġt aruh
Ġmen emb
Ġmenj emput
Ġmemilik inya
Ġmeng ak
Ġmer okok
Ġr ach
Ġtel ing
Ġpen amp
Ġpasi en
un an
Ġg ig
Ġkomand an
Ġberb agi
Ġmal aikat
Ġistr inya
Ġper ing
Ġperj anjian
Ġdi ant
ar m
' re
Ġmemb ayangkan
Ġb ok
Ġpenc uri
Ġmeng unj
Ġangg ap
h am
Ġmeny et
Ġsamp ing
Ġvic tor
Ġturun kan
y ak
u ti
Ġsalah ku
Ġmant an
l l
Ġper i
air e
Ġg ay
ub uru
Ġch ris
Ġtangan nya
Ġ organ
Ġr aj
ud ang
Ġmenc intainya
Ġtuhan ku
Ġdik irim
Ġs ahabat
Ġt ur
Ġng omong
Ġmenget ahuinya
Ġker j
Ġket ua
Ġpel atih
Ġtel ur
emb atan
Ġmeny us
Ġd eb
uk ulan
uj i
id a
Ġper al
Ġbab y
i akan
Ġg aya
Ġv er
l akan
Ġk ena
is ap
Ġkar ya
Ġkep alamu
und uk
Ġkn ow
Ġt ed
el akang
Ġs id
Ġt eb
aw aran
ebih an
Ġsh eri
Ġber enang
Ġro ti
Ġ2 4
Ġp ab
Ġmeng ad
Ġ1 3
Ġmulut mu
ent u
ik ian
Ġber ny
Ġt ony
et ahui
Ġters angka
mas ing
Ġmel anggar
Ġte ori
Ġfuck ing
ol is
Ġbagaim anapun
el apan
eg as
e in
Ġkeingin an
Ġdan iel
uka an
Ġn ark
Ġtekan an
enti kannya
iel d
Ġistim ewa
anc am
Ġh and
Ġhid ung
Ġcl aire
Ġmengem udi
Ġhak im
ol a
Ġkunc inya
Ġperb eda
Ġboc ah
is e
ump ul
Ġbukan nya
Ġa v
Ġmasing masing
et ahuan
Ġfav orit
as s
id ur
Ġc or
Ġistr imu
Ġjej ak
Ġ usia
asil kan
Ġe f
am aian
Ġm alah
Ġj embatan
Ġd ong
Ġkul iah
Ġprofes or
Ġperal atan
us uk
ut ama
at ar
Ġdi ambil
Ġseb anyak
Ġmengh entikannya
Ġpengec ut
Ġsepenuh nya
Ġper ancis
Ġmur id
Ġmah al
Ġdiv isi
Ġtempat nya
ind ungan
Ġmenj atuh
Ġmeng ikut
Ġtolong lah
Ġre kan
Ġli ar
Ġman amana
Ġp aris
eny um
Ġmenc arinya
Ġe x
h ur
Ġdit angkap
and at
engar uh
Ġmem alukan
ik s
eg o
aks ikan
ay ani
Ġhar g
g ar
Ġb ant
Ġmend ukung
Ġputr iku
Ġ1 7
Ġkl ien
Ġmengaw asi
anda i
Ġmengag umkan
am ar
unt ut
Ġw o
Ġal ih
Ġsemb ilan
Ġrach el
Ġind ia
Ġmelihat ku
Ġselesai kan
Ġmemper h
Ġuj ian
Ġkay u
Ġp ot
Ġdis el
Ġjalan an
Ġberny anyi
Ġj ake
ingin kan
f ikasi
it i
Ġn ilai
Ġberp urapura
Ġt ongk
w al
at u
on i
Ġpr oy
Ġselamat kan
Ġkep al
Ġmenc ur
Ġkeber anian
Ġp us
Ġan c
Ġmeng in
Ġter utama
Ġmen t
Ġ isi
Ġmeng umpulkan
Ġmemp el
Ġmemper k
Ġp ay
ek ati
Ġsayang nya
r ick
Ġad am
Ġperl indungan
Ġrumah nya
Ġberm impi
Ġlemb ut
Ġbel as
Ġters enyum
Ġmenyingk ir
ol f
Ġkej am
g adis
Ġjel askan
Ġb apa
ud uk
Ġterk adang
Ġtemant em
ak aian
Ġb uta
Ġmel anjutkan
Ġker us
Ġl ind
gi e
an ja
Ġl y
r at
amp ing
Ġf e
abis an
Ġl ambat
is s
ti c
Ġpul a
d ie
Ġl ulus
Ġtert angkap
Ġpe kan
Ġmenc ob
Ġmenyer ahkan
Ġger akan
Ġseng aja
om i
Ġb icar
ap p
iv ers
a an
Ġtak si
Ġnya wa
Ġcew ek
Ġberp utar
Ġas al
Ġboleh kah
Ġtubuh nya
u da
Ġd ev
eg an
Ġth is
Ġnak al
ang sung
Ġp ukulan
Ġsh h
Ġd ata
us e
Ġres tor
Ġberb alik
Ġgr atis
Ġdiper lukan
Ġter oris
Ġph il
o ut
i ar
o per
Ġmemberikan nya
gig it
Ġnas ib
Ġmeng undang
Ġpert ar
Ġdib anding
Ġk adang
ut uk
Ġdiper caya
Ġmenyeb alkan
Ġr el
Ġmeny imp
Ġput ra
Ġmem aaf
Ġmenangkap nya
Ġked uanya
Ġt w
Ġsh e
Ġr ol
Ġem ily
Ġdem ikian
n c
Ġwill iam
Ġd own
imb angkan
Ġmem atikan
Ġpeng alaman
Ġpend eta
Ġmis kin
at er
ungg ung
Ġpeng ant
em ar
Ġ angka
Ġs on
Ġimp ian
Ġmot or
Ġsar apan
Ġdar inya
w ood
enal kan
Ġsep up
Ġpat ah
it anya
any atanya
Ġsuk ses
Ġt ebak
Ġke untungan
Ġmengen akan
Ġmer awat
l et
Ġd u
Ġl urus
Ġbill y
elam atan
Ġl emp
Ġmati kan
Ġled akan
Ġp ub
Ġdit embak
Ġrak yat
Ġmencob anya
Ġp am
Ġmem ainkan
ai b
Ġkeb akaran
Ġkembali kan
encan akan
Ġdep artemen
Ġkac ang
Ġse umur
Ġmem an
Ġpertar ungan
Ġb ingung
Ġpeng etahuan
k us
Ġmist eri
Ġbes i
Ġar ti
Ġmencint aiku
an amana
end er
Ġd en
Ġmembaw aku
ib ur
Ġpen elit
o i
as annya
Ġr a
Ġkar en
Ġhukum an
Ġga un
Ġproy ek
am kan
Ġbangun an
Ġlingk ungan
Ġalam i
Ġkatakan lah
Ġmed is
y akin
Ġk endali
it ch
Ġberl atih
Ġc ac
Ġtert entu
it asi
Ġsen s
im ana
ai i
Ġtetap lah
Ġm ol
Ġmen urun
Ġbert anyatanya
Ġkemb al
Ġkeper caya
e z
Ġterbur uk
b on
Ġberp akaian
Ġseh ari
Ġgadis gadis
Ġsen y
Ġiz in
Ġlol os
Ġaku lah
os s
uc h
Ġkeg elapan
Ġgerb ang
Ġat ap
Ġmenggunakan nya
Ġres mi
and u
Ġsab ar
Ġp unggung
Ġing atan
Ġprof esi
ah annya
Ġmeng al
Ġbl ack
Ġk ong
Ġmenya yang
Ġt ali
il et
Ġbantuan mu
Ġtengg elam
Ġmel epas
in da
as arkan
Ġmm h
Ġmenj ij
Ġkepal aku
Ġkek er
ing atkan
Ġked alam
urus an
Ġperbeda an
Ġ5 00
at asi
Ġmemb alas
ah agia
Ġwajah nya
Ġseg ar
Ġke aj
Ġn i
Ġanc aman
Ġr aks
ub ung
Ġmel ayani
Ġdir ektur
Ġmasuk kan
enj ata
Ġkun o
2 1
ai ban
Ġkont ak
Ġr ut
Ġt ep
Ġto ilet
j ak
l at
s ter
Ġrob ert
Ġbert eman
Ġon e
Ġang el
r ist
Ġi j
Ġgug up
Ġpering atan
Ġm i
Ġh an
Ġdan a
Ġkeluarg amu
Ġsek arat
Ġpec undang
Ġbok ong
Ġt anggung
Ġmenger jakan
Ġberl angsung
Ġuj ung
Ġsop an
Ġfak ta
Ġber ant
Ġber uang
anc e
Ġtom my
Ġmem aksa
Ġg oth
Ġbud ak
Ġangk atan
Ġl engk
Ġem osi
Ġsuam iku
Ġtamb ahan
Ġcium an
Ġtol ol
e ak
Ġkeb ebasan
Ġ und
Ġt anyakan
Ġkek acau
Ġl awan
Ġsam asama
Ġdit empat
Ġpr ot
Ġist ana
Ġpet a
Ġrib uan
Ġbot ol
Ġc ow
ti v
am ata
el uar
Ġmengh asilkan
3 0
ik kan
Ġraks asa
Ġc om
o da
Ġker jakan
Ġjatuh kan
p ula
Ġkeaj aiban
Ġd aya
Ġad uh
Ġs ingk
ag ukan
Ġmeng isi
ew akan
m eng
r on
Ġmar c
Ġmengaku i
Ġl il
Ġkeb ohong
Ġkeh abisan
Ġalam at
Ġbad an
Ġmener im
Ġmemb enci
Ġberb aring
Ġf ed
Ġyah udi
Ġjad ilah
Ġdul uan
Ġan na
Ġc ab
Ġkeb aikan
awan c
' .
er ti
a it
ent ur
Ġmet er
ind ung
Ġangk asa
si apkan
Ġju ara
Ġkakak ku
Ġ et
Ġbers edia
Ġmengg angg
t an
Ġorang nya
aj ari
Ġkuber itahu
Ġn a
Ġmat anya
Ġcar ol
Ġnark oba
w ar
Ġl ong
Ġatas nya
Ġpeny eb
8 0
Ġn ot
ev er
Ġmenj ag
Ġdib awa
Ġpen ya
Ġbos s
Ġun ivers
Ġmal ang
1 6
el le
Ġmr s
es arkan
Ġdud e
Ġstev e
Ġrestor an
Ġmat aku
r ia
is asi
ing ton
Ġr is
Ġlagi pula
Ġmus tah
Ġmemasuk i
Ġkekacau an
Ġber encana
Ġmend arat
awan an
Ġsus u
h iri
Ġk i
Ġsal ju
Ġmerindukan mu
ist irahat
Ġtongk at
Ġberl ebihan
Ġdam ai
Ġdiant ara
Ġmustah il
em at
Ġid ent
Ġmen et
Ġper lahan
Ġmemb enc
Ġkasih an
Ġk il
Ġp andangan
Ġj an
ul asi
Ġrum it
un da
Ġj in
Ġc ome
Ġb ik
Ġp ing
Ġmemper lakukan
Ġtel anjang
f ir
or ak
Ġg ab
angan nya
ow s
Ġn asional
Ġpet e
Ġmay or
Ġmengingin kannya
p ut
Ġp le
Ġmeng arah
emb ira
Ġmempercaya i
Ġke ju
ag o
Ġkes enangan
Ġsen apan
t y
or a
Ġmemb osan
Ġmend ekati
Ġdiam lah
Ġpros es
Ġbon eka
Ġdip ec
any ikan
Ġjohn ny
Ġlo is
Ġm ill
Ġber umur
Ġmar s
Ġ ukuran
Ġpas ar
Ġdib utuhkan
Ġpab rik
t up
Ġper is
Ġmemanggil ku
Ġul ar
Ġpan ik
Ġmem enuhi
iksa an
ob atan
Ġkont rak
Ġmeng us
Ġser ig
Ġwajah mu
Ġad anya
Ġst an
Ġbl ok
Ġmeyakin kan
Ġc ua
elah i
Ġcont oh
Ġdap ur
Ġmembosan kan
Ġpr i
Ġmengh itung
Ġkont rol
er jakan
Ġbas ah
op a
Ġper aturan
Ġmengh arapkan
ber t
Ġmemec ahkan
Ġ usaha
ul ikan
gi an
anc ar
Ġmel acak
Ġre al
Ġmengej utkan
ul d
Ġmem at
Ġps ik
Ġmana j
er j
i asa
y e
Ġs api
Ġl al
Ġj ak
eg ah
Ġsis anya
Ġmelemp arkan
ing s
Ġberk umpul
Ġkat amu
Ġterh ormat
Ġbos an
Ġperc oba
Ġ eli
Ġsaya p
Ġbar b
Ġt opi
Ġmin yak
inc i
Ġsecepat nya
angg ang
Ġberk elahi
Ġmelew atkan
v ille
Ġt ungg
Ġditu tup
Ġlib uran
Ġbern apas
Ġsiap kan
Ġmengenal nya
Ġo s
os e
Ġmenjalan i
ag am
Ġpas ang
y o
Ġdew an
al e
Ġr ev
ab il
Ġkes eh
Ġd oc
ef an
er ai
si p
Ġdik etahui
Ġbek as
Ġg or
Ġperm en
q ue
Ġs ent
Ġmeng ancam
Ġg ame
Ġmengemb alikan
Ġmenyakit kan
as ang
Ġlem ari
ul ar
Ġsheri ff
Ġb apak
Ġpemb icara
Ġpenelit ian
Ġmenemu imu
Ġserig ala
Ġtr im
, .
ig h
Ġrob ot
ap aran
ist en
Ġpemb ohong
iv e
Ġmeny aksikan
Ġkat e
Ġpertahan an
Ġpemb uru
Ġart hur
Ġrup anya
ukan ya
Ġsayang ku
Ġpol itik
Ġdav e
Ġmelemp ar
i apkan
Ġg udang
Ġtomb ol
Ġber istirahat
ep an
Ġmemas ak
Ġbal as
e a
Ġb akat
Ġmeng endalikan
Ġkeker asan
' ll
Ġdis k
Ġterk ena
Ġr okok
aks ana
Ġmemb ac
Ġf ant
Ġsin ar
1 9
Ġaw ak
Ġmengh ormati
Ġpem enang
Ġbang sat
tr uk
Ġvir us
Ġc ad
up un
and ung
Ġsej en
Ġty ler
Ġt al
arah an
Ġterus kan
Ġpas ir
Ġspesi al
Ġmengunj ungi
Ġkembal ilah
Ġken angan
Ġrumah mu
Ġtepat nya
Ġali en
Ġm ont
Ġpeng khian
Ġkeseh atan
Ġh om
Ġab ad
k e
at alkan
Ġses ungguh
Ġprofesi onal
Ġmen teri
Ġr acun
Ġpr oduk
Ġl inc
Ġare a
in ar
aya an
Ġhat imu
int ai
Ġst efan
k ita
Ġmen endang
Ġadik mu
alik nya
Ġd ay
Ġtr ik
Ġ untung
Ġch rist
Ġkebohong an
d o
Ġtert idur
Ġmelapor kan
Ġberh utang
Ġberb uru
Ġjawab annya
Ġsesungguh nya
t api
Ġhar ta
Ġpercoba an
Ġl and
Ġdah ulu
Ġmat amata
Ġmengacau kan
Ġkepercaya an
Ġj ud
Ġser ikat
Ġseny um
Ġdib ayar
Ġtuan ku
Ġberl alu
Ġmeng end
Ġv i
Ġkeluarg anya
Ġmenyuk aimu
is wa
da ya
Ġmengg ali
Ġambil kan
Ġg ir
Ġg on
e i
Ġb ent
ar ai
Ġkak iku
Ġd ri
as ia
ed it
Ġdib elakang
Ġmen ab
Ġberl ian
Ġkor an
Ġmerasakan nya
Ġ au
aj ak
Ġmod el
Ġband ara
idik i
Ġjon es
Ġber urusan
Ġr eb
Ġterk unci
,, .
Ġrich ard
b u
Ġo lah
int as
Ġkol am
Ġk aca
Ġc ond
Ġkel aparan
Ġmend atang
Ġberant akan
Ġcharl es
Ġs ikap
em ahan
ad ab
Ġket at
anc ing
Ġg ang
Ġmur ah
Ġmengaj ukan
Ġy un
Ġke vin
Ġseb aliknya
Ġsat upun
asi kan
Ġberd asarkan
Ġkerus akan
Ġl ike
Ġc ia
Ġpengant in
ik el
ok e
Ġer opa
Ġtekn ologi
es at
Ġd orong
Ġs ingkat
Ġsenj at
Ġj uni
ur uan
ed i
Ġmenjatuh kan
Ġkau lah
Ġin tinya
er asi
Ġkem ati
em y
Ġdir umah
ad alah
ih ari
Ġdis itu
ony et
Ġlok al
Ġd om
am aku
Ġl is
Ġkesep ian
Ġbicar alah
Ġt ag
Ġber usia
Ġsek edar
Ġgil ir
Ġple ase
Ġkeb ahagia
Ġand y
Ġsal uran
Ġmengaj arkan
Ġr i
Ġpen si
ump ang
Ġpotong an
Ġident itas
Ġkal o
r ika
Ġant ar
Ġkakak mu
Ġmart in
as imu
Ġpernah kah
Ġan nie
Ġberh ent
Ġdipec at
p s
Ġmeninggal kannya
Ġmem injam
in um
Ġst and
Ġkeku asaan
Ġmemperh atikan
b at
Ġker ing
Ġmemb ebaskan
end ak
ow ongan
omb ang
Ġrat usan
Ġberhat ihati
os is
Ġje ff
Ġpen is
Ġtert utup
Ġawal nya
ett e
Ġa ja
Ġjak et
Ġmem aks
il e
omb a
Ġs umpah
ow er
utuh kannya
Ġwh o
omp et
im an
Ġh ave
Ġser ahkan
Ġ6 0
Ġd ek
Ġak tif
Ġcua ca
Ġpark ir
Ġn afas
ingg ung
aj at
ahan kan
Ġmemikir kannya
Ġperasa anmu
Ġs usah
r ad
itt le
o ok
Ġkak imu
Ġtar uhan
Ġpem ak
Ġm ainan
Ġp d
em angat
Ġl ompat
ti g
Ġg imana
ol og
Ġpenj el
Ġmeny emb
ri g
Ġkub antu
Ġmembiarkan nya
Ġberhent ilah
Ġkuat ir
Ġpo in
Ġpenyeb ab
Ġm onyet
uny ikan
Ġaman da
Ġj a
is ar
Ġpen asaran
Ġuh h
Ġn apas
ib atkan
Ġdatang lah
ĠĠ Ġ
Ġmencari mu
Ġl engan
Ġj us
Ġc a
Ġv inc
Ġas h
Ġmemang nya
andat angani
ad inya
Ġ ep
Ġberh ak
Ġmenghind ari
a at
Ġs ol
Ġp ag
ant is
as alah
Ġj uli
Ġo ver
Ġsen ator
Ġpend erita
Ġs ak
Ġmemb utuhkannya
Ġpember ont
er d
Ġdam on
Ġten aga
op ter
Ġth om
Ġmari a
r id
Ġdis eb
Ġpekerja anku
Ġr ad
Ġg eng
ind u
Ġkut ukan
r es
m el
Ġgem uk
Ġber ku
Ġhar v
Ġkar ir
Ġl um
Ġmem esan
Ġmeng uas
r ut
Ġmengh al
Ġi p
aran kan
Ġkak inya
r am
Ġsis wa
Ġw on
Ġkeb un
Ġjar ingan
Ġmenyalah kan
Ġmeng gigit
Ġad akah
ju al
Ġ uc
Ġak ses
Ġmendengar ku
at asan
Ġmem el
Ġmeng khian
s y
Ġse an
Ġtentang mu
Ġth ere
Ġji w
Ġterbur uburu
s en
Ġbern afas
Ġmenyingk irkan
Ġs uku
Ġs ans
Ġbag inya
Ġmembant unya
ell a
Ġkrist us
Ġmerek am
Ġlengk ap
p l
Ġbel l
Ġn ow
ku at
tr on
Ġtrim s
Ġmengec ewakan
r aga
ant inya
Ġst ar
Ġmeng ungk
Ġdil ihat
Ġsingk irkan
Ġb id
Ġed die
Ġber an
Ġr on
Ġoh h
Ġmobil ku
an sa
Ġl id
Ġ aud
au an
Ġh amb
Ġkend araan
Ġmenerim anya
Ġsej uj
Ġfil e
Ġl as
Ġters esat
Ġluk isan
Ġl es
uth or
it z
Ġtan aman
Ġbay angan
Ġlap or
Ġmemp r
Ġjen ius
Ġins p
Ġmempel ajari
Ġs ambil
Ġt ot
Ġp or
Ġr as
engk ar
Ġtip e
Ġharg anya
Ġ3 00
Ġl uthor
is inya
w ard
Ġg ua
Ġseb ulan
Ġf s
Ġ engk
Ġbers ulang
h y
Ġb ub
ib u
ov er
Ġul tra
as nya
Ġpas tinya
Ġseti a
Ġmemb ahas
Ġg ul
ff f
p el
Ġp ayah
Ġdan au
Ġf isik
Ġpikir anmu
Ġt ir
s er
emp ur
entur y
c i
Ġmeny atakan
anc ang
Ġnya w
Ġjuta an
Ġs osi
Ġmel angkah
Ġdok umen
Ġs ma
Ġt urn
Ġmenguas ai
ing kah
angg uan
Ġsejuj urnya
Ġbert engkar
emb ang
ati on
aku an
Ġpembicara an
i on
Ġs ul
Ġn n
Ġpen ulis
Ġr apat
Ġdis ek
Ġterp isah
am m
Ġl au
Ġkeluar lah
Ġterb iasa
Ġbol d
Ġpend uduk
Ġmengaj ari
Ġsant a
Ġseolah olah
Ġs aham
Ġse x
Ġh or
Ġmembiarkan mu
fa atkan
k ar
Ġpr om
Ġpil ot
t ak
Ġmen ara
ik opter
Ġl ittle
Ġbers enjata
Ġth ank
Ġkeber ada
Ġbuk it
Ġhasil nya
5 0
si ap
Ġgel ombang
imb ang
10 11
Ġcow ok
fir m
Ġcond ens
Ġjad wal
f at
o ff
Ġs imb
Ġh um
ng ill
Ġthom as
ed fs
Ġka isar
fff ngill
Ġcondens edfs
angk ir
Ġpensi un
Ġengk au
Ġk ing
unj ung
Ġkab el
Ġinter n
Ġberper ang
ob ek
Ġm organ
Ġt ant
at angan
ers on
Ġteling a
o id
w ak
Ġ amat
Ġp apan
Ġw or
Ġpemak aman
et ik
Ġgoth ic
Ġmenak ut
Ġg ub
Ġg od
ihat ilah
Ġhel ikopter
Ġmanaj er
Ġm uka
ad isi
Ġh eran
Ġr agu
Ġg angguan
Ġwak il
Ġjalan kan
Ġme i
Ġkenyata annya
Ġtert embak
Ġmenyebut kan
Ġsaudar amu
Ġpengg emar
nc entury
Ġs d
ob i
Ġmenjij ikkan
aku ti
Ġilmu wan
f ord
Ġst re
Ġpacar mu
Ġter owongan
aw atan
Ġas isten
Ġpekerja anmu
t e
Ġmenc ulik
Ġpenyel idikan
Ġm unt
Ġl anjut
im en
Ġr ight
emb uru
ikir an
Ġtim e
Ġder ajat
ul er
inggal kan
Ġm ik
as ti
any e
Ġkant ong
r esi
Ġh as
Ġmer encanakan
Ġkes elamatan
ingk atkan
Ġb ul
uk i
Ġn uk
Ġmengh apus
Ġcar amu
Ġoliv ia
Ġmenungg umu
Ġcok lat
b o
uj ud
ump ulan
Ġjas on
Ġb encana
Ġorang tu
Ġpern yata
r en
Ġh ir
Ġbers emangat
si e
Ġmen ipu
Ġr indu
Ġrum put
Ġaf rika
ti on
Ġhal us
Ġpenc arian
Ġmengen ali
Ġmenyam b
r il
Ġt or
Ġt on
Ġw awanc
uc e
Ġbang sa
Ġkrim inal
Ġtamb ang
Ġmad u
Ġt awaran
l ow
Ġm ahas
Ġt am
Ġper awat
Ġmeny iapkan
Ġpelangg an
r ew
Ġ ekor
on an
Ġp id
Ġberd ansa
Ġperm ukaan
Ġmemint aku
Ġl isa
Ġgre at
Ġlid ah
Ġkebahagia an
r ib
Ġke adilan
Ġtet angga
Ġmul der
Ġas ap
Ġunivers itas
Ġbers inar
Ġjess e
Ġgon na
and er
Ġkec ewa
Ġkomp et
Ġf orm
Ġdib eri
Ġcamp ur
Ġc y
anti kan
Ġwh oo
Ġkr edit
pir asi
ak unya
Ġber utang
Ġmer ampok
anj ikan
Ġrom antis
Ġhar apkan
Ġmemper ingatkan
Ġc uc
es e
Ġw ash
Ġsi asia
Ġal asannya
Ġkor ea
Ġmen ekan
Ġl n
Ġ2 1
p elan
as ana
Ġmeng atasi
Ġberk embang
Ġjalan jalan
Ġrom a
Ġw is
Ġaj aib
Ġmmh mm
Ġt k
Ġmengad akan
Ġp ac
aka inya
Ġmesk i
Ġ aus
Ġs amb
en ing
any ol
aud ara
uk ar
Ġper w
Ġsudah lah
Ġkl aus
Ġwakt umu
Ġmain main
e et
Ġm imp
Ġmeny ewa
Ġberf ungsi
el ompok
Ġh ip
Ġmem indahkan
da y
Ġsep eda
Ġnik mati
Ġj es
ic o
Ġsy ukur
Ġj ay
Ġbers ihkan
Ġbertahan lah
Ġmc c
Ġtem annya
Ġah h
Ġrem aja
Ġp unc
Ġh ancurkan
Ġro da
Ġlum ayan
Ġj osh
Ġkes al
Ġcer itanya
Ġberl aku
Ġro ger
Ġjer emy
Ġsemb uh
Ġbaw akan
Ġm ampir
in ju
Ġc emburu
Ġg ur
Ġmeny anyi
Ġbenar kan
Ġem ma
Ġry an
Ġfed eral
Ġolah raga
Ġp iz
Ġper awatan
Ġf u
ingg alan
Ġkes e
Ġser agam
Ġmak e
or y
Ġf ot
Ġsep otong
Ġmemint amu
Ġp anggung
Ġkel inci
ust ri
Ġping san
er g
ir u
Ġmasalah mu
Ġpelan pelan
Ġmenyimp annya
urun an
Ġgir l
am er
Ġl ag
Ġpemb uat
l ir
s ungguh
Ġp ingg
angk ut
Ġtr adisi
Ġsp anyol
Ġulang i
Ġbak al
ut u
Ġn ol
Ġpem uda
Ġmenutup i
Ġmengg el
f r
Ġsi p
Ġmen amp
Ġg aj
uang kan
y aku
Ġberk encan
Ġbangk it
f e
Ġ2 2
Ġmembaw akan
Ġmembel inya
ag aim
Ġmel uk
Ġtert ulis
Ġsenjat amu
il aku
ir ing
Ġer ic
Ġmen untut
Ġc emas
Ġpen utup
ungkin kan
Ġbar is
ama an
Ġkr u
ort h
Ġpak et
ont rol
Ġwh ite
Ġcar ter
Ġt eg
Ġdan sa
Ġmeng atas
Ġmemper baik
Ġdol lar
b ah
Ġl eng
Ġmem akainya
Ġar m
Ġsim on
s aya
Ġperb atasan
Ġmenemb aknya
Ġk op
at h
Ġl ump
Ġbib ir
Ġmengak hiri
Ġd g
us h
Ġn ice
Ġmengh ajar
Ġind ustri
Ġmak asih
ar anya
Ġcer min
Ġgre en
Ġ ego
Ġmem ohon
Ġco unt
Ġmem ancing
ung kan
Ġpeng u
her ine
Ġh ong
Ġmer ayakan
Ġw oo
Ġ, ?
Ġbeb an
Ġi f
Ġdih ukum
Ġk ang
it or
Ġl ev
da f
ikir kan
Ġ2 3
m emb
er ing
Ġmend es
wa j
ant ang
Ġpen umpang
Ġoliv er
firm asi
Ġk aw
Ġmeng esan
Ġmenikah i
ogr af
ak ter
Ġb ec
Ġl ord
Ġkut ahu
Ġmembicarakan nya
ti e
Ġberl utut
Ġk unj
Ġp aus
Ġpel atihan
Ġinsp ektur
t is
Ġper amp
Ġmendengar mu
Ġpacar ku
Ġmenyakit imu
Ġkim ia
Ġmemasuk kan
Ġpart ai
h idup
aw i
daf tar
Ġc all
Ġn ov
Ġwh en
Ġpers en
Ġkupikir kan
Ġs or
as kannya
eg al
Ġsuam imu
Ġlu as
r an
Ġan y
Ġterk esan
Ġmembac anya
ep h
Ġkeb ut
Ġbet h
land ia
Ġn ih
Ġpat rick
Ġnuk lir
er it
ol e
Ġmenc egah
Ġbar ry
Ġres iko
p or
Ġl ayan
Ġtan p
Ġd ada
Ġb end
Ġberk at
Ġsep ak
Ġakhir akhir
Ġkuber ikan
ist an
Ġleg enda
Ġak si
Ġs om
Ġluc y
Ġmenyeb ar
Ġtun ai
Ġcint ai
ur angan
im at
Ġmengatas inya
Ġt aj
Ġkenc ing
Ġkun ing
Ġrencan anya
uk kan
Ġmem utar
Ġef ek
Ġmemperbaik inya
m o
Ġbr uce
Ġe un
f l
os ok
Ġal arm
Ġjauh kan
Ġpu as
Ġfin n
b s
Ġc uri
ara b
Ġab u
Ġmur ni
m on
Ġ ucapkan
Ġh ank
Ġh utang
Ġgr av
Ġsemb unyi
Ġmembutuhkan mu
Ġs angg
Ġj un
Ġr u
Ġhad api
Ġmenemu inya
Ġpub lik
Ġmengesan kan
Ġkau lakukan
Ġbi j
' ve
t ua
Ġk id
Ġke yakin
Ġtr ag
Ġpiz za
Ġc ut
Ġdiber itahu
Ġbersiap lah
Ġ ek
Ġmemb ah
Ġw ant
Ġsu asana
Ġhat inya
Ġmengenal mu
Ġmenghubung imu
Ġpikir anku
Ġbeli au
Ġwash ington
Ġc re
Ġg old
Ġf ar
Ġku il
Ġpel akunya
Ġput ar
Ġtangan i
Ġberc erita
Ġsuam inya
Ġhol ly
is me
Ġstre et
on c
Ġseb esar
Ġters embunyi
k et
Ġt ud
uk nya
ob rol
angk al
Ġberb agai
ie f
Ġat ur
Ġkem anamana
ch er
Ġdeb u
Ġuc apan
us kan
ali f
Ġsh in
Ġsk y
an akan
ol n
ja bat
angan inya
Ġmemer iks
Ġmenyuruh ku
Ġmark as
ya l
Ġberk om
ec h
Ġmemanggil nya
Ġko per
Ġsab tu
r ow
Ġt angk
amp ak
Ġdis erang
Ġmenyel idiki
Ġtamp il
g y
Ġmengus ir
Ġkebut uhan
ak apan
Ġin st
int er
Ġbr ian
l d
s in
Ġr ingan
Ġlayan an
al itas
Ġdi anggap
Ġsat elit
Ġkh an
Ġmeninggalkan mu
Ġel ek
Ġmeled akkan
Ġlind ungi
Ġp andai
Ġmel ah
Ġpeng irim
Ġst abil
Ġem ail
Ġmempert ahankan
v an
er angan
Ġj eb
es h
Ġmel ukai
Ġkar akter
Ġmemp engaruh
eks iko
Ġdasar nya
Ġmenent ukan
Ġwawanc ara
Ġb an
Ġg ib
Ġmunt ah
ag on
Ġn az
Ġmenya la
Ġmahas iswa
Ġh ill
Ġmeng kh
Ġmengh adap
Ġpulang lah
Ġbay aran
Ġtelepon nya
Ġbal apan
Ġtu aku
Ġmenjual nya
Ġcad angan
p u
r ie
Ġmem andang
Ġsek ret
ent rasi
aruh kan
e er
r op
Ġs ah
Ġl aw
Ġjum at
Ġj arang
Ġmeng ub
Ġr ab
Ġsi fat
Ġsosi al
Ġgub ern
Ġk sat
ur uk
Ġmel atih
Ġtent unya
Ġberan inya
Ġ asa
Ġs idik
Ġmer c
Ġg anja
enti fikasi
Ġm eksiko
Ġjack son
ahab atan
Ġba unya
Ġs uh
Ġb ack
ag e
Ġst udi
Ġmem ungkinkan
Ġsalah mu
Ġseni or
Ġpernyata an
Ġt ang
Ġp in
is ahkan
Ġkeb ij
Ġpemer iksaan
Ġh aw
if er
Ġk it
Ġw ood
Ġmembayar nya
oleh kan
Ġpenjel asan
Ġperamp okan
Ġ Ċ
Ġkes el
Ġmobil mu
Ġket idak
Ġterk utuk
Ġder ek
Ġrah asi
Ġd ompet
ti wa
Ġpers ahabatan
Ġgel as
Ġs asaran
Ġmemb entuk
Ġf ncentury
Ġbus uk
Ġpengaw al
Ġlinc oln
Ġgothic fs
Ġgubern ur
i es
Ġpem andangan
Ġjen ny
wak tu
agaim ana
as uh
Ġpr akt
Ġas uran
Ġhit ungan
Ġev ery
am amu
p ort
er as
Ġmen ingkatkan
Ġg amb
Ġch ic
Ġmenemukan mu
Ġpir ing
en am
Ġros e
Ġsekret aris
z o
Ġb eck
Ġsek elompok
Ġch a
Ġli ft
Ġsangg up
Ġp a
Ġmen andatangani
Ġbang s
l ie
ku p
Ġbaik nya
ab isi
Ġwal ik
Ġlo ok
Ġmemberitah ukan
Ġpunc ak
Ġh abiskan
Ġya itu
Ġl ady
Ġmu ak
Ġpl ay
Ġmol ly
t o
Ġk ung
Ġhar d
om a
Ġpel uang
Ġpun yaku
Ġwajah ku
d iam
i x
ind ahan
Ġser ta
Ġperk ata
Ġmembel ikan
Ġbert ugas
Ġjend ral
st ein
Ġdibanding kan
ng omong
ad o
ep ot
ah it
Ġl ic
Ġc ity
Ġperc akapan
Ġwalik ota
r ab
Ġkeb i
Ġkr is
Ġkomp l
Ġdo ug
Ġpeter n
Ġleb ah
Ġpenderita an
l am
z at
Ġgr ay
Ġle on
Ġnik ita
ar e
Ġh on
Ġr ok
Ġam y
Ġkomun ikasi
Ġse wa
Ġg end
Ġju al
Ġterl ebih
anc uran
Ġgr eg
Ġhe art
Ġmemper siapkan
Ġtubuh mu
orn ia
Ġksat ria
f ik
Ġc le
Ġmar sh
Ġjag o
Ġthank s
Ġsimb ol
Ġp okok
engk el
enj ara
Ġbid ang
Ġd osa
Ġberp isah
o us
Ġp ej
Ġked atangan
Ġmelew at
Ġdib angun
Ġpengh arga
c r
e ga
Ġm aya
Ġmel ibatkan
os k
Ġtemb ok
eng erti
Ġg ula
i up
Ġmengg antung
Ġberhat ihatilah
d en
t ing
Ġm ick
em ah
Ġn ight
Ġsm ith
Ġduk ungan
Ġsip il
Ġ awan
Ġf is
Ġst af
Ġnya lakan
Ġwh it
Ġmemer intahkan
Ġmaj alah
Ġmenyelesai kannya
Ġb h
ar s
Ġal k
Ġser ang
Ġdit ahan
Ġpet ual
Ġed ward
Ġinter net
l m
l im
Ġy ep
Ġkar t
Ġti arap
j ek
Ġse e
Ġl amp
Ġl ayar
Ġser atus
Ġmar in
est asi
b it
b uang
y l
Ġg ord
iz inkan
Ġs arang
Ġp ink
Ġurus anmu
Ġngomong ngomong
in ap
Ġpem an
Ġjam inan
ator ium
Ġs ok
al ih
Ġpen embak
Ġbay inya
air an
Ġdivisi on
Ġt s
Ġput aran
el askan
Ġr s
Ġl utut
Ġc alif
Ġmemas ang
Ġh app
Ġle zat
olis ian
Ġlis bon
Ġ ump
Ġk ah
Ġsing a
Ġlou is
Ġmengal ir
Ġg embira
Ġch ip
Ġdit ambah
ak angan
Ġmen ahannya
ad apan
Ġh m
il i
Ġperd amaian
in n
Ġan ti
Ġtubuh ku
Ġmenjauh lah
ar y
Ġp indahkan
oh ol
Ġres ep
Ġpengkhian at
Ġsyukur lah
Ġr ap
Ġbers y
Ġtangg uh
Ġpu isi
Ġp ajak
Ġap el
Ġker umah
Ġkub uran
Ġpertanya annya
Ġterj atuh
n es
Ġpeng aruh
Ġsiap akah
Ġdri ve
Ġl ight
Ġmeng ij
Ġpel indung
Ġbern iat
Ġdic uri
Ġmah k
Ġsus ter
Ġr ub
Ġkar un
Ġket inggalan
Ġkep olisian
Ġman apun
tif kan
Ġmempert imbangkan
Ġmenab rak
Ġchic ago
l or
t im
Ġmemaaf kan
Ġkebi asaan
Ġl at
Ġr en
om an
Ġbr ad
Ġz h
Ġdiper b
Ġdarah nya
Ġh aus
Ġmeng alah
Ġg anda
Ġkos t
Ġd og
Ġku ambil
Ġsep asang
Ġambil lah
Ġbent eng
Ġk ob
Ġket erl
Ġsu e
Ġvir g
Ġinv es
Ġmarc us
eb ar
Ġlaut an
Ġkent ang
Ġch ina
omb ong
Ġpip a
Ġmenyayang imu
Ġpengharga an
Ġmem inum
ungg uhan
Ġaw asi
Ġpat ung
Ġcalif ornia
at al
Ġrek ening
Ġperis tiwa
g r
er man
Ġsa buk
Ġr od
es a
Ġat l
Ġkan ker
olong an
Ġpet ani
Ġmenghilang kan
Ġpelaj ari
Ġt ay
Ġg ol
Ġw art
Ġdip anggil
Ġmemat ahkan
Ġmeng unci
ok o
Ġmenc uci
ber g
osi asi
Ġmelindung imu
y ah
Ġdi lah
Ġtidak lah
Ġn el
Ġtugas mu
Ġyun ani
it kan
Ġpeng endali
enya p
um si
Ġbert ingkah
Ġsepert iku
Ġp ort
ik si
Ġr ig
esai kan
Ġsenj atanya
Ġasuran si
at at
at uan
Ġbel ok
ec t
Ġdilakukan nya
Ġsepup u
Ġris iko
e en
is ahan
Ġmeng ger
ab a
Ġsop h
asi apa
Ġkal ung
Ġseks ual
Ġtump angan
a ih
Ġd at
al agi
Ġdi alah
Ġmel ebih
Ġbel akangan
Ġdic k
Ġl en
Ġj ung
Ġhal lo
aks anakan
op si
Ġart ikel
Ġlingk aran
Ġsen in
Ġbangun lah
Ġram ah
it o
ut asi
Ġbar t
Ġuang ku
Ġmenyel inap
Ġtugas ku
Ġmengkh awatir
Ġmengh ancur
Ġil egal
ott e
Ġperd uli
Ġluk e
Ġtaj am
k ati
Ġd na
Ġmas ak
Ġpe ti
ast ik
Ġdilah irkan
Ġl amb
Ġter ikat
Ġmend uga
Ġpen emuan
atan da
Ġberk eli
orban kan
Ġ est
Ġper ak
Ġmeny anyikan
n ah
Ġ org
Ġmen unjuk
Ġsiap asiapa
Ġti ada
onal d
Ġkamp us
p o
Ġk ara
Ġw all
ula inya
Ġkeyakin an
n am
ic u
Ġmencur ig
Ġper angkat
Ġr enang
and alkan
Ġterh ubung
Ġputus kan
Ġperp ust
m ond
le e
Ġmenyelamat kannya
Ġterbang un
Ġta e
Ġmengab aikan
Ġij in
Ġbik in
truk si
Ġs ap
Ġj ab
Ġkam b
Ġw eb
eh an
Ġbert empur
Ġputr imu
Ġmart y
Ġcas s
Ġkompet isi
Ġberkeli aran
Ġb ug
Ġsn ow
r ey
Ġt t
Ġpem ikiran
Ġsh o
Ġko in
Ġmemperk enalkan
Ġt urut
am en
Ġh ay
is nya
Ġdim akan
Ġsep akat
uru f
Ġre ally
i er
m em
Ġs ungguhan
Ġgr and
mer eka
Ġmag gie
Ġm akin
Ġk andang
Ġb aja
Ġsem pat
Ġch i
Ġjer ry
Ġl intas
Ġmemb atalkan
Ġterb uat
Ġh ere
Ġke ahl
Ġpen ari
Ġpen onton
Ġ9 0
Ġkemati annya
Ġmembah ayakan
t anya
Ġk ati
Ġp ep
Ġkau m
Ġmemb ela
Ġmenj erit
Ġputr aku
Ġcon n
Ġtungg al
g en
z e
Ġ ugh
el y
eh at
and y
Ġlil in
n n
t ik
ak ira
Ġs int
Ġp impin
Ġthe y
fer ensi
Ġpelangg aran
Ġmenghal angi
ab ut
Ġsemb unyikan
Ġsand era
Ġdul unya
Ġkeahl ian
c k
Ġmen aik
Ġc ent
Ġket urunan
Ġterb atas
Ġand rew
Ġm uh
Ġn an
eg angan
Ġdit ak
Ġmat emat
Ġmemanggil mu
d e
it ter
Ġdi jual
Ġl os
Ġv ol
Ġgil iran
Ġtot al
Ġd y
Ġbang et
Ġgen erasi
Ġmenyet ir
Ġmeman faatkan
eh kan
Ġkirim kan
Ġmit ch
Ġvictor ia
Ġtk p
Ġ ari
apat kan
uj ian
Ġmes ti
Ġab by
Ġtag ihan
ah al
Ġch o
Ġdip enjara
Ġli at
Ġbij aksana
Ġm ir
ek erjakan
Ġsem i
Ġkes ed
Ġberm asalah
ast is
Ġiz inkan
Ġway ne
Ġtand atanda
Ġwart awan
h at
as iku
Ġmeng id
amat kan
Ġper an
Ġan n
Ġr un
aw akan
ist er
Ġng ga
Ġmenyentuh nya
Ġgal aksi
an am
Ġjalan nya
Ġkecil ku
Ġtel at
Ġjo ey
Ġmenyam p
Ġfe el
Ġd uga
Ġakan kah
Ġmer agukan
Ġseb erang
Ġbers el
Ġsampai kan
Ġte x
h op
i ak
Ġd omba
Ġr aya
Ġf er
Ġch ief
Ġmemberikan mu
Ġputr inya
Ġlab or
Ġmempercaya inya
Ġcint aku
Ġb ulu
Ġ4 5
Ġnat han
eku ensi
Ġmenggangg umu
s esi
Ġl ot
b intang
Ġmer ebut
Ġn onton
Ġf asil
Ġsekali an
Ġgr ace
anda inya
Ġ8 0
Ġpec ah
Ġditu lis
Ġ arab
Ġt ap
Ġj ac
uj uan
Ġky le
Ġperbuat an
Ġmengkhian ati
Ġalk ohol
Ġt ari
Ġber isi
Ġap anya
Ġpr ancis
Ġyo ung
Ġpekerja annya
Ġmengel uh
Ġbed anya
Ġjeb akan
a ilah
ar us
Ġap alagi
amb arkan
Ġtert inggi
Ġsitu s
Ġq ue
Ġmew ah
Ġmeny arankan
Ġpacar nya
Ġk af
Ġmengh ukum
sa at
Ġkej ar
Ġsy arat
Ġuhh uh
Ġmelah irkan
p et
em ahkan
Ġch an
Ġben sin
Ġmet e
Ġmed ia
Ġbud dy
Ġmenyamb ut
Ġperpust akaan
Ġmem ori
Ġterb aru
Ġbuat lah
Ġsm all
Ġsuar anya
Ġh uruf
Ġapa an
Ġpas s
Ġbon nie
Ġpemberont ak
Ġkut emukan
Ġmain kan
Ġperasa anku
Ġkost um
Ġmer ay
aj uan
Ġmenyelamat kanmu
Ġmemeriks anya
Ġs um
Ġg urun
ok ol
Ġberk as
Ġmenolong mu
amm ad
Ġt at
Ġh im
Ġter ob
Ġr anjang
Ġag ama
Ġwas pada
Ġwor ld
Ġpid ato
Ġmem ulainya
Ġter m
Ġf all
Ġdisek itar
Ġmempengaruh i
ik ah
Ġmer obek
ent ang
ac i
ed ak
Ġkal imat
itu al
Ġc omp
Ġser ibu
Ġtan k
a is
Ġj et
Ġku inginkan
Ġbaj ak
Ġkamar ku
Ġb ac
Ġr oy
Ġmenya lakan
inc ang
Ġkir akira
eluar kan
j am
Ġl aki
Ġg y
elah an
Ġpol a
Ġbuat an
Ġmelupakan nya
Ġsuh u
l ine
um lah
Ġth ink
Ġcer ah
Ġit alia
Ġmemberitah unya
Ġali ce
Ġfasil itas
ul ly
Ġje an
Ġmarin ir
Ġdi ku
per gian
ab i
amb ahkan
Ġdil arang
Ġberl ayar
Ġmenget uk
Ġtekn ik
v i
Ġn ar
Ġdun ham
Ġfr ancis
Ġmemint anya
u alan
ent ingan
Ġch en
Ġwal ker
Ġcarol ine
Ġtud uhan
Ġpengirim an
p e
ad am
Ġh igh
Ġmemper oleh
Ġgrav itasi
Ġmuh ammad
f ield
al s
Ġh eh
Ġab adi
Ġperc y
Ġmengend arai
Ġke uangan
Ġdiam diam
Ġtant angan
Ġlabor atorium
Ġl s
Ġal p
Ġdim as
Ġhow ard
un ungan
Ġj aksa
Ġbe pergian
2 0
e ad
p ed
Ġm ore
Ġj os
Ġkut unjukkan
Ġmant el
Ġlib ur
Ġuang mu
Ġneg atif
Ġpan ah
h h
alu an
Ġcas ey
Ġtengg or
Ġmenent ang
Ġkati e
Ġkemb ar
Ġpenj ualan
Ġs ut
Ġmen ebak
Ġhidup hidup
Ġsp art
Ġdiper t
Ġpros ed
Ġik atan
Ġberf ikir
Ġ ai
Ġs ally
Ġl or
Ġmeng ontrol
ir e
adi an
Ġtak e
Ġas ia
ch i
uju i
Ġj angk
Ġbar usan
Ġberk eliling
Ġmes ir
Ġtu amu
Ġmant ra
Ġseh arian
Ġamb ulan
Ġmengungk apkan
Ġj uri
pat i
Ġbr av
c epat
k s
k awan
Ġ udah
ur ang
Ġtulis an
Ġav atar
Ġrol l
Ġmatemat ika
Ġd lm
Ġy u
Ġkel eda
Ġkat akat
Ġeks tr
Ġip ar
Ġpenamp ilan
Ġmisteri us
Ġak ibat
Ġak rab
Ġpel ukan
Ġperg uruan
Ġnik mat
Ġtamb ah
Ġt arian
Ġber war
Ġmay atnya
Ġmenyad arinya
Ġg us
Ġku j
ongk ar
Ġc os
Ġbuat mu
Ġjes us
Ġt unt
Ġmeng ikat
Ġkem arahan
Ġdim engerti
Ġot ot
Ġpeg unungan
Ġper angkap
Ġr ud
Ġg ri
Ġn ever
Ġmemper l
Ġhi u
Ġhad apan
Ġhadir in
uk uli
Ġkel emahan
ip ta
Ġbermain main
Ġkek urangan
Ġmengur usnya
b all
Ġag ung
Ġpendapat mu
in y
Ġmen anganinya
or s
es kan
Ġg w
Ġ' .
Ġmed an
Ġmempercaya imu
Ġcac at
rol i
ar on
Ġse andainya
Ġkem ajuan
Ġjam ie
Ġpetual angan
1 2
Ġkep on
Ġch ang
Ġdun i
Ġrut e
Ġ alan
as at
Ġc am
Ġmemb ukanya
Ġcharl otte
Ġl orong
Ġkam er
Ġw est
Ġmengh ibur
Ġbr ody
ingk uh
Ġum at
acam ata
Ġmis alnya
Ġdic ulik
Ġpart ner
Ġkarya wan
Ġmen ingkat
Ġmeng um
Ġkel ly
Ġch eck
Ġpeng orban
Ġcl ub
aus e
et ar
Ġap ril
Ġtempat mu
Ġwal t
Ġpej uang
ar iku
Ġj oo
ok er
Ġser angga
Ġz ona
Ġperh ati
Ġaj ak
Ġsaran kan
Ġpokok nya
' d
Ġc ind
Ġn or
Ġmenj ebak
Ġperw ira
Ġt ai
Ġg anggu
Ġf ly
Ġ4 00
Ġmenging atnya
m os
Ġ usi
Ġh ib
Ġin ti
Ġmemb ungk
Ġr il
Ġar g
Ġstand ar
Ġpetern akan
gi atan
Ġsh a
Ġam in
Ġmilik nya
Ġli pat
Ġpag ar
o on
Ġper awan
Ġberd uka
Ġrambut mu
Ġuntung nya
ah a
Ġl ancar
Ġper ayaan
um pa
Ġhar ris
ant an
Ġrep ot
Ġmenyam ar
k r
z y
Ġpeng obatan
Ġperl ukan
ingin an
Ġgr an
Ġtay lor
Ġbintang bintang
Ġrencan amu
Ġego is
Ġkeleda i
Ġp anc
Ġke giatan
ur e
os aur
Ġot om
Ġwat ch
ak ut
Ġd eh
Ġmen antang
is imu
anc y
Ġ7 0
Ġharv ey
r er
w ich
il ian
Ġg ent
ab eth
unc ur
Ġingat lah
Ġmeninggalkan ku
Ġmen iup
Ġter per
ell i
Ġgend ut
p le
Ġp urapura
ur uhan
Ġw aris
Ġters inggung
Ġik lan
Ġm s
Ġh op
Ġsam my
Ġlar ut
Ġmer aih
Ġpad ang
Ġcac ing
Ġsens itif
Ġkeberada an
e o
Ġmem akannya
Ġpos itif
Ġkunj ungan
p ikir
Ġm am
in ilah
Ġmen unduk
Ġsh aw
Ġgaj i
Ġ ey
Ġb ow
ob os
ob oh
Ġtop eng
Ġs ombong
ir akan
Ġsek eliling
Ġpr op
Ġa z
iv er
Ġint el
Ġsid ang
Ġmemel uk
Ġberwar na
Ġmeng eks
es er
Ġg ajah
Ġkub eri
Ġpay udara
Ġmem anj
ing kan
Ġpr o
Ġdit inggalkan
Ġlar ry
e um
v en
Ġk od
Ġmeng ulang
Ġmeng orbankan
Ġsekali pun
Ġkub unuh
Ġder m
Ġintern asional
k o
in f
enc ian
Ġterh ebat
Ġterd ekat
Ġjar um
Ġpeg angan
Ġmenatap ku
Ġmen usuk
up a
elah ian
Ġgl ob
m alukan
n ing
Ġm un
Ġk m
Ġt adinya
Ġdis amping
Ġit ukah
Ġbab ak
Ġkebenar annya
l ok
ang s
Ġdi ad
Ġmem u
Ġmas ukan
Ġput eri
Ġcar rie
org ol
imb angan
Ġlemp ar
Ġmenurun kan
b ol
Ġw in
ter n
Ġkeh ad
Ġkons er
Ġbersiap siap
Ġvinc ent
. ,
Ġy i
Ġc ak
Ġpr oper
Ġas l
Ġdar at
akil i
Ġbad ut
Ġsint ing
Ġ ur
Ġtah ap
ev isi
ohon an
Ġmengin ap
g us
Ġ ian
il kan
Ġr antai
Ġf inal
Ġkeb encian
Ġperk elahian
Ġkeada annya
Ġsuk ar
Ġlog am
Ġkesel uruhan
Ġ urut
Ġb oo
el at
Ġfrank ie
Ġlemb ah
Ġsop ir
Ġmenyamp aikan
Ġad egan
Ġbert ambah
Ġkep entingan
Ġpengaw asan
s em
ali an
s eb
Ġm ic
Ġpen ipu
Ġl ov
Ġfr om
Ġgilir anmu
j en
it is
Ġr unt
Ġkar et
Ġdip r
Ġmar gar
r ic
t il
Ġke empat
Ġn ich
Ġrum or
Ġberd ebat
Ġun ik
Ġmelebih i
Ġtex as
e ed
ay aran
Ġmau mu
Ġpend idikan
Ġtek nis
Ġmenyuk aiku
Ġmenjag anya
m es
eb r
end ara
Ġst atus
Ġ3 5
Ġdr ama
Ġher o
Ġc em
Ġmil es
Ġdid n
Ġmenemb us
Ġber tiga
Ġberb akat
ec il
Ġrat us
Ġsemacam nya
Ġrob in
Ġmenjel askannya
aw ai
Ġpeng asuh
Ġkawan kawan
Ġda un
Ġsaudar as
Ġaus tr
Ġt ong
Ġp on
Ġy ank
Ġ eng
Ġk acamata
Ġsc ully
Ġpir ang
Ġgord on
Ġk elah
Ġp injam
Ġhar ihari
Ġv egas
Ġdik eluarkan
Ġpo und
Ġt engk
ah aman
Ġp ian
on es
Ġas s
Ġgr up
ad ak
ing o
ud uh
Ġtempat ku
Ġv ick
Ġprosed ur
Ġse o
ain e
Ġbers atu
Ġsh ow
Ġfl or
Ġbud d
Ġcur ang
Ġkamb ing
ah nya
Ġh endak
Ġber aksi
Ġtah ukah
aku asi
Ġmes tinya
Ġmenyer et
Ġpenyel amat
Ġcok elat
Ġrev olusi
Ġump an
Ġ amp
Ġter n
et akan
Ġdib esarkan
Ġpeny impan
Ġsw eet
Ġmenyuruh mu
lihat kan
Ġberku asa
w ell
on er
Ġpert amaku
Ġberg egas
inj aman
Ġmete or
Ġ 00
es ta
Ġg and
Ġay e
Ġsep aruh
Ġterp aksa
Ġomong omong
in at
Ġj anj
Ġg lee
Ġpert amat
Ġbol anya
Ġsuar amu
Ġmengur angi
t asi
Ġb g
ay anya
ali b
Ġsungguh sungguh
Ġperh i
in sip
Ġp orn
as ik
Ġgr o
Ġkeg ag
Ġmen eb
Ġmemb uru
ub aru
Ġdib uka
Ġho us
. '
Ġl ily
ur t
ti kannya
Ġf i
Ġil m
Ġorgan isasi
m enc
ot is
Ġsp r
ii i
Ġpengorban an
Ġpertamat ama
Ġdi jalan
Ġg h
Ġspesi es
Ġb all
Ġl onc
Ġc uci
Ġmemb agi
ol an
Ġinf orm
Ġperd ag
Ġrus s
Ġtemantem anku
b is
Ġt od
Ġt ato
el angan
Ġh ann
Ġmemb esarkan
Ġjen n
Ġinves tig
Ġsmall ville
er us
em a
Ġw ang
Ġsel agi
Ġf un
Ġf akt
ub ungi
Ġgel ar
Ġm id
Ġpad ahal
Ġorang tua
Ġpeng akuan
Ġdr e
Ġneg ro
Ġmengantar mu
Ġmarsh all
d alam
Ġd ita
Ġl us
Ġl angka
Ġmeng am
Ġsej umlah
Ġmemer intah
Ġkuc oba
Ġtep i
s inya
Ġmeny angka
Ġpen awaran
Ġ1 000
Ġas tron
Ġ9 11
Ġund angan
Ġmenyemb uhkan
asti an
d engan
per ti
Ġbar ubaru
Ġment al
Ġm eg
ok ie
Ġpeng em
Ġmenj amin
Ġtel evisi
ill a
Ġpl at
Ġhapp y
at her
Ġbis hop
int ahan
Ġre aksi
Ġd ec
Ġper ampok
om pa
Ġv ag
Ġmemper main
Ġpers et
Ġberc erai
Ġterp enting
Ġmemukul nya
Ġdes ain
Ġmew akili
r ama
z abeth
an o
Ġt unjukan
it al
un angan
Ġpert olongan
ist ik
Ġberg antung
Ġsejen ak
Ġkepon akan
c ar
Ġt um
Ġn af
Ġsekali gus
Ġpet arung
ash i
Ġmod ern
at han
Ġp injaman
Ġmem isahkan
Ġc op
im ut
Ġn ob
Ġ2 7
Ġpe jabat
Ġperd ana
Ġperdag angan
Ġk and
ab ar
Ġsamp el
Ġsej am
Ġmenangkap mu
Ġeli zabeth
Ġs olusi
Ġpemb al
Ġmengg oda
Ġsp t
Ġkamar nya
Ġdid epan
Ġtun angan
s et
Ġt inju
Ġmen ilai
Ġl ing
Ġj urn
Ġper ilaku
Ġbuk tikan
Ġpemer intahan
Ġmener obos
Ġpengu asa
j o
Ġv is
Ġlem ak
Ġ end
Ġs arung
Ġd al
Ġber w
es ona
Ġlakukan lah
Ġmengh isap
Ġberd osa
Ġkur t
Ġso o
Ġbl ue
Ġbern ilai
Ġmot el
Ġkrist en
Ġan ne
emb angan
Ġmus eum
Ġpenya m
Ġtt g
1 5
int asi
Ġmengh idup
Ġbuat ku
Ġde f
Ġij inkan
kar ena
Ġl un
is on
Ġg os
Ġsi gn
Ġpen as
Ġyo on
Ġkut ebak
Ġsal inan
Ġmenyed iakan
Ġmencur inya
Ġkesed ihan
Ġkegag alan
Ġs imp
am annya
Ġsel asa
Ġist ilah
t op
Ġp ie
ad an
or itas
Ġter ry
Ġn ada
Ġ2 6
Ġmengg ambarkan
oo per
uck er
Ġli fe
Ġwakt uku
Ġpenc ur
Ġgu y
Ġjon athan
Ġrunt uh
Ġs tu
ek i
ent al
ab at
ill y
Ġseg elas
Ġcl ay
Ġberj umpa
Ġmom en
Ġell ie
Ġkerj anya
Ġalp ha
Ġak tor
ok i
Ġhy un
Ġilm iah
on firmasi
Ġr ang
Ġn ed
h awatir
r ence
Ġdi atur
Ġmenc amp
Ġbeb ek
Ġked amaian
Ġpembunuh nya
Ġup acara
Ġcel an
Ġbersy ukur
Ġpem ilih
Ġdr um
Ġpl astik
Ġmen uduh
atuh i
d irkan
Ġs usan
ali kannya
om end
Ġmakan lah
Ġadik nya
Ġdiperb olehkan
Ġbrav o
Ġs ukai
Ġy at
and uan
Ġal b
Ġbos ton
Ġpat roli
Ġmenolong ku
Ġemosi onal
Ġmenghancur kannya
g s
l ikasi
r us
Ġ iri
Ġpemb antu
Ġsec angkir
Ġsd h
b ers
y p
y u
Ġl l
Ġg olf
Ġdim aksud
Ġpel at
Ġmemp ekerjakan
Ġgor eng
Ġkar na
Ġpr iv
Ġbel anja
akit an
Ġkat aku
Ġmenyeb erang
Ġkons ul
Ġcal on
Ġb or
Ġper baiki
Ġseb utkan
kin s
Ġperm ain
Ġny aris
Ġterp ilih
Ġjuni or
' ?
Ġmas s
ffff aku
Ġmed ali
Ġterg anggu
adab an
Ġp aksa
Ġhe e
Ġkem anapun
Ġco ol
Ġim aj
Ġrus a
Ġ unt
Ġmen eg
Ġmel intasi
Ġdis tr
Ġv o
Ġkl in
Ġne ed
oper asi
em i
Ġses aat
Ġsh el
Ġpet ir
Ġmengant arkan
Ġfo x
Ġtunt utan
Ġperset ujuan
Ġl ob
Ġmengg ambar
Ġbr y
Ġkhawatir kan
Ġangel es
Ġperhi asan
Ġs aku
un ikasi
Ġh ome
om eter
Ġmenjadi kan
Ġker ag
Ġpel ab
Ġbr eak
Ġpantat ku
Ġmengub ur
Ġp andang
is ir
ac y
Ġsand wich
Ġsin ilah
Ġmill er
Ġdi inginkan
Ġl ip
Ġr h
Ġkl asik
of ield
Ġcr ow
itt y
osaur us
p en
Ġket er
Ġpeng lihat
en alan
Ġmer angk
Ġkes uka
Ġpeng acar
Ġn ina
Ġam un
Ġdip akai
mat inya
. ?
ant a
Ġberh adapan
Ġwh ere
Ġpeny erangan
Ġab ang
Ġrick y
Ġfant astis
Ġmendes ak
Ġurut an
Ġmenj anjikan
Ġterk ait
Ġcar aku
Ġdih ancurkan
Ġkeg ila
Ġhel en
b ie
d ari
Ġm uat
Ġp ent
ik nya
Ġl ock
ot an
si gen
Ġberk er
Ġk ain
Ġd or
Ġsel era
Ġpikir annya
Ġgar asi
Ġmengikut inya
Ġlev el
g o
Ġr api
Ġaw ay
Ġbend era
Ġditak dirkan
n ess
Ġdi undang
Ġmen ip
Ġmer em
Ġpen angk
Ġbagus lah
Ġmenem pel
Ġberl in
Ġca esar
waj ib
s il
it men
Ġgel isah
Ġmengirim nya
Ġterj un
k as
m au
Ġ ajar
il at
Ġn ic
Ġf ri
Ġdim anamana
Ġmenik matinya
Ġhit ler
Ġpelab uhan
Ġp ur
Ġr inc
Ġf ac
Ġsy d
Ġtip uan
Ġgib bs
Ġnich ol
ak wa
Ġb unyi
Ġp ai
ung u
ind ungi
Ġv iv
Ġmil iar
Ġcol l
Ġlal at
Ġmen ambahkan
id er
Ġok sigen
Ġim an
Ġotom atis
k at
Ġ ikat
Ġl im
Ġper intahkan
Ġper adaban
Ġg itar
Ġn ger
Ġmenc etak
Ġst ark
Ġpel aku
uj uk
ch a
Ġind ian
ond e
Ġfir asat
Ġperp isahan
Ġproper ti
Ġm ej
Ġdim anapun
Ġtr av
Ġked inginan
Ġgr im
Ġkeada anmu
Ġmengajar iku
i ang
t engah
Ġt end
Ġb ull
it s
Ġsel imut
Ġpen a
Ġbar isan
Ġz aman
Ġkapan pun
Ġkut u
Ġbelakang mu
Ġsc ofield
Ġjack ie
eny ak
Ġlamp unya
Ġmahk ota
Ġpimpin an
Ġglob al
m ent
Ġl aur
Ġl enyap
Ġper si
ot her
Ġbr ilian
Ġpop uler
Ġpus ing
Ġkese ti
j angan
on is
Ġsel am
Ġpeng aman
Ġkeh ancuran
Ġkub uat
Ġdiper k
Ġalex ander
osk op
Ġt ina
ihat kan
Ġpem adam
Ġkab in
Ġz omb
Ġpe per
Ġp ic
Ġmen unjukan
Ġw ajar
Ġgag asan
Ġbo om
Ġpengg anti
Ġpenamp il
Ġh ajar
Ġkem an
Ġme kan
Ġdem am
Ġbu zz
Ġmelindung inya
Ġtanp amu
Ġpenyimpan an
Ġg itu
Ġsi aran
Ġv ik
Ġpel ih
Ġterd apat
Ġstr uk
b r
e an
Ġmen imb
Ġhar inya
emu i
Ġny enyak
Ġkamar mu
Ġgri ff
Ġber ulang
unt ing
Ġanda i
anj ilah
Ġbr own
Ġfr anc
Ġmengubah nya
fa at
Ġmemec at
n ik
Ġb un
Ġp ujian
Ġw end
Ġkec antikan
Ġv en
Ġsalah nya
Ġberg aul
Ġmak am
Ġpelayan an
g ht
Ġaku i
is y
Ġter api
Ġpert unjukkan
inf eksi
s ikan
Ġs as
Ġmel arang
et eksi
Ġpert anian
Ġpeny anyi
Ġek on
Ġkebij akan
Ġjenn ifer
Ġd oa
Ġin ci
Ġke atas
ab ah
Ġanakanak ku
Ġberj anjilah
Ġdih entikan
Ġgar am
a ing
Ġj urus
Ġti ang
Ġdip otong
Ġdr op
Ġpenc ulikan
Ġins iden
Ġdin am
Ġtump ukan
Ġval ent
Ġmenyus ul
Ġash ley
Ġbudd ha
Ġpersi apan
Ġmeng inj
Ġmer es
Ġn ancy
Ġhal l
Ġas rama
Ġli onel
Ġjohn son
Ġmemukul ku
Ġmengingatkan ku
Ġbant eng
Ġdisel amatkan
Ġsoph ie
Ġm uk
Ġl am
uk o
Ġkel iru
Ġgr ant
Ġdip enuhi
Ġpesan an
Ġmembuang nya
Ġm ek
Ġj gn
Ġpr od
untung kan
Ġkons entrasi
iam i
Ġsm s
Ġmengemb angkan
Ġleb ar
Ġk ai
Ġt egang
ir ikan
Ġr ela
Ġbu daya
Ġ6 00
Ġmengganti kan
Ġet han
rig ht
Ġgray son
z er
ang sa
Ġp anggang
Ġr ain
Ġdet ail
Ġmenelepon mu
Ġobat obatan
Ġkag et
Ġgem pa
Ġberkom unikasi
Ġtem pur
Ġperl ihatkan
Ġant on
Ġhom o
Ġhous ton
Ġstruk tur
d on
t le
Ġmer unduk
Ġtidur lah
Ġis lam
Ġrinc ian
b et
Ġm awar
Ġl adang
ek usi
Ġmengh ina
Ġterj aga
unt un
ac us
Ġol d
Ġmat eri
Ġkek ayaan
Ġgel andangan
Ġcol e
Ġtangk i
Ġlic ik
p y
u aikan
el e
Ġl iv
Ġkam is
Ġn av
Ġsem alaman
Ġdip ilih
Ġkomand o
Ġpengaw as
Ġter infeksi
Ġf os
Ġser i
Ġde ar
Ġqu inn
Ġted dy
Ġpeper angan
ku it
Ġbah u
aj u
Ġpr im
Ġ2 8
Ġdih arapkan
Ġbg m
v a
v is
Ġb uck
it ing
ing er
Ġdip ikirkan
eli jen
Ġurus anku
l on
Ġm ut
Ġt uanya
Ġr ec
Ġkur us
Ġbur uburu
Ġpec andu
Ġmor al
Ġsara f
Ġmengum umkan
Ġk uku
er ry
un kan
au gh
Ġl atar
ali e
Ġkecil mu
Ġbersama an
Ġmenyelamatkan ku
Ġsk or
Ġstr es
w in
Ġk awat
Ġp aran
Ġf an
Ġpr insip
Ġberb aris
Ġdib ebaskan
Ġso fa
Ġmet rop
Ġpencur ian
c ing
w ah
er angi
Ġmen ambah
Ġad r
amp ilan
Ġjam in
Ġ8 00
Ġ19 9
Ġjag ung
Ġmengacau kannya
Ġmargar et
Ġpian o
' ,
k ey
ah i
Ġmen enangkan
Ġdia j
ud ar
Ġal iran
Ġsh if
av en
Ġkat herine
Ġpar as
Ġkon ferensi
Ġhand uk
Ġmenjag amu
Ġkerag uan
j auh
amp ang
Ġpr inc
isi p
ell o
Ġjess ica
Ġdong eng
Ġson ny
Ġinvestig asi
l as
alah an
Ġmember kati
Ġpert anda
Ġdep anku
Ġberjalan jalan
Ġle ga
Ġmenembak mu
Ġnas ihat
Ġpember ani
Ġreg ular
o x
un ia
ik eras
Ġsaat saat
Ġdep anmu
ett y
Ġpi er
Ġbed ah
Ġmengikut iku
Ġ imb
Ġber daya
ong s
angk alan
Ġeks tra
Ġpenangk apan
Ġl inda
uk aran
Ġr itual
Ġterb it
Ġikut lah
Ġot aknya
Ġmesin nya
Ġmenemu iku
Ġrut in
Ġ undang
Ġj ill
Ġn iat
Ġist er
Ġdip indahkan
Ġmo tif
Ġmengal ihkan
Ġep is
k en
s tr
Ġk umpulkan
Ġmas on
Ġmend alam
Ġberk unjung
Ġup aya
Ġrambut nya
Ġkhus usnya
s ur
Ġak ad
Ġmeng uji
Ġbag asi
ong g
Ġket inggi
Ġterb alik
ess or
ate gi
or p
Ġpeny es
Ġfin ch
Ġcuri ga
Ġmen erb
Ġh u
Ġl adi
end iri
Ġkes an
ch e
Ġminum lah
Ġsir kus
Ġhel m
er nya
Ġfr ee
Ġair nya
Ġand ari
e us
Ġd ale
Ġl ane
Ġc airan
Ġw u
ant am
Ġbers ikeras
Ġdis impan
Ġterl epas
Ġdit olak
Ġpenj ual
Ġperg elangan
Ġmenghubung kan
kr ip
Ġekon omi
Ġber isik
Ġmemb ingung
Ġdir agukan
Ġon line
Ġpot ensi
Ġbangs awan
Ġkob oi
Ġh p
Ġkub awa
Ġotak mu
Ġporn o
j ika
er ta
ag ang
ot e
Ġterb enam
art h
Ġmemper malukan
Ġberl anjut
Ġrambut ku
Ġjul ia
olog is
Ġamun isi
Ġmeng ep
Ġc ed
Ġkeh endak
Ġ' ,
Ġbelakang nya
Ġmur ahan
Ġ19 7
Ġmad am
Ġmelepas kannya
Ġaud isi
Ġkegila an
or ter
ag us
Ġmel etak
Ġput er
Ġstr ategi
Ġtab ung
Ġmengajak ku
Ġduk e
Ġmengkhawatir kan
Ġtengk orak
ek ik
si al
ton e
Ġel o
Ġint elijen
m ar
Ġt ata
Ġkau s
Ġmeng untungkan
Ġbel a
Ġkep em
Ġkantor ku
m acam
u it
Ġs ome
Ġke indahan
Ġmeng andalkan
Ġmempercaya iku
Ġbro ok
Ġpri oritas
Ġc d
es et
ob y
Ġmus lim
Ġs aus
Ġp ap
eb ook
ab el
Ġat om
Ġdib uang
Ġdib alik
Ġters edia
Ġlap isan
Ġbl u
Ġmac et
Ġstev en
Ġm af
Ġn on
Ġbers audara
Ġmengh arga
Ġmenemukan ku
ri x
und up
re e
Ġgar y
Ġsahabat ku
Ġtemantem anmu
Ġketinggi an
em o
aw annya
Ġku asa
Ġsh ang
Ġkay ak
1 7
p it
el and
oh an
Ġtentang ku
Ġsp ir
Ġkomun itas
Ġambulan s
Ġmeletak kannya
Ġm ini
Ġp oo
Ġl umb
Ġpen emb
Ġdav is
Ġtip is
Ġkon eksi
Ġteb al
Ġkeju araan
Ġhamb a
Ġfakt anya
ak tifkan
Ġbi jak
Ġpemb ayaran
Ġ4 8
Ġkud us
Ġber e
Ġmemb usuk
et on
Ġbar umu
Ġch un
Ġpem andu
Ġberk emas
Ġtert inggal
Ġis inya
men y
Ġmit ra
kus ikan
Ġkris is
Ġkelah iran
b oy
Ġke ep
im al
Ġterl etak
Ġku alitas
Ġpes tanya
Ġ3 2
Ġ3 6
Ġng obrol
Ġmeluk is
Ġaustr alia
b ukan
l ed
m ur
Ġt est
as ta
Ġh erb
Ġc uti
Ġsedang kan
ers ihkan
ina an
Ġsup ir
Ġspart acus
k es
Ġm iami
Ġp ond
Ġh ans
Ġc elah
Ġr ag
Ġdim inta
Ġtr ip
Ġel ang
Ġbe at
Ġmembuk tikannya
Ġmencurig akan
Ġmenimb ulkan
Ġkan ada
Ġmakan ya
unc urkan
Ġhit ung
Ġlew atkan
Ġrek or
edia an
Ġmembenc imu
ows ki
a x
er o
ari a
Ġal bert
Ġpemb ers
Ġtr ev
Ġlew is
Ġepis ode
b e
b ar
r akan
Ġb eda
Ġas et
Ġterd uga
Ġpengg una
Ġtrans m
Ġmengemb alikannya
Ġroh it
Ġjago an
er at
Ġp ow
ek am
Ġhar old
Ġpad at
ong kan
og asi
Ġkom b
Ġcar ilah
Ġmenyakit inya
Ġterob sesi
ob er
aj aga
Ġdib icarakan
Ġut ang
Ġluc as
Ġmag net
Ġmenyembunyikan nya
Ġmenyet ujui
Ġt ess
em ent
Ġdan ce
up ai
Ġhe ad
of oto
Ġpistol nya
Ġtengah tengah
Ġmengid entifikasi
Ġseb agaimana
Ġberl indung
Ġkum aksud
Ġka it
Ġfot ofoto
Ġ acar
Ġk alahkan
ik al
Ġhal nya
Ġmelihat lihat
Ġal lis
Ġpeny emb
Ġgamb aran
Ġt ingg
Ġmeng andung
Ġmer iam
Ġgel ang
Ġrep utasi
oduk si
v ing
at ukan
Ġh ob
Ġpen ahan
Ġas tr
Ġme x
Ġab out
Ġmengejar nya
Ġsent uhan
Ġklin ik
p t
ak es
Ġd j
Ġd os
Ġn il
Ġberp esta
Ġmengenal ku
Ġhib uran
Ġber ga
Ġe arl
Ġkut ub
Ġjantung nya
Ġgig itan
Ġtod d
Ġgos ip
k am
u z
Ġj or
Ġbuk unya
Ġmembayar mu
Ġmenyeb arkan
Ġmo on
Ġmom my
Ġkemampuan mu
Ġdisel esaikan
Ġholly wood
Ġallis on
c on
Ġaku aku
Ġn et
Ġsem en
ab aran
Ġmemper lihatkan
Ġtel uk
Ġped ulikan
Ġar us
Ġmembuang buang
Ġderm aga
Ġyat im
c tor
Ġd aw
as y
Ġr onde
Ġkar pet
Ġtentang nya
anj ung
Ġkekuatan nya
Ġnat alie
Ġrep orter
Ġmenghad iri
Ġpeg awai
ograf i
Ġbere aksi
Ġ aut
Ġr ing
Ġhari mau
Ġpel edak
Ġmat th
og en
Ġe in
Ġjen na
Ġmenembak ku
Ġgug ur
Ġperlahan lahan
Ġsejen is
Ġdre am
Ġmen ump
Ġa a
Ġpot ter
Ġlump ur
Ġdimas ukkan
Ġimb alan
o yang
ing nya
Ġn abi
ent asi
Ġmeny iksa
ed akan
Ġpemb antai
ingk atan
Ġdr agon
Ġco uld
Ġmc g
Ġdad dy
Ġmengec ek
u ap
Ġj ing
ul usan
aku i
Ġpert amanya
Ġkes akitan
Ġbuk ub
Ġang ela
Ġmulut nya
Ġne il
Ġtep uk
Ġberw enang
Ġmetrop olis
b ul
g askan
h ai
Ġp anti
Ġberk ons
Ġberk endara
Ġdip aksa
Ġdiper iksa
Ġ19 8
Ġkok ain
Ġgent l
b es
s it
Ġj antan
Ġw abah
Ġberb ah
Ġmenangkap ku
Ġev an
Ġmembenc iku
Ġstudi o
Ġladi es
t s
Ġm int
Ġs alib
Ġber alih
Ġkita b
Ġken ny
Ġsedikit pun
Ġdik emb
Ġmenyel am
Ġmembiarkan ku
ach i
enj ak
Ġbot ak
Ġwo ong
Ġbokong mu
Ġdiseb elah
Ġkompl eks
Ġque en
Ġsyd ney
d am
ad er
Ġj uru
ur ung
Ġw ind
Ġsem enjak
Ġpen ip
aks es
Ġkep rib
Ġker u
Ġperl awanan
inc ar
Ġmengej ek
Ġfoto nya
Ġmenggangg uku
Ġkil ometer
Ġtrag edi
p ek
r oe
Ġs s
er ahkan
Ġp ij
Ġmen daftar
Ġh ack
ag ara
Ġket ahuan
Ġpeng ikut
Ġkeb angga
Ġbur onan
Ġsh ane
Ġberl ibur
Ġsaud ari
Ġputr amu
Ġly dia
b ulan
c ol
Ġs amu
Ġya a
lah ir
Ġbeb askan
Ġmenem an
Ġseg el
Ġkr yp
Ġrom awi
Ġmacam macam
Ġmembingung kan
f il
Ġp ik
Ġmen anggung
is sa
Ġg air
Ġf ort
Ġmungkin kah
Ġhari mu
Ġpas por
Ġtel l
Ġperk enalkan
Ġir landia
Ġmengk l
Ġlau ra
r ah
Ġb ua
in ia
Ġsek tor
Ġsh it
Ġterus lah
tr u
Ġtujuan nya
Ġmempert aruhkan
r ay
Ġd ur
Ġb eku
Ġses ama
Ġbers aksi
Ġmenj engkel
anc i
Ġmet ode
Ġir ak
Ġcamp uran
Ġnaz i
an as
Ġdi et
per imen
Ġdib atalkan
Ġked epan
Ġalam atnya
Ġnomor nya
Ġkud uga
ail and
Ġpsik iat
Ġpeman asan
Ġd ob
Ġc ry
Ġc angkir
Ġjauh nya
Ġbat man
Ġim am
Ġhol mes
Ġrep ub
Ġden nis
Ġs unt
Ġt uh
Ġh ind
Ġkes abaran
Ġth ailand
ch ester
uny ah
Ġkapal nya
Ġterg el
Ġmerindukan nya
Ġca o
Ġmelewat inya
Ġj aman
Ġkom entar
Ġsp ek
Ġben j
Ġkut emui
Ġbe en
Ġkol eksi
Ġmaf ia
Ġpenip uan
b or
Ġmen akuti
Ġh unt
Ġber acun
Ġg ant
Ġv isi
Ġberp eng
Ġkr e
Ġbal on
ord an
Ġwill ie
Ġten da
Ġfo ot
Ġmengajari mu
Ġlat in
Ġsaudaras audara
Ġsamu el
l op
Ġs ong
Ġh is
Ġc ooper
Ġluc k
Ġkum inta
Ġperk aw
Ġsing h
Ġfavorit ku
Ġpemilih an
it amu
kan d
Ġh ang
or es
Ġap alah
itah ukan
Ġko ord
Ġdidalam nya
Ġmenet ap
Ġmenghidup kan
b ak
t ahu
Ġse akan
Ġh ut
Ġr anc
ol et
Ġf ajar
Ġpers ediaan
Ġkrist al
Ġmenyingkir lah
Ġditempat kan
rid ge
Ġtrev or
n anya
Ġ utuh
Ġb ond
Ġb orgol
al d
Ġmen anya
Ġmeng asih
Ġc bi
Ġken akan
Ġcer oboh
Ġbir o
Ġmur ph
Ġcr oss
Ġsaudar anya
Ġmenghubung iku
Ġnov el
Ġwend y
Ġk itty
ul ia
ub a
Ġpert ukaran
Ġmul ailah
Ġmari e
Ġli ga
otong an
Ġmendengarkan ku
Ġram uan
Ġjo on
Ġmengeluar kannya
Ġorangtu aku
Ġmex ico
Ġkryp ton
d is
s ey
Ġc amb
end apat
Ġberb ulan
Ġdim ensi
ampun i
4 0
p os
Ġmen angg
Ġc ast
Ġf es
angk aian
Ġdim iliki
Ġa ang
Ġkur s
Ġkub iarkan
Ġkesalah anku
Ġk w
Ġd asi
Ġmeng isap
Ġmemb aik
Ġsek amar
asi akan
Ġsen iman
Ġli u
Ġkont es
Ġmich elle
Ġ15 0
Ġkon f
Ġbangk rut
Ġperis ai
uk ti
Ġber ambut
Ġo d
ed ah
Ġkeb awah
Ġtr au
Ġbat erai
aham i
Ġdiper intahkan
Ġdy lan
Ġrud al
Ġterper angkap
Ġmatth ew
Ġbua ya
Ġter lahir
Ġg ampang
Ġpr em
Ġbur ger
Ġperm ula
Ġam al
Ġleher nya
Ġprot okol
Ġt amat
Ġak tiv
il d
Ġsa j
amp aknya
ed ip
aks ian
Ġoke y
Ġsh ar
Ġpeny elamatan
tr asi
Ġdo es
akt ir
Ġd ub
Ġdi izinkan
ul ir
Ġmemper s
Ġmenel an
Ġeh m
Ġpaman ku
Ġfl ash
gh s
Ġmemanj at
Ġgair ah
Ġb it
al ang
Ġseb uruk
Ġseb astian
Ġpr ed
Ġkes aksian
Ġsamp anye
Ġset elan
Ġti ger
asil an
unc uran
Ġdik eliling
Ġmenarik nya
Ġlew ati
Ġtugas nya
Ġmenolong nya
Ġmenet apkan
Ġjus tru
Ġelek tron
k ing
z i
Ġ ungg
Ġ ark
Ġj ubah
Ġan alis
eng aran
Ġmel amp
Ġmenc abut
Ġi i
aman kan
Ġpemb awa
Ġmenyakit iku
Ġdew i
Ġmembangun kan
Ġdij elaskan
Ġmendatang i
Ġasl inya
Ġper ju
ek ali
ot ik
Ġbers antai
Ġpel uk
Ġprof essor
Ġhel p
Ġros s
Ġmenungg uku
Ġmengajak mu
Ġver si
Ġwo uld
Ġjud ul
Ġleon ard
x on
Ġs ik
ar ata
Ġdi al
Ġbur r
Ġkekuatan mu
Ġperk ira
Ġnat e
Ġkir k
Ġany way
Ġmengij inkan
Ġd ark
Ġse waktu
Ġmem ant
Ġter daftar
Ġr id
Ġo tor
uar d
Ġpeng unjung
Ġben ny
Ġde x
Ġpenting nya
Ġel u
Ġpark er
Ġdin osaurus
Ġrub y
Ġvag ina
l ak
al aba
apa in
Ġc ons
Ġmemb eb
Ġg emb
Ġw es
Ġmas sa
imb ing
Ġph o
Ġwil son
Ġjo an
bur g
Ġhum or
Ġpac aran
Ġjos eph
Ġdikeliling i
s ed
u ari
Ġ ud
ag n
Ġmeny angkal
Ġkak aknya
Ġob atnya
Ġdic iptakan
Ġmenyuruh nya
ender ung
Ġmenjengkel kan
c an
e el
Ġt it
Ġt uli
Ġmen unda
is nis
Ġr ip
Ġn al
Ġf ig
Ġberp aling
Ġfr ekuensi
Ġel emen
uta an
Ġpo int
Ġnichol as
s by
Ġt awanan
Ġw olf
Ġpert amamu
od o
Ġag ain
Ġwh y
Ġkl an
Ġkerja an
Ġmemperl ambat
Ġmemb ongkar
Ġses i
os hi
Ġbel la
Ġked ok
Ġcat herine
Ġrat arata
Ġrencan akan
Ġtemantem annya
Ġkong res
i y
l ebih
t in
Ġ ec
it ukah
Ġmen awan
Ġw ins
Ġkas et
Ġkec erd
Ġar ena
Ġmenyer amkan
umb u
Ġbet ina
eny ut
4 5
k ali
Ġw er
Ġhe ctor
Ġker ib
Ġperl engk
Ġte ater
Ġpul ih
Ġpi ala
Ġconn or
isip asi
r os
en ix
it ungan
Ġh r
ik i
ur o
Ġkem eja
Ġker a
Ġkabar nya
Ġsal ad
Ġda isy
Ġmon roe
Ġdiseb abkan
Ġm aks
em askan
Ġsa ins
Ġc orn
Ġbag ai
Ġmend adak
Ġmus ic
Ġkor b
Ġkor up
Ġev er
Ġmencium nya
Ġkond om
Ġkaw in
Ġhann ah
c ause
r ong
Ġmen imp
Ġr ent
Ġo c
Ġo ur
ati kannya
Ġpunya mu
man an
Ġfor ens
Ġkamp ung
Ġhir o
Ġm um
Ġk andung
Ġp angkalan
Ġf el
Ġmenc ariku
angk uk
Ġberk el
Ġar oma
Ġand re
Ġmenyeb erangi
Ġfl u
Ġuj i
Ġmengikut imu
Ġcab ang
o und
ar akan
Ġdi ikuti
Ġl encana
Ġj angka
ek tor
Ġf ut
Ġjadi kan
Ġdib akar
Ġbelakang ku
Ġnaik lah
Ġef ektif
Ġmerawat nya
Ġmmh m
Ġkebangga an
Ġk aku
Ġt ekat
eb all
imp angan
ell y
Ġmus t
Ġny anyikan
Ġterakhir nya
ard en
oth y
Ġcom m
Ġberker ingat
Ġzomb ie
Ġrepub lik
w e
Ġse ol
us n
ur unya
Ġr etak
ia o
Ġch ar
Ġsh r
ov a
Ġmenelepon ku
Ġeks pr
Ġjul ie
Ġmengunj ung
Ġbul at
Ġfes tiv
u ara
Ġt ara
Ġmen ert
Ġc enderung
Ġr et
Ġn antinya
Ġw ong
Ġhari an
Ġberb unyi
Ġkeingin anmu
Ġpengkhian atan
Ġreb ec
Ġlaw rence
Ġrok et
Ġkerib utan
Ġt ink
Ġmen tr
Ġg ej
Ġn in
Ġmel ayang
Ġpr ov
Ġch ow
Ġbr and
Ġdem ok
Ġdon na
Ġ19 6
Ġaj arkan
Ġprakt ek
k amu
Ġmeny inggung
Ġkas ino
Ġku ant
Ġbr id
Ġnya li
Ġtamp ilan
Ġar ch
Ġab b
Ġdic ari
Ġpakai anmu
Ġka os
Ġps iko
Ġmengarah kan
Ġmengharga inya
Ġmen anam
el epon
Ġj ah
Ġke wajib
Ġc ir
Ġ, ,,
Ġmas akan
ot s
oh oo
Ġdis aat
Ġpel ajar
Ġkub ur
Ġperk embangan
Ġmo yang
Ġho use
lo ad
Ġtrans port
se perti
th ing
Ġmenamp ar
Ġb unt
Ġke w
ac uni
Ġpel uncuran
Ġmakan annya
Ġag resi
Ġperm ohonan
ra el
az z
Ġditu gaskan
Ġpantat mu
Ġmenjemput mu
c ia
h ar
r epot
Ġbis bol
Ġkab ut
itah uan
ahl uk
kita b
Ġkese imbangan
Ġt eks
Ġb anci
Ġmeng incar
Ġtak tik
Ġf ikir
amb ang
Ġtok yo
Ġkamp anye
Ġmemaks aku
Ġbeck y
Ġnaf su
Ġfac ebook
Ġperkaw inan
h anya
Ġmemb eku
ed es
Ġkal eng
Ġberpikir an
Ġkehidup anku
Ġdih apus
Ġsk ala
Ġkuc ari
Ġkons ep
Ġsw asta
Ġprod us
g unakan
y ung
as is
id u
Ġat mos
Ġkel amin
Ġbeg itukah
Ġas am
Ġpemb ela
usia an
Ġbat alkan
embuny ian
Ġbas ket
Ġmengeluar kanmu
Ġrock y
Ġmenaruh nya
Ġmengin tip
Ġelek tr
Ġrepot repot
Ġperju angan
Ġrebec ca
m us
Ġd c
at es
Ġmen ol
Ġmemb angk
Ġn oth
Ġpen erima
Ġal ergi
Ġsakit i
Ġen yah
Ġng apain
Ġsc re
Ġcarl os
Ġkekasih ku
Ġketerl aluan
Ġkomb inasi
Ġter kuat
Ġf at
Ġkes ad
Ġker anjang
Ġmat h
Ġterakhir mu
Ġev akuasi
Ġradi asi
Ġbaw ang
k ami
Ġmel uncur
Ġf ungsi
Ġbah as
Ġch amp
Ġas alnya
Ġre ese
oy d
Ġmengel iling
Ġpar up
Ġmenjawab nya
Ġsub jek
tip u
Ġrad ar
Ġmenakut n
Ġpenglihat an
Ġfestiv al
Ġ ama
an si
as ter
Ġter iak
Ġbel ikan
Ġmengh ormat
Ġker um
Ġsc arl
Ġsitu asinya
Ġda e
Ġev e
luk kan
Ġtas nya
Ġspesi fik
Ġm egan
ent ukan
Ġpl us
Ġkenc ang
Ġop s
Ġbaw alah
Ġmars hal
Ġjab atan
Ġced era
y ou
Ġt ucker
Ġy ard
af f
Ġnaik kan
Ġtrag is
Ġjac ob
Ġmemu askan
Ġmengkl aim
Ġforens ik
f um
Ġm ahluk
en om
Ġl ak
ol i
Ġterl arang
Ġth ro
Ġdib ersihkan
Ġtr i
emp ar
Ġterakhir ku
Ġkantor nya
apor kan
Ġche ers
Ġlemp arkan
Ġstan ley
Ġpermula an
d ock
Ġ emp
Ġs qu
Ġb anj
Ġmen ep
el awar
Ġy ak
Ġkel elahan
ib atnya
Ġpen awar
Ġkas ur
and ra
Ġdim an
ond er
Ġkakek ku
Ġac ak
Ġmengam ati
Ġmerem ehkan
Ġs ter
Ġr ubah
Ġhal low
Ġtahun an
Ġneg ar
Ġharv ard
Ġkeru gian
m udah
Ġ ain
Ġmel awannya
Ġf ul
Ġatau pun
Ġset empat
Ġkecil nya
Ġkom is
Ġbuat kan
Ġbu as
ium an
Ġvampir e
Ġamb isi
Ġwaris an
s urat
Ġt unduk
Ġf air
ch en
Ġdik en
Ġkom a
Ġsur ya
Ġdarah mu
Ġja e
Ġjiw aku
Ġrab u
Ġkehad iran
Ġperlengk apan
b l
h u
ih kannya
Ġter tipu
Ġg ill
ay at
Ġw ork
Ġw iii
Ġal kitab
Ġv on
Ġmenulis nya
Ġsuper man
elan ja
Ġpertahan kan
b le
Ġdi ego
ari o
Ġg am
per t
Ġdis ip
Ġmaksud kan
imp ikan
Ġbur t
Ġdep annya
Ġmar ley
Ġprof il
Ġmembenc inya
Ġtekat eki
Ġm all
Ġh amp
Ġh abisi
Ġl in
emb ahkan
ian at
Ġdir encanakan
Ġkes amaan
op s
Ġdil atih
Ġdil indungi
umb a
Ġon ly
alik ali
Ġbuah ku
Ġry u
Ġpelih araan
b ack
at au
Ġmeng obrol
Ġc akar
ihat in
Ġbers ek
Ġth or
Ġdib ilang
Ġjam ur
Ġpeny us
Ġgen er
he ad
Ġmemaham inya
Ġdimaksud kan
n s
Ġm ai
Ġp uc
ia c
Ġped agang
Ġdiper baiki
Ġmengirim mu
Ġer at
Ġpelac ak
Ġmengur ung
Ġtomb ak
Ġsepup uku
Ġgilir anku
Ġnyaw amu
Ġb atang
el ia
uk e
amat is
Ġpemb ukaan
Ġpers embunyian
Ġso da
Ġmik r
Ġc ita
Ġr iver
Ġker et
Ġbat uk
Ġle o
Ġhol d
Ġalb um
Ġketer ampilan
Ġbukub uku
j ari
r as
Ġ isa
Ġm ud
Ġd ini
Ġt oo
Ġak ibatnya
Ġy up
Ġg ive
Ġmel amb
Ġmeny atukan
Ġkar an
Ġbar unya
Ġkeb odoh
Ġuh oh
Ġharg ai
Ġrig sby
Ġmerangk ak
d il
Ġt p
Ġl ant
ind er
Ġv eg
Ġa aron
Ġpem abuk
Ġmus a
Ġjauh jauh
ers ey
Ġbaj umu
Ġro yal
Ġkuc eritakan
Ġgar agara
Ġgen etik
Ġsand i
Ġmot her
Ġbant al
Ġarm ada
Ġfis ika
Ġdisip lin
m ore
r om
Ġ aul
Ġmend aki
Ġpeng ampun
Ġ4 2
undur kan
Ġcon rad
Ġboy s
p ad
r ich
am ah
eng ahan
im i
ja ya
Ġpert imbangkan
Ġkal k
Ġtempat kan
Ġpant atnya
Ġwil d
ho use
Ġpemberont akan
Ġmenghadap inya
Ġpenyam aran
p d
Ġm atang
Ġk az
Ġb aikan
Ġmem icu
Ġg antung
ot ol
Ġkem ulia
Ġdit arik
Ġz o
Ġpengh inaan
Ġfri end
ak tor
Ġs aul
im eter
ai g
Ġorang mu
ab ung
Ġkar bon
Ġch ad
Ġman u
ust us
Ġperb aikan
Ġjar inya
Ġtamb ahkan
Ġumur mu
Ġmen untun
Ġmeng utuk
Ġter iakan
Ġdir ancang
Ġkes atuan
Ġpeng um
Ġsalah kan
Ġdar atan
Ġno ah
Ġarah kan
Ġcuc u
Ġkeman usiaan
Ġkomis aris
Ġ era
as ai
Ġj ersey
ol asi
Ġses udah
Ġpemb el
Ġger ak
Ġanjing nya
Ġmenol aknya
r ett
Ġdi isi
Ġsa w
ai kannya
Ġhar t
Ġ2 9
Ġingat kan
Ġnom er
Ġinv estasi
Ġcind y
Ġyank ee
Ġkeseti aan
h mm
Ġs ull
ag ila
Ġmeng endali
om os
Ġkemb ang
Ġdic intai
Ġtrans aksi
Ġdikatakan nya
Ġrak asa
Ġvinc e
Ġlapor kan
1 3
o ur
o ugh
ar atan
Ġmen ukar
Ġr and
Ġsem udah
Ġf am
Ġkel elawar
Ġterl atih
Ġal as
Ġwan na
Ġburuk nya
Ġkup ukup
Ġberj am
Ġlab alaba
Ġkok i
Ġpember itahuan
Ġlas er
Ġkop ral
Ġvirg inia
Ġgentl emen
Ġpho enix
v al
Ġt awar
Ġb s
Ġp urn
Ġmem atuhi
Ġterb ukti
enti an
Ġpemb ebasan
Ġsh erl
unc ang
Ġob ser
Ġpenc ulik
Ġjend el
Ġpaman mu
Ġmenjij ikan
Ġgab ri
Ġmengkhian at
Ġnyaw anya
Ġprom osi
Ġmerc edes
Ġhon ey
Ġflor ida
Ġ ubah
Ġm ing
Ġs ug
Ġp ompa
Ġter engah
on ica
Ġmel amar
amp aikan
Ġbers er
Ġhidup kan
Ġpemb uangan
Ġar sip
Ġsurat surat
Ġprib ad
Ġteb ing
Ġtransm isi
Ġs und
Ġd ai
Ġt endang
au i
Ġkau b
Ġn ell
Ġw aj
Ġpr ihatin
Ġa id
Ġbesar nya
Ġant ik
Ġmenyes uaikan
Ġnenek ku
Ġkesad aran
Ġy uk
Ġn orth
Ġkel iling
Ġsangat lah
Ġal tern
Ġtr y
Ġdep resi
ej ar
Ġmenya pa
Ġinf o
Ġkons t
Ġgambar nya
j ok
ya ma
ad ah
Ġg ong
et ika
Ġsem ut
ic ip
Ġpr am
Ġmengh abisi
Ġv ent
Ġst ep
Ġpun k
Ġluc ky
Ġro ad
ij i
Ġlemb aga
Ġasal mu
Ġpingg ang
5 00
v es
is kusikan
Ġr ome
Ġg ps
Ġkel uhan
Ġpert engahan
Ġberd ering
Ġbr ut
Ġked utaan
Ġwh ist
Ġde al
Ġart is
Ġes ok
Ġkud apatkan
Ġkamer anya
Ġtrau ma
Ġpurn ama
Ġsherl ock
Ġh ugh
Ġbers abar
Ġst at
Ġdet ak
Ġmenjel ajah
Ġmant ap
Ġnick y
Ġmit os
Ġfred dy
Ġki amat
Ġvi et
Ġdorong an
Ġakad emi
Ġhallow een
Ġk in
Ġak ar
al ph
Ġber api
itu si
uh rer
Ġsek ian
Ġkel ima
Ġkas til
Ġket imbang
Ġmember eskan
Ġbi oskop
ter s
Ġv as
Ġe ag
ber ry
Ġpe op
Ġmengij in
Ġnel son
Ġgran at
Ġpenyes alan
y ek
Ġmeng an
ent angan
uar t
Ġtahun ku
Ġpel arian
Ġso uth
Ġde ep
Ġ7 00
Ġmenulis kan
Ġmemukul mu
Ġpar fum
Ġram ai
Ġtelpon nya
Ġmengaku inya
Ġmelindung iku
Ġpri ya
Ġmimp iku
Ġjangk auan
Ġein stein
Ġpembantai an
Ġs hir
Ġl aks
Ġmem indah
il asi
Ġr ey
Ġo i
eb ah
ian y
Ġbel anda
Ġku yakin
Ġmari on
Ġbuk alah
Ġbab e
Ġstr ing
Ġmart ha
Ġgem etar
Ġkomun is
Ġmenghind ar
Ġtrav is
j elas
n o
r ice
an en
Ġk ari
am ai
as tikan
Ġh ur
ot ak
ib le
Ġbers aing
Ġkh as
Ġmemberikan ku
Ġkehidup anmu
Ġbarang kali
Ġkakek mu
Ġland as
Ġlonc eng
Ġcoll ins
Ġpsikiat er
Ġberpeng alaman
Ġs ingg
in is
Ġse ter
Ġj anda
Ġper siapkan
Ġg ad
Ġmel engk
Ġmau pun
Ġbi ara
Ġkes imp
Ġv it
Ġbet ty
Ġbarang nya
Ġsy l
Ġgl en
Ġmenghubung inya
c orp
Ġ aii
ok s
Ġpel aut
Ġterk alahkan
Ġmenya pu
Ġperh itungan
Ġperintah ku
Ġterc inta
Ġvi olet
Ġmengeliling i
e ti
j un
Ġm ig
ap is
ab le
Ġf ish
ati onal
os es
Ġpeng in
op e
Ġbr other
Ġtert ekan
Ġgr et
Ġ4 7
Ġkekuatan ku
her e
Ġinf eksi
Ġkon v
Ġtw o
Ġmenyayang i
Ġekstr im
Ġtend angan
Ġpenemb akan
f o
Ġk ip
Ġin ikah
Ġper ger
Ġw ol
Ġmengh antam
Ġ' ?
Ġsil uman
Ġbal ap
Ġor bit
Ġmemat amat
Ġfrancis co
Ġsek ej
ob ati
ig an
Ġdr amatis
eli x
Ġmembutuhkan ku
Ġmo unt
Ġmah a
Ġop pa
Ġell iot
Ġsheri f
Ġwood y
Ġpengum uman
l u
p ris
r ot
an an
id or
us ir
Ġr angka
jadi kan
Ġsend ok
Ġe ast
Ġpat ut
sek arang
Ġjad inya
Ġsab un
Ġmew ujud
Ġjas ad
Ġpendek atan
Ġmengalah kannya
it ra
Ġmen u
Ġc ody
Ġn uran
et ti
ain a
Ġpak istan
uj ung
Ġbr un
og g
Ġant h
Ġkek alahan
Ġbu y
Ġins pirasi
Ġtransport asi
Ġbanj ir
t he
er m
Ġber operasi
Ġmeng undurkan
da ft
es sa
Ġg oo
Ġbag aikan
end ahkan
Ġberp egangan
Ġkeb ers
Ġmasalah ku
Ġberd etak
Ġatas an
Ġmengirim ku
Ġus ai
Ġdin y
Ġsex y
Ġimaj inasi
Ġd onald
Ġke kan
Ġmeng izinkan
Ġmemb odoh
Ġn ampak
Ġv in
enc er
Ġre x
Ġjer uk
io us
Ġbek erj
Ġkerj amu
Ġkupukup u
b agaimana
ek as
Ġsek utu
Ġsudah kah
Ġken ya
Ġbel le
Ġlalu i
Ġpemb angun
Ġar sit
Ġli z
Ġpenc ipta
Ġkon firmasi
Ġspesi alis
Ġcint amu
Ġproduk si
g et
j ah
l ess
Ġp inggir
Ġl ukanya
il u
ol ok
per gi
Ġkeb ing
Ġlap top
Ġkuk enal
Ġdarah ku
Ġsw iss
Ġbuah mu
Ġmengag umi
iny ur
Ġey es
Ġbry ce
Ġthro ugh
Ġaul a
b ila
Ġm uch
Ġch oi
Ġman ny
Ġsep t
Ġbas eball
Ġberes kan
Ġmempermain kan
o ol
s angat
Ġj emput
eng at
Ġmemb alik
Ġseb otol
Ġbar uku
Ġtinggal lah
Ġpeny erang
Ġpesawat nya
engg al
Ġkeg embira
Ġkemulia an
p ol
uk ir
Ġc up
Ġmer epot
ul ing
Ġg awat
Ġmengh abis
Ġberk il
umb ang
iv an
ly n
Ġkol oni
Ġcr aig
Ġoper ator
Ġment ega
Ġles lie
c y
f u
i al
t ober
ak ap
Ġd ampak
ar n
is iku
Ġsa int
ut nya
Ġmel issa
Ġf uhrer
Ġkas usnya
Ġberb isnis
Ġv eer
Ġperl omb
Ġberp engaruh
Ġmenya l
ans fer
Ġres pon
uali an
Ġsemes ter
Ġsemes tinya
Ġsens or
Ġjud y
Ġaltern atif
m ungkin
Ġk ill
at ik
Ġp ower
id i
Ġn asi
Ġsi aga
Ġpen il
and ia
Ġpeng usaha
Ġind iv
Ġterg il
Ġmenceritakan nya
Ġpay ung
Ġkuj elaskan
krip si
Ġpond ok
Ġelektron ik
Ġh apus
Ġl ec
Ġsem pit
Ġberb au
Ġpeng emb
ie ve
Ġters ebar
Ġperm ata
Ġfr e
Ġsehar ga
Ġeks perimen
Ġins inyur
Ġpemilik nya
Ġpam eran
Ġkaren anya
Ġvis ual
Ġm ie
Ġt eng
al in
Ġmem ar
Ġmeng enc
Ġg in
Ġmel udah
Ġth en
Ġbang ku
Ġkek hawatir
Ġjiw anya
Ġpenyus up
Ġkebing ungan
n otis
Ġs mu
Ġmem o
ir d
Ġbaik ku
end ir
Ġket enangan
Ġdip l
Ġdip ukuli
Ġtim es
Ġben eran
Ġno da
Ġbe au
Ġpenc ari
Ġpos isimu
he a
Ġmenelpon mu
Ġpenahan an
Ġkeprib adian
Ġwer ew
Ġperlomb aan
Ġs anti
er aian
Ġd uta
Ġb ong
Ġj ang
is ha
Ġmeng akses
Ġf ine
Ġses uat
Ġberb isik
enc h
Ġterk endali
Ġkehilangan mu
ick s
Ġmemec ah
Ġprakt is
hat tan
Ġfly nn
Ġdistr ik
Ġmenakutn akuti
Ġsull ivan
Ġp ew
ih ara
Ġg unting
ol l
ant ha
Ġbert unangan
ont ak
Ġperm anen
Ġdil aporkan
av er
Ġsakit nya
Ġkom ite
Ġkawan an
Ġang sa
Ġlab el
Ġmencium ku
Ġmengaw asinya
Ġjust in
Ġlump uh
Ġatur annya
Ġmurph y
o oh
v asi
Ġb um
Ġber antai
Ġmeny iany
Ġberb entuk
Ġch at
Ġberk ep
Ġsep i
ohon gi
Ġram alan
Ġrah ul
Ġaf g
Ġsch m
Ġmemaaf kanmu
Ġos car
Ġtenggor okan
Ġkecerd asan
Ġperger akan
Ġl ori
im um
Ġmel aksanakan
eb atan
Ġmend irikan
Ġpen ny
Ġterbaik ku
Ġmenikah inya
Ġpar am
Ġaktiv itas
n ett
Ġm ahu
Ġd ing
Ġd od
Ġmeng up
ur ai
Ġn ampaknya
eka an
enc ar
Ġmemper b
Ġkont r
Ġtom at
Ġperc eraian
Ġdisebut kan
Ġsand y
Ġviet nam
k l
Ġy an
Ġr omp
ay angan
et s
Ġsel ingkuh
angg ih
Ġch ap
ter an
Ġ2 000
Ġberk h
Ġdit engah
Ġters ayang
Ġ3 4
Ġpend aratan
Ġum urnya
Ġperk emahan
Ġpengendali an
Ġtenggor o
Ġtern ak
Ġberbulan bulan
Ġsekej ap
Ġpenil aian
an ne
Ġp aruh
Ġper ingkat
Ġc etak
Ġg antinya
Ġat let
Ġst il
Ġsepat unya
Ġnorm an
Ġmenganggap nya
Ġex c
Ġmol ek
omend asikan
t empat
Ġs wan
Ġs olo
Ġb amb
Ġb enang
Ġj ob
ut ing
ol ik
Ġf ight
Ġbuk tinya
fr ed
Ġmenaik i
Ġmemindah kannya
Ġseter usnya
u ger
Ġp alu
Ġc uman
Ġter or
Ġmer us
eg itu
Ġv e
Ġst art
Ġdit erj
Ġtr o
Ġkh aya
Ġkap as
Ġbat al
Ġmemas ukan
Ġterp ikir
Ġsc ot
Ġperk umpulan
Ġ9 9
Ġkejadi annya
Ġperut ku
Ġperi ode
Ġver onica
Ġfant asi
Ġjiw amu
lok ir
Ġbunt u
Ġkerum unan
Ġscarl ett
Ġm umb
Ġj ordan
ub le
Ġas uhan
Ġjalan ku
Ġpilih anmu
Ġmulut ku
Ġtrans fer
way s
Ġpengec ualian
Ġperkata an
Ġamp lop
Ġpermain annya
s o
s udah
u gi
w i
ak ura
Ġmen anti
Ġr alph
Ġg ett
Ġn ap
elah kan
Ġbers orak
and al
Ġkal a
Ġman hattan
Ġwal k
Ġkej i
Ġmil yar
engg ot
Ġjantung ku
Ġjari mu
Ġhid angan
Ġbuang buang
Ġ25 0
Ġboc or
Ġpunggung ku
Ġl ow
Ġg ob
Ġseb aga
ed ikasi
ff y
Ġag ustus
Ġdip ahami
Ġkup unya
Ġcari kan
Ġob jek
engg am
Ġmengel ola
Ġmo od
Ġkuh ubungi
Ġph ill
Ġu ap
Ġsept ember
Ġtergil agila
1 4
m p
m ark
s p
Ġt ulus
as on
Ġl aku
amp ur
Ġberk enalan
Ġdik alahkan
Ġkos m
Ġpe arl
Ġ7 5
Ġus kup
Ġall en
Ġscott y
t ilah
Ġd uck
Ġbr itt
inc ir
Ġmengaj aknya
Ġil usi
Ġmerek rut
Ġcerd ik
Ġturn amen
Ġberjam jam
Ġbrut al
b eb
r est
Ġb ingo
Ġj oy
Ġo x
Ġay unan
Ġf ol
Ġtahun nya
Ġkub utuhkan
Ġind uk
Ġcl o
Ġpend amping
Ġand erson
gerak kan
Ġkum iliki
Ġis rael
Ġband it
Ġins truksi
Ġkuper caya
n on
z el
er ahan
Ġd enyut
Ġj itu
Ġc eo
asa ya
Ġkem alu
Ġsetelah nya
uru ti
Ġpers aud
Ġinst ing
Ġsut rad
Ġgener ator
Ġpengampun an
z on
Ġp ita
ag en
da i
Ġter im
ur ger
Ġr ow
Ġmer ancang
eg el
Ġdis et
and an
Ġme in
Ġpend ukung
Ġsc o
Ġis land
Ġent er
Ġhas rat
Ġmenaik kan
Ġmembungk uk
Ġburr ows
p ing
Ġm ach
Ġp atuh
em ak
Ġl amanya
Ġpeng en
Ġst e
Ġso ft
Ġkor idor
Ġterd akwa
Ġjumlah nya
Ġbersel ingkuh
Ġnoth ing
Ġkegembira an
l ock
v o
Ġ ew
an ak
ad u
il as
Ġmemb uruk
Ġmel el
Ġya p
ic us
Ġhe ather
Ġst ill
Ġdik ep
Ġkom ik
Ġent e
Ġcat ur
Ġpernik ahannya
ungk us
Ġmengejar ku
Ġmembers ihkannya
Ġpenas ehat
col m
Ġwins ton
Ġagresi f
Ġpersaud araan
b ro
Ġk umpulan
Ġp iat
Ġhar mon
Ġst eph
Ġmengg osok
Ġtakut kan
Ġde ad
Ġsam eer
Ġsam antha
Ġwar as
Ġfl int
Ġberas umsi
Ġky ung
Ġberper ilaku
Ġpenyebab nya
Ġnikmat ilah
Ġpengin apan
b isa
r ov
Ġm angkuk
Ġt awarkan
Ġl ine
Ġc av
Ġmel eset
Ġpeng aturan
her o
Ġmal as
Ġmal colm
ett o
Ġmemasuk kannya
Ġbub ar
Ġpengem udi
Ġberbah asa
Ġkewajib an
Ġin isi
ag er
Ġmeng amankan
Ġapa bila
Ġter as
ur au
unt it
Ġn aman
Ġmel elahkan
Ġw onder
ant ing
Ġmend iskusikan
Ġpen eg
epat i
Ġberk a
Ġbr e
Ġanakan aknya
Ġben ua
Ġsal mon
Ġmenghentikan ku
Ġlay aknya
Ġbed ebah
aksana an
Ġmembangk itkan
e ong
f orm
l us
Ġ engg
en berg
Ġp up
Ġmen on
um e
Ġw ere
ep it
Ġbert ukar
Ġth em
ip s
Ġsh i
ig asi
Ġberc iuman
Ġsam ud
Ġkons truksi
Ġkag um
Ġumum nya
Ġcount y
Ġmeminum nya
Ġundang undang
Ġmelamp aui
Ġsebaga inya
w orth
Ġm ind
Ġmem ain
Ġad min
Ġr uth
af ik
Ġket id
Ġberp indah
Ġmemper cepat
Ġso f
Ġun h
Ġbon us
Ġlong gar
Ġorangtu amu
Ġform ulir
Ġnic ole
usn ahkan
n old
Ġ ub
Ġ udang
ir ah
Ġdis alahkan
Ġst eak
Ġev a
Ġho ok
Ġsepat uku
Ġmengejar mu
Ġtop ik
Ġnel ayan
Ġekspr esi
Ġpiat u
Ġberka itan
s as
Ġs ambut
at idak
Ġmem ukuli
us in
Ġter i
es is
ua bu
Ġmenc atat
Ġbers ungguh
Ġbers ahabat
Ġkem erd
Ġman ual
anti an
og ok
Ġmemp esona
Ġtelepon ku
Ġputr anya
Ġpistol mu
Ġmaj ikan
Ġmenyentuh ku
Ġmempert anyakan
Ġsamb ungkan
Ġmeluk aimu
Ġcrow ley
Ġlumb al
Ġgej ala
Ġb udi
am al
Ġl int
Ġmeng utus
Ġr awa
Ġn ai
adi a
Ġw ade
Ġf ell
Ġberb incang
Ġpeng edar
Ġdit angan
Ġjauh i
Ġdih ormati
Ġev olusi
Ġul tah
ungk ap
Ġnenek mu
Ġpart ikel
Ġpemenang nya
Ġberku da
Ġfoot ball
Ġkebodoh an
Ġafg han
m alam
Ġ aur
Ġt upai
al inya
Ġj asa
Ġmeng as
Ġw el
enar kan
Ġmas am
Ġf ord
Ġbert anding
Ġok tober
Ġken alan
Ġpem ahaman
Ġkom itmen
Ġbat ub
ins pirasi
Ġmengungk ap
Ġbenj amin
omos ikan
Ġd v
Ġp ek
itu r
Ġc anggih
Ġpad uan
Ġmau t
Ġpeng intai
Ġkeb oc
Ġli ang
Ġberg urau
Ġsy lar
Ġmengak tifkan
Ġau g
Ġron nie
Ġkuambil kan
Ġmeres pon
r ang
Ġk ua
Ġs kin
Ġs tif
Ġse at
Ġmemb ujuk
uh ur
ud ian
Ġmas k
Ġpeng eb
Ġpem ula
Ġdik endalikan
Ġkub icarakan
Ġkor ek
Ġtelepon mu
Ġfrank lin
Ġsw e
Ġrom an
Ġnas kah
Ġleher mu
Ġbarb ara
Ġmenamp ilkan
Ġotor itas
Ġkedok teran
Ġlumbal umba
ah ulu
Ġak tr
is u
Ġmeng ampuni
ai ah
Ġya m
ian ati
and o
Ġdik erjakan
Ġid enya
Ġab uabu
Ġterc epat
Ġpor ter
Ġperhati annya
Ġkonf lik
Ġmenyiany iakan
k apan
k osa
Ġ ace
Ġm ia
Ġk av
ar angan
am akan
un k
as iswa
Ġh ud
Ġl ake
Ġmeng u
ut o
Ġdis embunyikan
Ġmembuat kan
Ġberh ati
Ġbar on
Ġi ike
Ġpem ukul
Ġtr ek
Ġcl aud
Ġperb uruan
Ġmusik nya
Ġtujuan mu
Ġmencium mu
Ġkond isinya
Ġsay uran
Ġwat son
Ġpoo ja
Ġkre atif
pris e
Ġditerj emahkan
Ġb ord
Ġaku rat
Ġh end
Ġl ive
Ġmeng ot
im er
Ġn it
ic an
ac o
Ġbert entangan
tu al
Ġth omp
Ġkur asakan
Ġbr ank
Ġberj ag
Ġkud aku
Ġjim at
Ġdel ta
Ġcel aka
Ġistirahat lah
Ġtab rakan
Ġfir e
Ġwerew olf
f ormasi
Ġs kand
Ġl aci
Ġc ra
ul nya
Ġmel ac
Ġf ab
Ġmengh emat
Ġberk edip
Ġked i
Ġkr n
Ġmar et
Ġseluruh nya
ffff kau
Ġkej uj
Ġgo yang
Ġmenembak i
Ġmengem ud
Ġumur ku
Ġcontoh nya
Ġnyaw aku
Ġjurn al
Ġmengasih i
Ġperkira an
Ġsutrad ara
Ġmemain kannya
k al
l ang
Ġk arang
Ġmeny iks
Ġmengh arap
Ġberb elanja
Ġker ana
Ġku ingat
Ġst adi
Ġpel urunya
Ġz ach
Ġaman kan
Ġturun lah
Ġlem on
Ġdes ember
Ġmenghentikan mu
Ġhah a
Ġreg u
Ġkaren amu
Ġhan na
Ġmimp imu
Ġpengguna an
Ġmenert awakan
Ġlaks amana
w ord
Ġs umur
Ġd umb
Ġp y
Ġak sen
al asan
Ġl ance
Ġj udi
et apkan
Ġsi pir
Ġorang ku
Ġdir awat
Ġpercaya i
ch o
Ġpers amaan
Ġdiper lakukan
Ġwe i
Ġbuah nya
Ġkerj asama
Ġpram uka
Ġkedi aman
b el
i ff
an kan
Ġs ob
Ġs ind
Ġp aku
id angan
Ġdia w
Ġw ait
Ġap inya
Ġbert er
Ġti ff
Ġsam ar
Ġed itor
Ġband ing
Ġmenyerah kannya
Ġaj ari
Ġmemotong nya
Ġpis ang
Ġmon itor
Ġmmm hmm
Ġsuar aku
Ġmist er
Ġru gi
Ġhaw aii
Ġscre am
Ġsund al
Ġkemerd ekaan
l ima
Ġsa id
Ġpr eman
Ġar jun
Ġsp ec
Ġkat olik
ich i
Ġbantuan ku
omb ongan
Ġmengingin kanmu
iz in
Ġow en
Ġpasi fik
Ġtand uk
Ġmenghal ang
Ġparan oid
Ġkeboc oran
d r
Ġ 000
Ġt own
Ġl atih
Ġj emp
Ġr andy
Ġv od
Ġker ingat
Ġdib agi
Ġberk urang
Ġkom isi
Ġsp encer
Ġz ha
Ġsk en
Ġjar ing
Ġkons ekuensi
Ġmenonton nya
Ġor ig
yat t
Ġduga an
Ġril ey
Ġmenginj ak
Ġkait annya
Ġnal uri
Ġnin ja
b ola
k ep
s ky
Ġkau k
eg osiasi
ac ita
Ġbi ji
Ġi alah
Ġbr end
Ġpol it
Ġtidur mu
Ġwh is
Ġdip ukul
Ġmenak lukkan
Ġmengaw asimu
Ġsap u
Ġmenerb angkan
Ġdoes n
Ġthomp son
Ġs angka
Ġak ting
au kan
el esaikan
Ġy eh
Ġl ad
us ukan
us uhan
Ġmeng unyah
Ġtah ta
Ġw y
Ġw oman
Ġw yatt
aj ikan
Ġpr ob
Ġpr etty
Ġker abat
Ġpemb eli
Ġsen ilai
Ġdit entukan
Ġtr acy
Ġnya m
Ġberl awanan
Ġdip ikir
Ġben ih
Ġdid ep
Ġpertanya anku
Ġgl adi
Ġsant un
Ġgul ungan
Ġrahasi anya
Ġcomp any
Ġkorb annya
Ġpuc at
Ġaktr is
1 8
2 5
e on
f us
Ġy en
Ġj edi
Ġke arah
Ġmeng arang
Ġmeng ac
ek ukan
Ġmer pati
Ġoh io
os isi
Ġbers and
Ġth r
Ġman usi
ump uhkan
Ġpers on
Ġkr itis
Ġsulit nya
Ġpikirkan lah
Ġmenelepon nya
Ġul ah
Ġmenyus un
Ġpriv asi
d u
i u
Ġ emb
Ġ eg
as me
Ġber engsek
Ġper encana
Ġc ukur
ent er
Ġpeng erti
Ġtidur nya
Ġkul kas
Ġlupakan lah
Ġmenungg unya
Ġgoth am
Ġbarb ie
Ġkoord inat
Ġrome o
Ġsyl v
Ġindiv idu
Ġt egas
ar ak
ap akah
Ġl er
Ġl amaku
id asi
Ġj d
ir ik
Ġter ku
enar an
Ġbi ologi
Ġpemb aca
Ġked alaman
Ġcer ia
Ġmemikir kanmu
Ġop tim
Ġmenjemput nya
tic k
Ġmengalah kanmu
Ġkesimp ulan
Ġd osis
Ġp anduan
Ġin ten
Ġc rix
es ome
ai kanmu
ol akan
Ġw ali
aw ati
ed iksi
aj ang
Ġsh ot
Ġfr ing
Ġbern egosiasi
Ġbal asan
Ġterp utus
Ġmenembak kan
men erus
Ġtas ku
Ġmor ris
Ġponsel nya
Ġberes iko
Ġleng anku
Ġrahasi amu
Ġfall s
Ġinform an
Ġpsiko pat
Ġs q
ap h
Ġdi jadikan
Ġh oo
Ġmem utus
Ġw a
Ġbagaim an
Ġberb ulu
Ġterb aring
Ġmat ilah
Ġpers impangan
Ġem ang
Ġbl anc
Ġro x
Ġfilm nya
Ġsy uting
Ġins tr
Ġim ig
Ġcol in
Ġmenyus up
Ġbik su
Ġturn er
Ġmick ey
sem ua
Ġruss ell
Ġdikemb alikan
Ġops ir
Ġafghan istan
Ġcrix us
o or
y i
Ġk endalikan
at ed
it aku
Ġse kuat
ti an
Ġr ans
Ġn ag
Ġbagus nya
Ġi van
ip ut
Ġberd ir
Ġmengg od
Ġbr it
Ġ3 7
Ġkl aim
Ġte am
Ġkomp i
Ġmengenal inya
Ġrencan aku
Ġphil ip
Ġprot es
Ġtir ai
Ġlag unya
Ġsom eth
Ġmelewat kannya
Ġcent ral
Ġwin chester
Ġmenip uku
Ġenyah lah
j ana
t it
Ġ ori
Ġs orak
Ġb itch
el ing
Ġh ung
Ġl ut
Ġper ah
Ġmeng ik
Ġmer endahkan
Ġf ans
Ġpr as
Ġv ar
Ġdengar lah
Ġmu ti
Ġtert ua
Ġkemud i
Ġkap ak
Ġde ath
Ġpec inta
Ġmenjauh kan
Ġusah akan
Ġteb akan
Ġwis ki
Ġgirl s
Ġnger ti
Ġgabri el
Ġberjag ajaga
Ġs uc
Ġs ikat
Ġmen andai
Ġj ai
ag ak
Ġter atur
api an
emb ung
Ġf enom
Ġkel ak
Ġdir ampok
Ġth ing
Ġberp encar
op h
Ġdit er
ug askan
Ġpers idangan
Ġdem ons
Ġkeber h
Ġdon at
Ġpernikahan mu
Ġjari jari
Ġreg ina
Ġpus h
Ġtungg ulah
Ġbub uk
Ġsor ry
e es
y arat
Ġ ungk
Ġm ode
Ġt atap
Ġp anda
Ġmem impikan
Ġke ab
Ġmel aju
emb ali
ot er
Ġmengh ir
Ġkep iting
Ġ3 3
Ġterus menerus
Ġpeny iksaan
man n
Ġpend arahan
Ġger ob
Ġbl a
Ġbiar lah
Ġsal in
Ġpemer kosa
Ġrob ek
Ġmah i
Ġsepat umu
Ġgen eral
Ġgerb angnya
Ġmeray akannya
d ing
r ogen
Ġb ata
Ġdi as
Ġse en
Ġh il
Ġj urang
Ġg atal
Ġsem ak
aw ak
Ġch u
Ġmenem ani
ip ulasi
Ġpet r
tr o
Ġab aikan
Ġmenjatuh kannya
yl la
Ġwall ace
Ġvalent ine
d own
s um
Ġt ut
at on
Ġh ant
Ġl ud
Ġl imb
id t
Ġper ry
Ġr ot
and akan
si on
Ġbung kus
Ġsc ylla
Ġis yarat
Ġdih itung
Ġkesalah anmu
Ġ9 00
Ġmac an
Ġmengantar nya
Ġsul ap
Ġmeray u
Ġlun ak
Ġrang er
f ul
en ue
Ġmen engg
el ine
Ġmeng ul
Ġr hea
Ġw inter
per s
Ġmend eteksi
Ġberp egang
Ġas y
Ġberk alikali
Ġdit etapkan
Ġsu z
Ġz at
Ġmemer angi
omb olan
Ġbos mu
Ġamer ica
Ġkesalah p
Ġtok oh
Ġnew ton
Ġfl et
Ġbus ur
Ġjantung mu
Ġpedang nya
Ġbro ad
Ġapartemen nya
Ġjul es
Ġkerj aku
Ġkatakat aku
Ġarg umen
Ġshang hai
Ġpembers ih
Ġmenump ahkan
Ġanth ony
Ġdv d
m end
ap er
Ġdi ingat
Ġkau pikir
Ġdia b
Ġter ri
Ġr eh
ul ihkan
amp as
eg ahan
Ġdis ayangkan
Ġket egangan
Ġmengh ak
Ġbar nes
Ġv el
Ġdim ainkan
Ġdit angani
na an
Ġ3 8
Ġut amanya
Ġum m
Ġz oe
Ġel ean
Ġbe asiswa
Ġrib ut
Ġmenyimp ulkan
Ġkarun ia
Ġgy m
Ġadr enal
Ġberkons entrasi
al o
Ġbis kuit
Ġberk emah
Ġbay iku
Ġneg osiasi
Ġsil ver
Ġdid unia
Ġsc r
ber b
Ġgag ah
Ġlok er
az a
Ġir is
Ġland asan
Ġhip ot
Ġpengu in
waj ah
Ġrap uh
Ġmir anda
Ġkesuka anku
Ġatmos fer
Ġberter imakasih
Ġsken ario
Ġkesalahp ahaman
Ġelean or
u u
ak um
en zo
Ġdi gigit
Ġl ahan
il is
ag h
Ġg ali
Ġtet angg
Ġsc ar
Ġmet h
Ġmengk onfirmasi
tiv asi
fil m
Ġmenangg api
Ġzha o
k on
u el
Ġd atar
Ġmen engah
Ġber atnya
Ġsem ula
Ġket empat
Ġbi us
Ġch and
Ġters entuh
Ġdil epaskan
Ġkuk etahui
ij inkan
Ġ12 0
Ġditu d
Ġmener us
co unt
Ġteling aku
Ġdisk usi
Ġmenggel ikan
Ġleng annya
Ġvirg il
Ġmeneb us
Ġmerus aknya
Ġj up
Ġf ind
Ġpeng ambil
Ġberm an
Ġcer itamu
ej aran
ov en
Ġsekitar nya
Ġsam urai
Ġom ar
Ġsk ot
Ġjad e
Ġmengatur nya
sel f
Ġcap ek
Ġmenjemput ku
Ġgig it
Ġmenunjuk kannya
Ġtat apan
Ġherb ie
Ġprodus er
Ġmematamat ai
Ġs ku
Ġb uj
Ġb omb
Ġak unt
Ġak hiri
Ġmeng akhir
Ġr af
Ġses ekali
Ġmenc air
os al
Ġpen sil
angk au
Ġjalan i
ug o
Ġfr ost
Ġpenj ag
Ġind ones
Ġut usan
Ġanj ali
Ġberg etar
Ġsendir inya
Ġer ik
Ġsk itter
Ġmenyes ali
Ġjar ed
lis h
Ġbersenangsenang lah
min um
Ġlog an
Ġav enue
Ġarti e
Ġgang ster
Ġnov ember
Ġsunt ikan
Ġkeret anya
Ġkalk un
Ġmolek ul
r up
Ġb ati
ar annya
Ġj r
Ġke an
il ikan
Ġr er
eg r
Ġpeng hal
uc ap
Ġser v
Ġsp eed
Ġberj udi
Ġrol and
Ġmengecewakan mu
Ġzh ang
Ġpembal asan
Ġmengendali kannya
Ġadmin ist
Ġvod ka
4 7
e gi
Ġk antung
Ġb ody
Ġin j
Ġber ab
Ġr ata
Ġg anj
Ġn ig
Ġmeny usah
Ġf atal
Ġat asi
Ġpen eb
Ġkeluar nya
Ġmenj ahit
ĠĠ ĠĠ
Ġ3 1
engk ak
Ġwar nanya
Ġgil bert
Ġac tion
Ġmengerjakan nya
Ġsul tan
sie ur
Ġnol an
memb uat
Ġdiny atakan
2 00
a inya
b ad
h ne
l ain
Ġb ala
Ġp and
Ġan tr
Ġc ah
Ġter ancam
Ġhar am
Ġpas ta
Ġtr oy
Ġso okie
Ġanakanak mu
Ġ4 3
Ġbet a
Ġkek ais
oy les
Ġres t
Ġpul uhan
Ġjer itan
Ġhadiah nya
Ġmenyus uri
Ġmik ey
vi et
Ġsaj alah
Ġkekais aran
b uat
b asi
Ġd all
Ġd pt
Ġt onton
Ġak un
Ġdi w
Ġj oker
Ġmem atikannya
um sikan
alam inya
eg ara
eg era
Ġf ormasi
Ġbah awa
ed ih
Ġkep an
Ġch ing
Ġbangun kan
Ġto uch
Ġbl ake
Ġpos ter
Ġperk ara
Ġgag ak
Ġpaham i
Ġmener j
eku tif
Ġbom nya
Ġmemperk osa
Ġdek ade
Ġdemok rasi
Ġcra zy
b au
o om
t ahun
Ġ ukur
Ġp ud
Ġh orn
Ġl an
Ġber kah
ga ji
Ġkec anduan
Ġdib eli
Ġso viet
Ġem il
Ġbos ku
Ġperk asa
Ġmundur lah
Ġbo ur
Ġmemerlukan nya
Ġpembal ap
Ġsingg ah
b anyak
b urn
ak up
Ġk iss
Ġd h
Ġp angkat
ad ar
Ġh av
id ana
Ġmeng gerakkan
per nah
Ġpen akut
Ġmengh antu
Ġpas tor
Ġkeb angk
Ġgadis ku
ov an
Ġe ug
Ġdok tor
Ġkum is
Ġdekat nya
Ġab s
Ġbl ood
Ġed gar
Ġpernikahan ku
Ġus us
Ġgeorg ia
Ġmenelpon ku
ph one
Ġperut nya
Ġson ia
inda i
Ġcab ul
Ġterim alah
Ġ uk
Ġ ill
Ġpad uka
int ik
Ġap ol
amp ar
ep ing
Ġpen erj
Ġbert urut
Ġmalam nya
Ġst one
Ġters angkut
Ġperjalan anmu
Ġis ab
Ġsk ip
Ġtab ungan
Ġlemp aran
Ġjanj iku
Ġisa ac
Ġstif ler
Ġskot landia
Ġ eb
Ġ ord
Ġs b
Ġt ingkah
ag ue
Ġf ace
aj i
Ġkal el
od i
ip kan
Ġmendapatkan mu
Ġpes ona
Ġoleh ku
Ġpl ace
wan ita
Ġpengh ormatan
Ġmemegang nya
Ġmembawakan mu
Ġsky ler
Ġfi ona
Ġkenya manan
Ġromp i
Ġmelac aknya
Ġs osis
Ġdi usir
Ġl ink
Ġj azz
Ġj enggot
Ġmemb imbing
ed y
angk atan
enc il
Ġpint as
Ġcl ar
Ġbet ter
angkan ya
Ġmemer as
Ġindah nya
Ġsw edia
Ġir on
Ġmon sieur
Ġmengangkat nya
Ġmenakut iku
Ġleng anmu
Ġatl anta
Ġbati atus
d onald
u y
ap ung
Ġdi eks
Ġmen id
Ġy uan
ir is
Ġc anggung
aw al
uc ian
Ġdit andai
Ġar ound
Ġkapan kapan
Ġmil i
Ġalasan mu
arg e
Ġpakai annya
gabung kan
ert y
Ġeks ekutif
Ġpec ahan
Ġdij aga
Ġbekerj asama
Ġskand al
ak tif
Ġb ail
am atan
Ġmeng izin
um inggu
Ġg im
Ġsek umpulan
ok a
Ġkar l
Ġpeng enal
ev an
Ġsp ons
Ġob rol
Ġdih ad
Ġer in
Ġbas e
Ġcol umb
Ġjul ian
Ġsun ny
Ġastron ot
Ġpij at
g ins
n u
p anjang
t ain
Ġm oh
Ġj ump
Ġper airan
ek atan
Ġr ac
Ġr amb
um ahan
Ġmer acuni
Ġmeny emp
ib atan
Ġmenc ukur
Ġmenc ekik
Ġch ann
Ġpemb uka
Ġmin at
Ġkh al
ej arah
Ġdip el
Ġsp eak
Ġcar ly
Ġbe ach
Ġmengirim kannya
Ġpanggil kan
Ġterp encil
Ġkons pirasi
ongk rong
Ġotak ku
Ġbak alan
aa aa
ograf er
Ġwhit ney
Ġdiku bur
Ġseo ul
mudah an
icip i
Ġjup iter
Ġb elahan
Ġp it
Ġdi andalkan
Ġh ore
Ġmem and
Ġmeng ukur
Ġmemb ohong
ot ot
Ġbi ayanya
Ġmenj ilat
Ġbr oyles
og an
Ġre ed
Ġab r
Ġdet il
Ġ19 5
Ġorgan ik
Ġhidung mu
Ġtradisi onal
bah wa
Ġnaz ir
Ġmcg ee
Ġpembangun an
Ġmumb ai
Ġbersungguh sungguh
Ġlint asan
Ġkejuj uran
Ġgerob ak
h ak
h entikan
k em
Ġmen ant
Ġter ungkap
on ey
Ġn ongkrong
Ġsel ai
Ġap ple
Ġkel ebihan
Ġkar d
Ġtet es
ulang i
Ġkur akura
Ġsp ark
Ġbl ow
Ġdig antung
Ġfl at
Ġim ut
Ġbak er
Ġmenghajar mu
Ġbrook lyn
Ġkurs us
Ġcons t
Ġkhaya lan
Ġberdir ilah
k ap
Ġ ic
Ġt oh
el awan
Ġc air
ek ah
ti up
Ġg all
ay o
ingg uminggu
Ġbar ney
Ġpem ul
ila inya
Ġsh ag
Ġag ent
Ġterbaik mu
Ġluc ifer
Ġkek ej
Ġmudah mudahan
Ġun i
Ġoff ic
Ġris et
Ġamat ir
Ġkebij aksanaan
Ġastr id
Ġsku ad
f iah
i pat
n ia
Ġt itan
al isa
ap apun
Ġke dai
Ġmer ed
Ġmel ayan
eb ye
Ġsel okan
Ġf a
Ġat t
Ġpen ingkatan
Ġbel ati
Ġmember kat
Ġpert engk
Ġsen at
und er
Ġdik onfirmasi
Ġsehar ihari
Ġaw esome
usi f
Ġmenutup nya
Ġkay aknya
Ġsch ool
Ġkuper iksa
Ġluthor corp
Ġpass word
Ġdiperk irakan
Ġeag le
Ġnai f
f le
x i
Ġm utan
Ġb am
Ġb ai
ad ari
Ġh obi
Ġl ac
Ġter ingat
ok asi
Ġtahun mu
Ġkeb is
Ġtr op
Ġpers egi
Ġsp id
Ġkuk irim
Ġre fl
Ġwar ren
Ġlemb ar
zz ie
Ġpunggung nya
Ġterm inal
Ġanton io
Ġaa ah
Ġanalis is
Ġschm idt
6 0
Ġ ungu
Ġt og
Ġdi ubah
Ġmeng ay
Ġc andy
Ġter esa
ur g
Ġo v
Ġn ex
et her
Ġsem pr
up an
Ġf al
Ġpak ailah
Ġpel t
Ġ5 5
Ġe uro
Ġdid uga
Ġgel embung
Ġ7 2
Ġlel uhur
Ġdel hi
Ġsub tit
Ġmendorong nya
Ġbangk ok
Ġmengingatkan mu
Ġketerl ibatan
Ġbart owski
Ġpred ator
Ġdipl om
Ġterku bur
Ġm ack
am el
ih o
Ġter jual
Ġw ew
Ġpem egang
Ġdik unci
urus kan
Ġe ar
Ġdid apat
Ġsitu lah
Ġer nie
Ġkud apat
Ġbo ot
Ġbergabung lah
sat u
Ġmon ica
mel ihat
Ġkaw asan
Ġmengger tak
Ġsum mer
Ġdiaj arkan
ongg ong
Ġkepem ilikan
Ġpeop le
Ġnuran i
Ġnaman ama
Ġkeab adian
m ir
p agi
Ġp ick
Ġber itahukan
unt uhan
Ġg ump
et as
gi ving
Ġtem p
Ġpeng amatan
Ġset inggi
Ġv ari
Ġmus isi
Ġped ro
oy le
Ġmembant ah
Ġup s
ens inya
Ġali cia
Ġdap hne
Ġberbalik lah
Ġmeminjam kan
Ġdijalan kan
Ġpenas ihat
Ġll oyd
Ġshel don
Ġvik tor
Ġberga irah
Ġhr s
Ġparup aru
Ġbritt any
Ġseat tle
c at
h ay
ak o
Ġt ul
in nya
Ġse iring
Ġh ag
Ġw iz
Ġkar go
Ġbes t
Ġam arah
ajar inya
Ġz od
Ġres imen
Ġstr ip
Ġkus arankan
Ġpir am
Ġpingg iran
Ġlen ny
Ġdiad akan
Ġcak ap
Ġmenimp a
Ġsanti ago
k op
l alu
p in
z u
ak er
ang er
Ġmen awar
Ġaku tidak
Ġj uan
Ġmeng obati
Ġc and
ing ham
Ġr anj
Ġg inj
Ġw ing
ab ik
Ġsh ad
Ġpes t
Ġyakin kan
Ġny any
Ġpers el
Ġmar ilah
Ġterp esona
Ġmendengarkan mu
Ġpop ulasi
Ġcur tis
Ġdat ab
Ġkehad ir
Ġsukar elawan
Ġdef in
Ġdor othy
Ġmengakhir inya
e au
n nya
s ang
Ġm ang
Ġs ni
Ġp oker
el pon
Ġper ban
ur agu
Ġo ak
Ġpen enang
Ġken alkan
Ġket ik
Ġkes ayangan
Ġser um
Ġser ge
Ġsh akes
Ġdep os
Ġdik urung
Ġso und
uri ga
Ġte or
Ġis u
Ġwill y
Ġbo og
Ġkeputus anmu
Ġtind ak
Ġmembakar nya
Ġevery thing
Ġusi anya
Ġjendel anya
Ġmuti ara
b b
s uk
Ġj ol
us uri
Ġo g
Ġmel un
Ġdatang nya
Ġar wah
Ġcar la
Ġuh uh
Ġberc akap
Ġdiper s
Ġsal v
Ġby ebye
Ġtas mu
Ġgen e
Ġmom ma
Ġluk is
Ġten is
Ġroh an
Ġled akkan
Ġponsel mu
Ġleg end
Ġpering atkan
Ġpam er
Ġgab e
Ġmencurig ai
Ġgand um
Ġhunt er
Ġalas ka
Ġjemp ol
b ot
Ġp ig
Ġmen iru
Ġmeng ev
Ġmeng alaminya
amp ai
Ġses uk
Ġch ick
Ġi v
Ġtidur ku
Ġorangorang mu
Ġre uni
Ġanjing ku
Ġom bak
Ġbiar awati
Ġsk i
engg ut
Ġmah ir
Ġnas ehat
Ġcur ian
Ġtal inya
Ġorangtu anya
Ġveg et
Ġpenghal ang
t urut
Ġs od
Ġse ung
Ġse imbang
or kan
Ġmer tua
eb ol
Ġf itz
Ġterb entuk
Ġpemb akaran
Ġdil upakan
oc i
Ġlo yal
Ġclark e
Ġsad ari
Ġeks ekusi
Ġmener uskan
Ġros ie
Ġkesepakatan nya
Ġkent ut
Ġmelepaskan mu
zz y
Ġgig inya
Ġintern al
Ġdita w
Ġunt a
Ġsemen it
Ġgladi ator
Ġdall as
s ara
u f
Ġd oo
ad w
Ġh oki
is ma
Ġper umahan
Ġpad am
aj aran
Ġpert umb
Ġtr ail
Ġtel iti
Ġoleh nya
Ġsp l
Ġlap is
Ġjar aknya
atur al
Ġkad al
Ġdin o
Ġkemampuan nya
Ġlar ilah
Ġklien ku
Ġthanks giving
Ġlock wood
Ġrag uragu
Ġdex ter
Ġbrun o
Ġmerepot kan
Ġorig inal
Ġpolit isi
s tone
Ġ ember
Ġm orn
Ġt ill
at ing
Ġdi ijinkan
Ġl ekas
eng ek
Ġmeng or
Ġc oc
Ġseper empat
eg arkan
Ġmin e
Ġterk ek
Ġangg aran
Ġro os
Ġpengh ubung
Ġbas is
Ġpar ade
Ġmax im
Ġmew awanc
Ġlou ise
Ġget aran
Ġtur ki
Ġteg ak
menc apai
Ġspr ing
Ġjor el
Ġbersand ar
Ġpertengk aran
z ah
Ġm osk
Ġdi aktifkan
Ġmen idur
Ġl omba
or si
Ġn ir
Ġn ev
Ġw asi
Ġmas ker
Ġpr ith
Ġdis ukai
Ġmenjadi kannya
Ġdit andatangani
Ġdip utuskan
Ġant ing
Ġgel anggang
Ġjer n
Ġkol om
Ġrek amannya
Ġkulit nya
Ġkirim an
Ġac count
Ġtur is
Ġaus tin
Ġkod enya
Ġsik lus
Ġwaj ib
Ġsesuat unya
Ġasy ik
c l
id at
Ġmem uj
Ġn aina
angk it
Ġpert unangan
Ġkec uriga
Ġberk ulit
Ġkot aknya
Ġhilang nya
Ġlet ak
ber h
Ġsepat ah
Ġfor ce
Ġbas s
Ġrep ut
Ġmag ang
Ġmengantar ku
Ġdeb bie
Ġmempel ajarinya
Ġwilliam s
Ġra ih
Ġbokong ku
Ġpsik ologi
Ġkebers ihan
Ġpengerti an
i ya
Ġ ug
Ġb lah
Ġp uck
al at
Ġmem uji
Ġdia jak
Ġc iptakan
Ġmemb al
alu asi
Ġkan sas
Ġbur uh
Ġmu al
Ġ3 9
Ġdid orong
Ġpat ri
Ġdic atat
Ġperc uma
Ġsuper n
pr ess
Ġray mond
Ġkerus uhan
truk tur
Ġgriff in
Ġs osok
Ġt inta
Ġdi ikat
ik m
ik et
Ġsa v
Ġmer ugi
Ġtah ulah
Ġal fred
Ġkeb aikanmu
Ġpel eton
Ġoleh mu
Ġbodoh nya
Ġem m
Ġger akkan
Ġmak na
Ġdic ur
Ġq uar
Ġfor rest
Ġpop ok
Ġterserah lah
zz o
Ġperasa annya
Ġint im
Ġcont rol
erl ang
Ġmemperingatkan mu
Ġmenjebak ku
Ġeug ene
Ġapol lo
Ġberturut turut
3 5
z ar
Ġt in
Ġt una
Ġr ico
mu da
ent o
Ġya ya
ib al
Ġpen ungg
Ġkes i
Ġser ver
Ġdib iarkan
Ġjalan mu
orm al
Ġpend ingin
Ġperjalan annya
Ġmembayar ku
Ġamb er
Ġik lim
pr es
Ġpip is
adab ad
Ġlot eng
Ġpengacar aku
Ġmek ar
b enda
p ot
r um
w ara
Ġd ot
id ent
Ġj ut
eng aja
Ġkam ulah
Ġg um
ol in
Ġker dil
Ġku akui
Ġser upa
Ġst ok
Ġbr ain
Ġbur ke
ch an
Ġperm asalah
Ġkub ayangkan
Ġminum minum
Ġkr ish
Ġle ft
Ġkut inggalkan
Ġdid ekat
Ġoper a
Ġcol or
Ġcint anya
Ġkemati anmu
Ġhamb atan
Ġgret chen
Ġberab adabad
Ġoffic er
Ġ iran
is olasi
ag net
Ġn api
Ġw ish
end ahan
Ġtem per
Ġdis inilah
00 00
Ġst ate
Ġpel angi
Ġpem alu
Ġdep uti
Ġmat e
Ġtik ungan
Ġph ant
Ġmad e
Ġdad anya
Ġsar jana
Ġjag alah
bur ung
Ġperbuat anmu
Ġund er
Ġmemaks amu
Ġlompat an
Ġcent er
Ġprop osal
Ġfenom ena
Ġchann el
Ġdatab ase
y an
z al
Ġm ort
Ġh us
Ġj anjikan
Ġmem ad
Ġper oleh
Ġg ann
ay e
Ġw af
Ġsek ilas
Ġmas tur
Ġpak e
Ġberp endapat
Ġtel es
ark ir
Ġz ack
Ġbaj uku
Ġarah nya
Ġinter ogasi
Ġinv asi
Ġhidung nya
Ġrel evan
Ġrod rig
Ġvick i
Ġkeponakan ku
Ġlaur en
Ġterengah engah
Ġditud uh
b ag
b ian
g ia
i as
t us
Ġt usuk
Ġj av
il iar
Ġc m
Ġn arap
Ġmel uncurkan
Ġa ver
Ġmenj eng
Ġdit ipu
Ġters andung
Ġked engaran
Ġben net
Ġdok um
Ġkuk erjakan
Ġbat asan
Ġdig anti
Ġsuk acita
Ġponsel ku
Ġjuli et
augh n
Ġtergel incir
Ġbrank as
Ġtiff any
Ġflet cher
Ġkebis ingan
Ġmosk ow
l s
ar nya
Ġp ahit
Ġh ump
Ġj g
Ġmeng angg
im e
ob rak
Ġkes uk
Ġal ways
Ġmenger ang
Ġpem ikir
Ġters anjung
Ġist eri
Ġgr aham
Ġsp ock
Ġbern ie
Ġda ily
ewa an
Ġph oto
Ġpec ahkan
Ġpedang mu
Ġmanaj emen
Ġsikap mu
Ġpenjel ajah
ped o
Ġkonsul tan
Ġpew aris
Ġsometh ing
Ġpetr elli
Ġobrol an
s ch
u ff
w ujud
Ġb ann
Ġmeng intai
Ġc etakan
Ġr ongs
Ġg eser
Ġg anas
Ġn onan
Ġmel umpuhkan
Ġw ujud
ent ak
ot ret
om o
Ġdim atikan
Ġtr e
orm on
Ġtenang kan
Ġkat h
Ġant usi
Ġaneh nya
Ġdar cy
adap tasi
Ġdo uble
Ġjar iku
Ġsemb arangan
Ġtruk nya
Ġpaul a
Ġpaul us
Ġpember ian
Ġaktif kan
Ġtor pedo
Ġbec anda
Ġtampil kan
Ġperkata anmu
Ġlic in
Ġpenyemb uhan
Ġmenjelajah i
Ġkekhawatir an
Ġsteph en
Ġkeberh asilan
Ġnarap idana
2 4
y on
Ġk g
ad or
Ġl ya
Ġl ast
Ġr asional
Ġn ad
Ġn im
Ġkel ew
ian s
Ġbert ek
Ġst ik
Ġkeh am
ec tor
Ġsayang i
Ġsh aron
Ġpes annya
Ġkub a
Ġar gh
Ġre kanku
iv a
Ġbe f
Ġob or
Ġob sesi
Ġdih argai
Ġterd iri
Ġang ie
Ġmand y
Ġsaudar iku
ash ion
Ġlemb ur
Ġlab u
Ġleher ku
Ġpenamp ungan
Ġly n
Ġpembuat an
Ġkart unya
Ġkaf e
Ġcem erlang
Ġister iku
Ġstil es
Ġrans el
h um
r umah
Ġs anj
Ġs aksikan
Ġt os
em asan
Ġh uang
us ta
on ia
Ġmemb edakan
Ġr io
Ġn uh
Ġkar ung
Ġdis iksa
Ġpas okan
Ġal v
si apa
Ġberp ac
Ġst ew
akit i
Ġsh en
Ġtr aktir
Ġped as
Ġcar men
Ġpan en
Ġbern ard
Ġperintah nya
men j
Ġsim pati
Ġint o
Ġshif u
Ġnonan ona
Ġd up
Ġmen od
Ġaku pun
Ġse i
el ih
Ġmer iah
Ġo z
Ġhar fiah
Ġbers edih
Ġberh ar
Ġpas kah
Ġset h
Ġst ay
Ġpem as
Ġbr a
Ġpol is
Ġdik utuk
,, ,,
Ġkl ik
Ġberg oyang
Ġis n
Ġpos isinya
Ġmendengarkan nya
if at
Ġmusuh mu
ish i
Ġgal eri
Ġjej aknya
Ġrup ee
Ġjul ukan
Ġell en
Ġteb usan
Ġkunj ungi
Ġmembodoh i
i ana
l eb
p i
Ġm eh
Ġk oh
Ġt awa
Ġdi ana
Ġmeng ga
Ġw ig
Ġsek op
ant on
Ġf ang
ac oba
oh oh
Ġpeng ejaran
Ġth an
Ġbr en
Ġdit unda
ig o
Ġjawab lah
Ġmil o
Ġbos nya
ma af
Ġsir kuit
Ġmengem is
Ġmemaks anya
Ġpep ohonan
Ġdipert aruhkan
Ġcind er
Ġsukar ela
Ġgh ost
Ġbrand on
Ġnyany ian
Ġpertumb uhan
9 9
h ot
l ene
Ġs ari
Ġd ungu
at ai
it nya
Ġmen tah
Ġbeg inilah
Ġv ul
Ġkur ir
Ġtr ent
Ġtr oll
Ġmenang kan
Ġem os
Ġkor ps
Ġkesempat anmu
Ġkosong kan
Ġres ik
Ġmelawan ku
Ġrob bie
Ġho od
Ġmenyentuh mu
Ġcol t
alis asi
Ġbut ter
Ġpenya ir
Ġkil at
que en
Ġpep per
Ġhero in
Ġgrim m
Ġacar anya
Ġpik nik
Ġsq uar
Ġginj al
l ng
r ell
Ġs uri
in si
Ġh eli
Ġmem f
ti a
eb as
Ġmenc emaskan
tu j
hir e
Ġbr ig
Ġsh er
empat an
oc eh
Ġgo ing
Ġterp engaruh
Ġdih ubungi
Ġpasukan nya
Ġhubungan mu
Ġmo ore
Ġperc ikan
Ġbenda benda
Ġbus h
Ġsub yek
Ġjan uari
bo ard
Ġdat aran
Ġrent an
Ġterkek eh
d eng
j ar
m ember
w oo
Ġk is
el t
Ġl bu
or u
Ġmeng unc
ut e
Ġf ashion
om et
Ġbers uara
Ġdis emb
Ġdis iapkan
anj utan
Ġib uk
Ġku tip
si f
Ġberm ingguminggu
Ġpers o
Ġsp ar
Ġz eus
Ġdiper h
Ġbl ur
Ġbuk umu
tif ikat
Ġterp el
Ġide ide
Ġun ic
ee z
Ġband ar
Ġkeingin anku
Ġkil o
Ġtag ih
Ġjeff rey
Ġmemaks akan
Ġton ight
Ġjes sie
Ġpingg ul
als ukan
Ġmelel eh
Ġmengot ori
b ody
p utar
ak iman
Ġk ick
Ġb eh
un e
Ġh ina
Ġc amer
Ġter jawab
ic s
ot bah
ep si
Ġterl upakan
Ġpeng int
Ġtempat tempat
anj ing
Ġal right
Ġpem arah
Ġmengg onggong
Ġthe o
Ġberg anti
Ġgo og
Ġkud anya
Ġtip u
Ġpark man
Ġps y
Ġlog is
Ġgor esan
Ġles bian
Ġjosh ua
Ġcast le
Ġshr ek
p eng
Ġs per
Ġmen ag
ad el
Ġh og
Ġl b
Ġper ek
Ġter wujud
Ġmemb anding
Ġmemb ohongi
Ġmer as
Ġg uard
Ġn ek
Ġmel eg
Ġkem ah
Ġpeng ungsi
Ġpem ec
ta il
ej oon
Ġfr ont
Ġpan el
Ġkut anyakan
by e
Ġdiber kati
Ġkn p
Ġher r
Ġtakdir mu
Ġpab lo
Ġchrist mas
Ġgold en
Ġdoug las
Ġpengem is
Ġkand idat
Ġmuat an
Ġkonv ensi
Ġmastur basi
b al
Ġt orn
al angan
Ġber ak
Ġmem udar
et ta
ot ing
amb ung
Ġa e
anc arkan
Ġmes s
Ġbe ar
Ġsc an
Ġperk eb
Ġmenyerah lah
Ġsuper hero
Ġmengalahkan ku
Ġtes la
Ġtuk ar
alis me
Ġmenyalah kanmu
Ġpengant ar
Ġmembalas nya
Ġdom ini
Ġsamb ungan
Ġberkom itmen
Ġmasam asa
adw alkan
Ġperso alan
c is
Ġp od
ap e
Ġy ong
Ġy uri
Ġmeng ol
Ġc c
Ġc i
Ġr aga
Ġhar m
Ġsel f
Ġmeny ita
Ġmeny egarkan
Ġbers ifat
angk as
Ġbar ak
Ġal vin
Ġth ings
Ġberd andan
ug ht
Ġbagian ku
Ġbaj unya
Ġsur atnya
Ġkawan ku
Ġjer ami
Ġx iao
Ġpang lima
Ġkeper l
Ġmengajar inya
Ġleg al
Ġdu yung
Ġreal itas
Ġsamb utan
Ġperw akil
Ġarsit ek
Ġberkil au
Ġnex t
Ġshakes pe
b rid
Ġm ov
Ġk imb
ya sa
Ġmen epati
Ġl ester
Ġj ij
Ġmeng inter
Ġc ock
eb alan
Ġsi ghs
Ġsel usin
aya p
ani el
Ġkup anggil
Ġpertanya anmu
ust y
Ġkomp as
Ġgar pu
itung kan
Ġrah ang
Ġrah mat
Ġfir st
Ġcom ing
Ġsok ka
Ġbart ender
Ġclay ton
Ġmekan ik
Ġmut lak
Ġhack er
Ġmenep i
Ġaid an
Ġmengemud ikan
ap tis
Ġl av
Ġl obi
Ġper atur
Ġg og
Ġn ana
Ġw ard
Ġbers i
Ġpr estasi
af t
ilang kan
enang kannya
Ġser angkaian
Ġst ein
Ġas umsi
Ġmengg antinya
emp arkan
Ġnya la
Ġpend atang
ers h
Ġkut embak
Ġ6 5
Ġpenc egahan
Ġer ica
ro it
akt ing
iaya i
Ġmelepas nya
Ġfot ografer
Ġkang en
Ġmemperl uas
Ġfranc es
Ġmewujud kan
Ġshag gy
Ġrongs okan
Ġberhar ihari
Ġkeperl uan
j ukan
j ikan
n ell
s ide
Ġt oby
Ġb oris
Ġke jaya
Ġper imeter
Ġc ipta
ek er
Ġmemb unyikan
Ġr in
Ġmer en
Ġg ard
Ġf eng
os ongkan
Ġker ang
Ġpemb uluh
Ġthe od
ill es
ig ai
Ġar lo
Ġah a
Ġbawah nya
Ġpagi pagi
Ġmenik am
Ġterbaik nya
Ġbarang mu
Ġbarang ku
Ġterp ec
Ġeks ped
Ġditu r
Ġbertanggung jawab
war e
Ġdoc tor
Ġmembahas nya
Ġbersy arat
Ġlor enzo
Ġpenampil anku
Ġmemant au
Ġmembeb askannya
Ġmenengg elam
Ġpenungg ang
b ell
k n
Ġdi e
id ay
is elle
Ġg ai
amb angan
Ġmenc olok
Ġberm ata
Ġmin us
Ġcer utu
Ġpun ah
Ġit s
umb er
Ġang us
Ġmet ro
Ġev en
ink le
Ġpar it
Ġmom o
Ġkemampuan ku
Ġmenahan mu
Ġseng sara
Ġche er
Ġingatan ku
Ġhamb urger
Ġresep si
Ġshaw n
Ġadr ian
Ġparas it
Ġpier ce
Ġhind ari
Ġwhist ler
Ġyaya san
Ġphant om
4 4
b egitu
h il
Ġl uang
Ġmel ambat
Ġmel ainkan
Ġpen olakan
angg akan
Ġth ree
Ġberp ihak
Ġpel ari
Ġman ja
Ġas uh
ev olusi
Ġwh eel
Ġtim nya
Ġkut anya
Ġangg ot
Ġdet roit
Ġide al
Ġsal on
Ġtujuan ku
Ġmad ame
amin asi
Ġcok e
Ġrekan re
Ġmengus ulkan
Ġlus in
Ġrand all
Ġpribad iku
Ġbrend an
c ara
m obil
n d
Ġm im
Ġm ogok
Ġb og
em ua
Ġdi angkat
Ġmemb as
Ġg und
Ġap likasi
eg ar
Ġmenc er
Ġmengh ela
Ġch op
Ġch erry
Ġsen ya
Ġters edak
Ġsenang nya
Ġorangorang ku
Ġmar co
Ġde e
Ġte ga
Ġer n
Ġnat h
Ġmengingin kanku
Ġq ing
Ġhy brid
Ġwas n
Ġmemaaf kanku
Ġday ung
hawatir kan
Ġimaj in
Ġkepem impin
Ġkekan akkan
Ġshakespe are
z an
id o
Ġber ry
itu s
eng er
Ġsek rup
Ġseb elas
Ġses ed
Ġjangan lah
Ġch ase
Ġv aks
Ġkan akkan
Ġberd o
Ġbr enda
Ġsh ock
Ġput ing
und uran
Ġid emu
Ġmengenal imu
Ġkuc intai
Ġbo x
Ġsm p
Ġkeingin annya
Ġmerek omendasikan
Ġkac amat
Ġbant ulah
Ġmembelikan mu
Ġmic ah
Ġparas ut
Ġranc angan
Ġpeneg ak
Ġmenid uri
Ġunic orn
Ġpengint aian
2 3
Ġ ach
Ġs adis
at t
Ġdi f
Ġl aksanakan
Ġmem otret
or eng
or ia
ol os
emb us
Ġf iksi
om on
ub er
Ġhe ar
Ġi ook
op her
Ġkub ayar
re en
Ġdih adapan
Ġmelawan mu
Ġdon ny
Ġmc queen
Ġdin as
Ġmew ar
Ġcincin nya
Ġamb ang
Ġmendekat inya
Ġcew e
Ġcap tain
Ġgig imu
Ġdisel uruh
Ġpai ge
Ġgant eng
Ġhud son
Ġkekej aman
t unggu
Ġm l
Ġm ika
ah ter
Ġh isap
Ġber akting
Ġmeng angkut
Ġmemb ual
Ġr og
Ġmer engek
ud ukan
Ġbis u
Ġbag inda
Ġses egera
Ġdis engaja
Ġth orn
le ans
Ġbr ick
Ġdit em
ug u
emp el
Ġgr ey
Ġcl ara
Ġz ero
ov asi
Ġkor oner
Ġbal kon
Ġco urt
Ġlok asinya
Ġpengh ancuran
Ġgar rett
Ġtekn isi
Ġapartemen ku
Ġgerb ong
ou id
Ġcal eb
Ġhand al
Ġlis ensi
Ġmcc l
Ġsha un
Ġcelan amu
omend asi
Ġpelat uk
Ġberman faat
Ġteles kop
Ġbef ore
d es
h ol
h art
m s
r omi
s eorang
Ġm eb
Ġd angkal
in v
Ġp ah
Ġber is
Ġke enam
Ġad aiah
Ġmemb esar
Ġmemb enarkan
ant ina
Ġmeny ew
Ġbert el
Ġdis ampaikan
Ġken aikan
Ġbar eng
Ġv aughn
Ġman ager
usah akan
Ġfr odo
Ġpers enjata
Ġsec ret
Ġcl aus
ers t
Ġben er
Ġmenel iti
Ġmelalu inya
Ġdon e
Ġsk r
st ik
Ġnew s
Ġmenyesal inya
Ġpengh uni
Ġmenjauh i
Ġcob acoba
Ġkekasih mu
Ġef isi
Ġhaw k
Ġsho uld
Ġhadapan ku
Ġmej aku
Ġrey nold
Ġdiset ujui
Ġmemberkat imu
p unya
p ohon
s ton
u ja
Ġm egah
Ġk umbang
er ap
Ġp uji
Ġl on
Ġl ann
Ġr oth
Ġmer k
Ġn ut
Ġmel an
Ġsi x
ic ia
Ġkem ur
Ġdis uruh
ew atkan
Ġv et
Ġberk orban
Ġdit r
Ġkut angani
Ġbantuan nya
Ġres er
Ġdic eritakan
Ġpakai anku
Ġbon es
Ġrem ote
Ġsing le
Ġpenyel esai
Ġmenanyakan nya
Ġlidah mu
Ġcy rus
Ġusi aku
Ġstadi on
Ġperson il
Ġserv ice
h arus
i or
k embali
Ġmeng eja
Ġmemb i
Ġr angkaian
ic al
Ġbert ahun
and era
ter h
Ġkeb elakang
Ġst uart
ug at
Ġmenya jikan
Ġbl og
omb ia
Ġdic oba
Ġperintah mu
Ġbad anmu
Ġpasukan mu
ann on
ph ia
Ġsinyal nya
Ġimpian ku
Ġmemel ihara
rib usi
Ġpanc i
Ġshif t
Ġlimb ah
Ġibuk ota
Ġditur unkan
h ana
s s
y n
Ġ ira
Ġ ej
Ġs ide
er et
ap annya
Ġh ua
Ġl ulusan
Ġin n
Ġber adaptasi
Ġc af
Ġc ec
Ġg one
Ġf ield
Ġmenjadi kanmu
ist a
ec ti
Ġbagian mu
Ġkantor mu
eran si
Ġul urkan
Ġtakdir ku
Ġeli as
Ġhay es
Ġtum or
Ġpelat uknya
kl usif
Ġengg ak
lang it
Ġkecuriga an
adel phia
Ġperwakil an
f or
t elah
Ġk iran
Ġd uka
Ġb ilik
Ġter isi
Ġr int
Ġn ora
et sa
Ġtem a
Ġkar ate
Ġket ert
Ġch ester
Ġku anggap
Ġman iak
Ġbr asil
Ġist an
ffff apa
Ġdid engar
Ġkn ock
Ġhy ung
Ġpenyel undup
Ġsan alah
Ġpendek ar
Ġhamil ton
Ġmengundang ku
lat ed
Ġsenjat aku
Ġgur umu
Ġkatakat amu
Ġcop y
Ġenter prise
Ġmenghir up
Ġkean ehan
Ġperkeb unan
l ad
m ons
Ġp api
Ġp ony
Ġmen ular
Ġj ena
Ġmem ulihkan
us inya
per caya
aw ang
Ġmenyer ap
Ġbu ff
Ġcr ane
Ġsw at
Ġaj aran
Ġdaftar nya
Ġbak teri
Ġrup a
Ġdev on
Ġingatan nya
Ġform ula
Ġduni aku
Ġfos ter
Ġkanakkan ak
0 8
c ari
m und
Ġ aib
Ġc ort
Ġn ilainya
ai u
ant asi
Ġf elix
ep r
aks ir
Ġket enaran
uc hi
ind ari
Ġberp el
Ġpemb erh
Ġmemper kuat
Ġpers ia
Ġah em
ack er
Ġkehilangan nya
Ġto ur
Ġab d
Ġterh itung
Ġbe eth
of t
Ġot to
if ikasi
Ġarah ku
Ġstr at
inj au
Ġor leans
qu ila
Ġmendukung mu
Ġbarb ar
Ġdisk on
Ġmake up
Ġjanj imu
Ġmengam uk
Ġpenerima an
Ġmount ain
Ġscot ch
Ġinten s
Ġjern ih
Ġbeeth oven
f ly
m ine
Ġt ower
Ġb aku
Ġp itt
Ġmen s
Ġse on
Ġh enti
Ġmem enj
Ġper amal
ag an
akan mu
Ġmeny is
ub e
Ġperl akukan
Ġsh ake
Ġpol os
Ġel ev
of on
Ġmemilih mu
Ġbau er
Ġboy ka
aaf kan
Ġphil adelphia
Ġhill s
Ġbrad dock
Ġril eks
Ġarg ent
Ġandre a
Ġstep han
Ġperencana an
Ġinstr umen
Ġrer untuhan
Ġwew enang
Ġsesuk amu
Ġeksped isi
Ġmewar isi
f y
Ġd oyle
as isa
or asi
Ġc um
Ġg ut
Ġo ven
Ġmel uc
Ġses ak
tu g
Ġterl intas
Ġch ance
Ġpas tilah
Ġbur n
Ġmari o
Ġdil aksanakan
Ġid eku
ry n
Ġz a
Ġmis il
if ikan
Ġsetengah nya
Ġkurang nya
Ġmart abat
Ġmengurus i
Ġrah im
Ġminggir lah
Ġperut mu
eluar ga
Ġmenyemb ah
Ġduni amu
Ġmengulang i
Ġgro up
Ġcamb uk
Ġmembalik kan
Ġdiaw asi
Ġfring e
Ġresik onya
Ġm ung
Ġs lo
Ġd ent
Ġd ekor
Ġdi ak
Ġdi xon
Ġmen andat
Ġmem uat
Ġmeng ambang
Ġf ai
om agnet
Ġdim aafkan
Ġpel ec
Ġpel uit
Ġsep adan
Ġpet anya
Ġpan ama
Ġhat ihatilah
Ġkl on
Ġlo e
Ġun sur
Ġdon nie
Ġmendeng us
Ġsk etsa
Ġnik ki
Ġir ama
Ġros si
Ġmenahan ku
Ġrich ie
Ġbarangbarang mu
Ġhidung ku
Ġmenurun i
Ġgab ungan
Ġchrist ine
Ġsak ti
Ġmempr oduksi
Ġcuc uku
Ġperhati anmu
Ġvick y
Ġtingg inya
Ġsb g
Ġpemul ihan
Ġperatur annya
Ġd m
Ġaku akan
el ok
Ġl ara
Ġl ng
Ġmem arah
Ġmeng gabungkan
ur y
Ġr eli
Ġg ates
adi e
ali fikasi
alam anya
Ġpen urunan
Ġal ison
Ġberp art
Ġman ik
Ġmengg ul
Ġdil etakkan
Ġam ster
Ġdiper oleh
Ġperg inya
Ġmil an
Ġalasan ku
if e
Ġstr oke
Ġmenyerang ku
Ġali as
Ġsm ur
Ġsadar lah
Ġsumb angan
Ġlil ith
Ġpink y
Ġusi amu
Ġphill ip
Ġtorn ado
Ġs it
Ġd uan
Ġj anet
Ġmem ak
Ġke y
Ġmel ekat
Ġsek etika
Ġmeny unt
Ġf ebr
Ġat h
ian nya
Ġmau rice
Ġch in
Ġa aku
Ġser p
Ġpem akan
Ġpem ilu
Ġmengg ag
Ġdit akuti
Ġre ady
Ġsal es
Ġot opsi
Ġup ah
Ġes c
Ġev ans
iz at
Ġsis asisa
Ġpelac akan
Ġkeputus anku
Ġtaruh annya
aii y
Ġwis ata
Ġsepak bola
Ġmeragukan nya
Ġsign ifikan
Ġven us
mus uh
Ġvent ilasi
kal au
Ġditaw arkan
Ġkrish na
g ap
p ie
Ġm uj
Ġm angsa
Ġt usukan
Ġy osh
Ġl iter
id ih
Ġper sa
ir o
ek e
um uran
Ġket erangan
Ġmalam mu
Ġbur u
Ġtr us
Ġfr an
Ġcl iff
Ġ4 9
Ġkum ar
Ġwar ri
Ġdig anggu
Ġbad annya
Ġdo or
Ġpal mer
Ġpohon pohon
ho u
Ġmerubah nya
Ġteling amu
uduk i
Ġbub ur
Ġkeberada annya
Ġkart un
sil akan
Ġprinc e
Ġlut her
Ġveget arian
Ġreynold s
Ġamster dam
b esar
t z
w h
w ick
en ie
Ġh ormon
Ġmeng eb
Ġw r
Ġw ort
Ġf arm
Ġmenc el
Ġmendapat i
ind as
Ġal tar
Ġi agi
Ġye e
Ġst acy
Ġman faat
Ġberd amai
ell er
Ġambil ah
Ġar cher
Ġhebat nya
Ġe asy
Ġant arkan
Ġradi us
Ġhy uga
Ġcap ua
Ġmenyimp ang
Ġseny uman
Ġingatan mu
ye ah
Ġchrist opher
Ġmembebaskan mu
Ġmerekam nya
Ġlapor annya
Ġbun ker
Ġtri ad
Ġnyam uk
Ġbroad way
Ġdino zzo
d ad
o ul
Ġk t
Ġs pa
in us
Ġp isa
Ġber edar
ari c
im o
Ġg enc
Ġg ina
Ġn ational
Ġmend ahulu
ff in
Ġdit erb
Ġmu g
Ġpes iar
Ġar ya
Ġme et
Ġkat hy
Ġbung anya
Ġkek al
eks ual
Ġterp asang
Ġdon or
Ġdon ovan
Ġrek am
Ġali bi
sh ah
anding annya
Ġpendapat ku
Ġell is
Ġsens asi
Ġprot ein
Ġrig gs
Ġpier re
ken apa
Ġtink er
Ġmentr aktir
Ġdiken akan
Ġgann icus
Ġsesed erhana
Ġpersenjata an
Ġ ice
Ġm amp
Ġs le
at uhan
Ġmen antikan
Ġl az
Ġj em
Ġj angg
Ġj engkel
Ġke v
ari um
Ġo uch
eka yasa
Ġmeny ir
ed ahan
ep uk
Ġkep ul
Ġch amb
Ġv isa
Ġser akah
ump ahan
Ġbe i
Ġkesalah annya
ord s
Ġsim ran
Ġfak tor
Ġfed erasi
Ġkontrak tor
Ġmengancam ku
Ġsoph ia
Ġkorup si
Ġcir c
Ġclo ud
Ġketid aks
Ġswe ater
Ġmenod ongkan
Ġjij ik
Ġkekanakkan akan
Ġmenandat anganinya
4 2
c ott
ar in
Ġp aha
ap s
Ġdi ucapkan
Ġl ajang
Ġber empat
Ġber itanya
Ġke aman
Ġter indah
Ġmeny angkut
Ġterb awa
Ġpem otong
Ġmus nah
Ġlang ley
Ġagen si
Ġpat ch
Ġlet akan
Ġbad shah
Ġkad o
Ġmerindukan ku
Ġbentuk nya
Ġtarget nya
Ġpip i
Ġpenis ku
Ġgur uku
Ġkatakat anya
Ġbow ling
Ġlonc at
Ġdemons trasi
Ġkebangk itan
p ak
in es
un ch
Ġmen uruti
Ġh w
Ġc uba
alu i
Ġdatang i
Ġket ahu
ip notis
Ġberk elas
Ġbur uan
Ġsh im
Ġtr ue
Ġso ul
Ġid entifikasi
Ġmenyer bu
Ġmil ton
Ġbl aine
Ġcantik nya
Ġberuntung nya
Ġsy nc
Ġbokong nya
Ġcab ut
Ġtal on
Ġlau gh
Ġlag ul
Ġsut ra
Ġcelan aku
bers ih
Ġdial og
abung a
Ġbeau tif
Ġsquar e
l inya
Ġm ona
Ġt isu
Ġh ugo
is co
Ġmem anggang
Ġr ayakan
Ġmer ry
Ġg k
eb o
Ġ, ,
ab er
Ġf ull
aya l
Ġmengh in
Ġser u
Ġsej uta
Ġben nett
Ġkl ip
Ġcr ist
st al
Ġmenyebut ku
organ isir
Ġdikirim kan
Ġberputar putar
emar y
Ġgab ung
Ġrad ikal
Ġtangk apan
Ġmitch ell
Ġgw en
Ġkesuka anmu
Ġpembers ihan
Ġdaw son
Ġungg ul
Ġmaks imum
Ġpisa unya
f in
g om
h is
h ari
j id
m ad
Ġm ingg
Ġt ia
Ġmen umb
Ġsa c
Ġr iz
ul e
Ġn sa
uat an
ant ara
Ġmengh angat
uc kin
Ġterb uang
Ġker am
Ġth ese
Ġas alkan
Ġas osiasi
Ġpol andia
Ġdar win
Ġkos mos
Ġmenikah imu
engk ok
Ġbir kh
Ġbo oth
Ġditu jukan
Ġpop e
Ġmenelpon nya
Ġlangit langit
Ġtand anya
Ġberper an
mel akukan
Ġhor or
Ġbersel ancar
Ġspir itual
Ġpelec ehan
c ome
k eb
z im
Ġm iring
Ġs ia
Ġs st
al on
Ġdi an
Ġmen antu
ad ik
Ġy um
Ġkau tahu
Ġj ik
es aan
ud ung
Ġw en
Ġsel angkah
Ġsel ebr
Ġf ong
Ġbanyak nya
Ġch it
Ġst orm
Ġdib aca
Ġpem icu
Ġkeh ebatan
art s
Ġsh ell
Ġberl agak
Ġbay imu
Ġen erg
Ġre kanmu
Ġre ferensi
Ġger mo
Ġpilih annya
Ġpos t
Ġsist er
ens asi
Ġlangkah mu
Ġcob b
Ġbangk ai
Ġsent er
Ġsent im
Ġmenyemb uh
Ġbec ca
enyap kan
Ġselam alamanya
Ġdeal er
Ġhugh es
uger ah
Ġbirkh off
3 8
r anya
Ġk ings
Ġd ut
Ġak ira
em ing
Ġmen e
ik ul
ung ut
Ġmer ampas
Ġmel et
alam a
Ġseb agus
int u
Ġf ern
Ġmend idih
Ġpeng acau
Ġperl akuan
Ġkeh angat
Ġmar vin
Ġre gi
Ġmay day
Ġ9 5
Ġpistol ku
Ġpengh ancur
Ġpu ing
Ġros emary
Ġten ag
Ġne ur
Ġrutin itas
Ġmint alah
Ġmenghak imi
Ġadminist rasi
Ġclar ence
e al
u ya
z ona
ak ku
Ġh adap
il eri
Ġc u
Ġg es
Ġpen n
Ġch ev
Ġch ef
ter ima
Ġv id
Ġv ital
Ġdim ak
Ġst ory
Ġkan cing
Ġkur c
Ġters el
Ġsu ite
ill o
Ġdip asang
Ġkut erima
Ġmil k
Ġte quila
Ġgo es
Ġdig ital
Ġmart ini
Ġdin asti
Ġx iang
Ġlib erty
Ġluk amu
Ġhid rogen
Ġoliv e
Ġmengak ibatkan
iti ga
Ġimpian mu
empur naan
Ġfis her
Ġport land
ely n
Ġnan ny
Ġlob ster
Ġmemecah kannya
Ġgenc atan
b urkan
j in
n ab
r utan
Ġs ala
Ġt ingkatan
ar aku
Ġp ura
em ur
am eng
Ġdi agn
Ġj elly
Ġc awan
es ag
ant e
Ġf org
aks on
Ġpert imbangan
Ġku g
Ġku enya
Ġku gunakan
Ġbesar mu
Ġmengg ar
Ġdit anya
Ġpenj uru
Ġdar ling
Ġsaud i
Ġberj aga
Ġel der
Ġkehidup annya
Ġperempuan ku
Ġstr ess
Ġx ray
Ġmenungg ang
Ġval ley
Ġkung fu
Ġmenghancur kanmu
mur id
Ġmeneman imu
Ġjah itan
Ġelektr omagnet
Ġnegar amu
Ġlant as
Ġsamud era
Ġakunt an
Ġbail ey
Ġwiz ard
Ġketahu ilah
Ġregi onal
l ai
Ġt ech
at ah
Ġy ell
Ġl amamu
Ġmem usnahkan
Ġper apian
Ġsa yat
Ġmemb antai
Ġr iv
Ġn aksir
ic t
Ġdis uatu
Ġkal ender
Ġker bau
Ġser am
op ong
Ġsh erry
Ġmin imal
Ġpers ik
Ġme an
Ġpend engaran
Ġkek ebalan
Ġger ry
Ġab e
Ġbuk uku
Ġbal et
Ġgo ku
Ġterd eteksi
Ġed en
Ġstr ike
Ġterg esag
Ġbank ir
Ġta at
Ġvide onya
Ġhand s
Ġmenyingkir kannya
tak uler
Ġkoper nya
Ġmass al
Ġputer iku
Ġdos ad
Ġparam ed
h rer
r ai
s esan
Ġs adie
Ġt ate
Ġb imb
al us
Ġh ab
is k
Ġmem alsukan
or o
eng s
Ġc ant
ana i
Ġg unt
Ġn emo
Ġi ebih
Ġser tifikat
Ġters ambung
Ġgr am
Ġny anyi
Ġkum uh
Ġmil y
Ġel egan
Ġel vis
Ġbal tim
Ġberg el
Ġcat at
Ġbir th
Ġterhadap mu
ott o
Ġmc kin
Ġta ejoon
Ġdij ebak
Ġmengag et
Ġmenganggap ku
Ġpelan kan
Ġlistrik nya
Ġkekasih nya
Ġbarangbarang ku
Ġmeman ipulasi
Ġmembac akan
Ġperkata anku
Ġfer r
Ġharris on
Ġgro und
Ġmeneg askan
Ġdinam akan
undup kan
Ġnegar aku
Ġaug ust
Ġberpac aran
Ġberpart isipasi
7 0
t v
Ġb il
Ġp itch
Ġdi urus
ad uanya
Ġh ama
Ġber ang
Ġmem enggal
Ġmeng ena
Ġr ug
Ġg osok
Ġn asa
Ġf ase
Ġhe on
Ġmember ontak
ew el
Ġth er
Ġsh ort
Ġwan itanya
Ġmenyel idik
Ġped ul
Ġcl ose
Ġpend iri
Ġdih asilkan
Ġterd alam
Ġed isi
Ġpemer asan
Ġeks klusif
Ġbib iku
Ġmom ent
Ġkus uruh
Ġpendapat an
Ġwas p
Ġmont gom
Ġari zona
Ġjac qu
bet ul
Ġnath aniel
Ġpemberh entian
Ġwort el
Ġtergesag esa
Ġbaltim ore
Ġmontgom ery
b agus
p ektif
er ie
Ġd op
Ġb unda
Ġber tiup
Ġdan cing
Ġc id
et es
Ġsek elas
Ġf it
Ġsed ekat
angk alnya
Ġmengh ambat
Ġpeng ujian
Ġset ara
si ve
Ġsh ik
Ġsh ank
Ġsh ue
Ġsep ed
Ġam elia
Ġkapal ku
Ġprib adinya
Ġwe aver
Ġsand ra
Ġkus uka
Ġvan essa
Ġwith out
Ġteroris me
ron o
Ġmempr ediksi
Ġinves tor
Ġlamb ang
anta inya
Ġsas ha
Ġpiram ida
Ġkesuk sesan
b ang
p es
ak au
Ġp incang
Ġdi akui
Ġl g
id entifikasi
Ġmeng es
Ġc ebol
Ġr ita
Ġr oc
Ġsel ar
Ġkel ulusan
Ġal mar
Ġmin eral
Ġar ri
Ġmes um
Ġseg itiga
Ġmar g
Ġkat ara
Ġ4 4
Ġz i
Ġmenyerang nya
Ġje ong
Ġba o
Ġjag ajaga
Ġmurid murid
Ġlurus kan
meng h
ye on
Ġpid ana
Ġport al
Ġfos il
Ġmengep ung
Ġjor ok
Ġspek takuler
Ġpengemb ara
Ġmengenc ani
Ġspons or
ikm atan
tuj uh
Ġtheod ore
Ġpenyelesai an
Ġkehangat an
f uck
j ol
an na
Ġm anj
Ġm ight
Ġb idik
en i
en ingan
Ġse usi
Ġmeng apung
ir ahkan
Ġmemb ayang
Ġn ash
Ġbers ejarah
Ġch el
ist is
Ġkan annya
Ġdib antu
Ġpem ancar
Ġkab ari
Ġcar d
Ġmenyer t
Ġsur am
Ġli zzie
Ġmis inya
Ġkol ombia
Ġsist im
Ġlemb aran
Ġkemungkin annya
Ġdad aku
Ġorgan isme
Ġdisk o
Ġmcc art
Ġru fus
Ġcut e
Ġbangs al
Ġts un
Ġbac akan
Ġhop e
Ġjurn alis
Ġkuant ar
Ġtrail er
Ġcamer on
Ġkurc aci
3 3
j ust
m ont
Ġs aks
Ġb one
al em
ir in
Ġc ell
Ġsem au
int ar
eg at
Ġkas im
Ġpert umpahan
Ġch ild
Ġpeng el
Ġi y
Ġbur g
Ġpes erta
Ġpers yar
ons umsi
Ġah linya
Ġbat uan
engk api
rak t
Ġpi ya
Ġterang sang
Ġpay udar
uda ya
Ġmengundang mu
Ġpenelit i
Ġmenjag aku
Ġucapan mu
Ġplay boy
Ġdiku burkan
Ġsug ar
inis ikan
Ġadrenal in
Ġmenyusah kan
Ġpenerj emah
Ġsubtit le
Ġquar ter
b ird
c ayakan
m il
s oo
Ġm os
Ġb ever
at s
is kin
us trasi
Ġsa ch
Ġmeng oceh
Ġc ul
Ġmemb iayai
Ġmer el
Ġg at
Ġmel uruskan
Ġsem aks
Ġseb utan
Ġmeny engat
Ġdalam dalam
om inasi
Ġtem po
ed o
Ġkem aluan
Ġbel ieve
Ġma e
Ġbi p
Ġv ery
Ġas ter
Ġbr az
Ġsiap siap
Ġtr uman
Ġnam e
Ġpun ja
Ġdip impin
Ġkr iket
Ġre ich
Ġperb ud
Ġmemilih nya
Ġterj adinya
Ġbisnis nya
Ġstr ong
Ġbas ement
Ġmembangun kanmu
Ġhol y
Ġbersih bersih
Ġstev ie
Ġgot ta
Ġmendekat lah
Ġduk un
Ġgig iku
Ġsamping nya
Ġtombol nya
Ġkit d
bes aran
Ġarch ie
Ġdiab aikan
Ġtog ether
Ġspar row
Ġalmar hum
Ġpersyar atan
d og
Ġb asi
al og
em uka
Ġy ud
Ġj ur
Ġke ith
Ġper iks
Ġmeng ucap
ul ap
Ġg av
aw ay
Ġhar per
Ġay uh
Ġf le
Ġf if
Ġmenc icipi
Ġdis entuh
Ġken n
Ġpeng us
Ġal aric
Ġker amaian
Ġbesar besaran
Ġmengg ang
Ġdik amar
Ġped esaan
Ġny atanya
Ġkom et
Ġkup astikan
Ġle gi
Ġre aktor
Ġkut unggu
Ġger ald
Ġart ileri
Ġanjing mu
Ġpul pen
of i
Ġnomor mu
Ġmengenal iku
Ġfl ip
Ġtembak au
men jadi
Ġkuh argai
Ġmenjel ang
sh in
Ġfir ma
Ġbicar amu
Ġrel awan
Ġangka angka
Ġden ise
Ġlengk et
Ġkarir ku
Ġdisek olah
Ġterob osan
Ġnar uto
Ġmembungk us
angs ungan
Ġmic ro
Ġsaudaras aud
Ġprinc ess
Ġindones ia
Ġwasp adalah
Ġbever ly
g ari
i ga
Ġd um
Ġb engkel
Ġl acak
Ġc art
Ġad mir
ing i
Ġmel on
ent uan
Ġya y
Ġap pa
eg or
Ġkel i
eh a
Ġdis ed
Ġpeng alam
Ġi e
Ġtel eg
ont an
Ġterk emuka
Ġminum annya
Ġz uko
ov ich
Ġ10 1
Ġkl akson
Ġkeku asa
Ġkurang i
Ġpres ident
oth ers
Ġtrans lated
Ġlog ika
Ġgood bye
Ġmemperlakukan mu
Ġdibelakang mu
Ġri way
Ġmenggel edah
Ġjun e
Ġpeman ah
Ġlamb ung
seb uah
endir ian
fle et
Ġranj au
Ġmerugi kan
Ġkeham ilan
Ġberdo alah
Ġberis iko
Ġpersa ingan
s ing
Ġs uck
Ġse a
Ġse ason
us a
Ġan ugerah
Ġmeng oper
on na
Ġya ah
Ġtent ukan
epat ah
Ġtel apak
Ġdik ur
Ġdik ejar
Ġbay ang
Ġpers pektif
Ġcar son
ich an
Ġdar ren
ffff k
Ġger ombolan
Ġpl as
Ġbal b
Ġdo akan
ongk ol
Ġmembangun nya
Ġkotak ota
Ġdam n
Ġgl ass
se i
zz i
Ġlind erman
Ġform al
Ġatl antik
Ġest ate
Ġmuk j
Ġdicur igai
Ġkepemimpin an
terh adap
b alik
l um
r or
u asan
Ġt iri
al ihan
Ġmen ugaskan
il ia
Ġc oy
Ġtah i
ab rak
int im
Ġbah t
Ġberb elok
Ġpeng as
Ġpeng embangan
ist r
Ġmakan anmu
Ġmemper panjang
auh an
Ġdik h
Ġfr ag
Ġdokter nya
Ġhilang kan
Ġon ce
Ġda ah
Ġtemb aga
Ġaj ukan
urit y
Ġba ek
bffff aku
Ġrel atif
let on
Ġsejen isnya
Ġmenab ung
Ġron ny
Ġhalus inasi
Ġpow ell
Ġark e
Ġmikr ofon
Ġspid erman
Ġkelew atan
Ġstew art
Ġcheer le
Ġelev ator
d ar
j uangkan
n ight
Ġ ilah
Ġ enc
Ġt ad
Ġdi uji
Ġh alam
Ġh ister
Ġj ig
Ġke es
Ġsa ingan
Ġmeny angkalnya
amp ung
ac on
ew et
Ġker ah
Ġman c
Ġsej at
ug e
ill i
Ġked u
Ġtert unda
Ġdr ake
Ġ5 2
Ġtim ku
Ġkr itik
Ġkek os
Ġkeber angkatan
Ġfil ip
Ġbisnis ku
st ar
Ġmenutup inya
Ġpengg anggu
Ġkulit mu
Ġkeputus annya
ipu ti
Ġmempel ai
Ġsanta ilah
Ġcre ek
Ġlight ning
Ġblu es
Ġmenanya i
Ġkosm ik
Ġlagul agu
l os
l asi
Ġh ana
Ġy uki
Ġl anc
Ġl ho
Ġin c
Ġmer ingk
ul at
Ġw ed
Ġw angi
Ġay at
ed akkan
Ġpen untut
any ang
Ġpeng an
Ġku asai
Ġkeb al
Ġmul an
Ġpel ay
Ġberk arat
ingin kannya
Ġsp e
Ġdar yl
Ġbu en
Ġpilih anku
Ġmusuh musuh
Ġpo jok
Ġbib imu
ongk os
Ġinter pol
Ġgl oria
Ġ18 0
Ġsuar as
Ġbetul betul
Ġell a
Ġmengad opsi
Ġtir uan
Ġpenutup an
Ġsha olin
Ġlus a
Ġlip stik
Ġpengacar anya
Ġshad ow
Ġdepos it
Ġpermasalah an
Ġkejaya an
Ġmelan ie
p al
ak ur
ak mu
Ġm oss
Ġk iki
Ġt uc
Ġb und
ar o
Ġl encan
Ġber angg
ay angi
ali on
et y
Ġseb anding
Ġsel idiki
Ġf us
Ġkel ler
Ġses at
Ġbers ep
Ġv ij
Ġst y
Ġst arl
Ġman faatkan
Ġkeh eningan
Ġberpikir lah
Ġtr ick
Ġdik hawatirkan
Ġfr ust
Ġbagian nya
Ġsp ontan
Ġ4 6
Ġsekolah mu
Ġbung abunga
Ġkum au
Ġbl oom
Ġbal ok
Ġpat ahkan
impi ade
Ġpe ach
Ġpengh asilan
sh i
Ġham mer
Ġ0 9
Ġmod al
Ġkeberuntungan mu
abil itasi
Ġau ro
Ġorg asme
Ġpanc ake
Ġdita b
Ġtunangan ku
Ġmengunjung inya
Ġbuj angan
Ġwasi at
Ġmengga irahkan
Ġcinder ella
Ġduan e
Ġfebr uari
Ġilah i
d as
f ncentury
r oy
s ay
s imu
w at
y de
Ġd as
Ġt ing
Ġb elah
Ġp angg
Ġdi ane
Ġj ati
Ġj ahan
Ġmeng uj
Ġr awat
ay i
Ġw adah
Ġsem amp
Ġmeny uap
Ġkel angsungan
ed s
Ġpen daft
Ġkem asi
oh a
Ġi akukan
ev elt
Ġkat up
Ġkup utuskan
Ġjawab anmu
Ġterp ikirkan
Ġterd ampar
Ġmenempat kanmu
Ġruangan nya
Ġburung burung
Ġ0 6
Ġdij amin
Ġmelapor kannya
bur gh
Ġmemilik imu
Ġbend ungan
Ġfis cher
Ġud aranya
Ġprov insi
Ġglen n
daft arkan
Ġmemutus kannya
Ġmengik atnya
Ġmili aran
Ġmembayang kannya
s c
t et
ar amu
Ġp und
Ġp epatah
ap asan
Ġj urusan
Ġper ab
Ġc itra
ek olah
Ġmemb lokir
Ġw ouid
aw isma
amp il
ot ika
end ong
Ġmenc akup
Ġpr amu
oh o
Ġbert epuk
Ġdis erahkan
ew ati
Ġpem otongan
Ġcer ewet
Ġkom er
Ġso on
Ġ5 1
Ġe arth
Ġant ena
Ġurus annya
Ġpres entasi
Ġhmm m
Ġmenempat kannya
Ġsw itch
Ġgug atan
Ġterc antik
ery l
Ġreb ekah
amer kan
Ġtap e
Ġkod ok
Ġcem askan
Ġpeluk is
Ġkudaku da
Ġler oy
Ġsni per
Ġmorn ing
Ġbirth day
Ġteleg ram
Ġsuaras uara
Ġpendaft aran
b in
g un
r od
Ġt uangkan
Ġp ey
Ġp ack
em on
am alkan
il ey
Ġper enang
Ġc over
ti ap
Ġg oa
Ġf ira
Ġlagi an
Ġch ih
anj ak
Ġi g
Ġkan e
Ġdib uru
benar benar
Ġtr oto
Ġdil anjutkan
Ġpet inju
Ġdip astikan
Ġkut ulis
Ġmal um
Ġsis inya
Ġpart y
Ġtengg ara
Ġrus uk
Ġmenyet uju
Ġet ika
Ġrahasi aku
Ġnob ody
Ġdaw n
Ġkew enangan
Ġsof ia
Ġwel come
Ġroos evelt
Ġsupern atural
Ġmenjeng uk
Ġmeleg akan
Ġmengena inya
Ġperbud akan
Ġadmir al
Ġvij ay
d uduk
k ec
l ay
Ġs inc
Ġt ung
Ġt umpah
Ġy ip
Ġl op
Ġl ost
uk tikan
Ġmeng osongkan
Ġc ecil
Ġr an
Ġr ombongan
Ġr endahan
es kannya
Ġg eli
ab asi
Ġkep ed
Ġbar el
Ġbi ola
Ġkes er
Ġpeng urus
Ġker angka
Ġberd iam
Ġol impiade
Ġpes anmu
Ġdil engkapi
Ġdik ar
Ġpend engar
Ġle ave
Ġfil os
Ġgo da
Ġhit s
Ġro om
Ġmenyeb rang
Ġhak hak
Ġrek omendasi
Ġcatatan nya
Ġmemegang mu
Ġmengant uk
Ġwah yu
Ġdij adwalkan
Ġperminta anmu
Ġsl ip
bur uk
Ġche eri
Ġkuper k
Ġperjanjian nya
Ġmendatang iku
Ġtanp aku
Ġtang o
pres ikan
Ġantusi as
Ġrint angan
Ġtroto ar
d ib
i asi
r ina
s ite
s tic
t entang
Ġb b
Ġb ach
en akan
ang e
ad d
Ġke i
Ġmeng andal
Ġc apai
ut akan
Ġg an
Ġn u
Ġsel ang
ed ulikan
ep end
Ġbel aka
Ġbes erta
Ġth o
Ġsh ep
Ġ3 000
Ġterk ecil
ju ga
Ġamer ican
Ġagen da
Ġinf ant
Ġmener apkan
Ġmon ey
Ġlist en
Ġmengab di
Ġstan ford
Ġkemati anku
Ġbh ai
Ġeng lish
Ġkand ungan
Ġshar p
Ġshar ma
Ġchar ley
Ġdai am
Ġmengijin kanku
Ġdumb led
Ġriway at
Ġmukj izat
Ġfira un
Ġmalum alu
s ar
t own
Ġs au
ar ch
Ġh ormati
Ġber evolusi
Ġke tig
us ter
eng e
Ġc omb
Ġter atas
Ġg n
Ġg ud
Ġn ing
Ġmel ec
Ġf em
Ġhe il
Ġpr a
Ġdir ek
Ġbeb atuan
Ġberd ekatan
Ġas pir
ie v
Ġtel er
Ġters impan
oc okan
Ġgr ac
Ġdr ew
Ġmenurut nya
Ġkej ang
Ġdih indari
Ġtanah nya
Ġun ion
Ġkasus mu
Ġmag ic
Ġtun awisma
Ġsay ur
Ġsepup umu
Ġpunggung mu
Ġevery body
likasi kan
Ġvik ing
Ġmeneman iku
sed ikit
Ġec ho
Ġmum my
Ġbersek olah
Ġmengkhianat iku
Ġmembanding kan
Ġpengus iran
Ġdumbled ore
c al
l en
r af
Ġ ongkos
Ġd ebat
el d
el s
Ġy us
or ok
Ġmer aj
ul ut
es on
aw n
Ġbaik mu
Ġf uckin
Ġken ikmatan
Ġbi as
Ġal one
Ġku ulangi
Ġkan sel
uj ilah
Ġsh an
Ġsh alu
Ġsh ashi
Ġdil acak
Ġmus ang
Ġmenyel a
Ġpers emb
ard s
Ġkeras ukan
una an
Ġwe enie
Ġfoto mu
Ġsis iku
he im
Ġus ir
Ġx ia
Ġtab el
Ġterc atat
Ġfo und
Ġmengganti kannya
Ġsalam ku
Ġcap e
Ġnark otika
Ġperbeda annya
Ġmont e
Ġjaket mu
Ġtanp anya
Ġfer ris
Ġhop per
Ġmemeluk mu
Ġdiperk osa
Ġmentr ansfer
Ġgill ian
Ġpud ing
Ġaver y
Ġsemaks emak
Ġkekos ongan
2 2
7 5
d apat
k ur
p lo
Ġd w
Ġd ahl
Ġb ara
am ura
Ġmen uangkan
Ġl p
Ġber ujung
il itas
Ġmeng uat
Ġmeng inspirasi
Ġc en
Ġter apis
unt uti
ara inya
Ġsel emb
Ġkar angan
af s
Ġkem auan
Ġdir ekam
Ġpeng eluar
ff er
Ġkec oa
Ġal a
Ġst ock
Ġsep ele
Ġcer i
ingk ai
Ġpers ek
Ġ5 000
Ġkek ec
Ġpl aza
Ġli am
mas alah
Ġev il
Ġsad arkan
Ġali ansi
he i
ef inisikan
eku ensinya
Ġketak ut
se a
Ġcas sie
Ġdad amu
Ġtab let
Ġta o
Ġmenganggap mu
Ġmmm m
Ġkuper ingatkan
amping kan
Ġjan ice
Ġeli jah
Ġdec lan
Ġvalent ino
Ġister imu
Ġseakan akan
Ġfam iliar
Ġpengambil an
Ġbeautif ul
Ġdimak amkan
Ġmenggar uk
k eluar
p em
Ġk ow
Ġk aga
Ġd s
Ġb intik
al k
Ġc ris
Ġmemb oc
ul lah
Ġtah untahun
Ġg ini
aw ari
Ġap akan
Ġmend obrak
ep t
Ġhe in
Ġkas ir
Ġkes ej
Ġal do
Ġa x
Ġberp as
Ġbr os
Ġbr others
art ment
Ġsh ut
Ġol y
Ġtamp ang
Ġpers onal
Ġcl yde
Ġkat o
Ġen ough
Ġbat alion
Ġger hana
Ġdid asarkan
Ġob l
Ġdih ajar
Ġed mund
aul t
Ġus ang
Ġir onis
Ġkend rick
Ġmenyalah kanku
Ġraj aku
Ġshe ila
Ġmenyayang inya
Ġmempr omosikan
Ġmenakut imu
Ġmengger am
Ġastron om
Ġmencamp ur
Ġdistr ib
Ġmuk amu
Ġberga ya
Ġswan n
Ġkapas itas
Ġmenggod aku
Ġpeneb usan
Ġabr aham
Ġmelun asi
Ġkutip an
Ġvaks in
Ġmccl ane
Ġvet eran
Ġkomer sial
p emb
z in
Ġ ess
Ġd uri
Ġd ust
Ġt uck
Ġt olak
Ġb od
Ġp m
it au
Ġl ung
Ġmem ikat
Ġmeng enang
Ġr asi
Ġr ani
Ġpen unda
Ġth a
Ġmenj eb
Ġas m
Ġsh ek
Ġberm usuhan
ingan kan
Ġsec urity
Ġtim bul
Ġsekitar mu
Ġsur ve
Ġgun a
Ġco ok
Ġmaj ulah
Ġho ff
Ġsus ie
Ġcon nie
Ġpi yama
Ġtiket nya
Ġcamp bell
Ġmengab aikannya
Ġbant alan
Ġadam s
Ġkembal inya
Ġmont ana
Ġdri ver
Ġcy b
Ġweb site
Ġdiken ali
Ġbamb i
edikasi kan
Ġmanusi awi
Ġdieks ekusi
Ġmelayan imu
Ġdisemb uhkan
Ġditr ansfer
Ġtsun ami
Ġmenyetuju inya
4 6
s ia
u x
y g
z ing
Ġs tick
Ġt aik
ar ui
in er
ap t
Ġaku r
Ġh emb
Ġh od
ag um
Ġter opong
ur ah
ti el
Ġr ide
ud ak
Ġn es
ini um
Ġmeny atu
Ġf ast
Ġkec urangan
Ġa aa
op ia
Ġst ella
Ġkur ungan
Ġtr aktor
Ġperm ais
ill er
Ġyo ga
Ġdik ota
Ġdih ari
Ġwell s
Ġdes kripsi
Ġkenc angkan
Ġhah aha
Ġtangg apan
he us
Ġhy o
Ġmengaw al
Ġ11 0
Ġsaran mu
Ġrich mond
Ġahh h
Ġmenghajar nya
Ġintel ek
Ġmemeluk ku
Ġcelan anya
Ġpenampil annya
Ġdikemb angkan
Ġrip ley
Ġkuant um
Ġchand ler
Ġinj il
Ġmenenggelam kan
Ġpramu gari
l em
r r
r ed
s iku
s yat
s ki
Ġ ons
Ġm ong
Ġk ubah
Ġp yo
Ġp bb
it ia
Ġh ui
Ġmeng ig
Ġc eng
Ġad l
im inasi
Ġr ekayasa
ul in
Ġn ang
eb oh
Ġw ick
Ġmas jid
Ġkel emb
Ġkali ber
Ġbi ologis
Ġpeng untit
Ġal um
Ġst ud
Ġmengg uncang
Ġtr ain
ch u
ingk irkan
Ġny eri
atuh kan
Ġar c
Ġterk urung
inc ible
Ġger gaji
Ġbe ast
untung annya
Ġge um
Ġmc donald
Ġseks ama
Ġpenjaga an
Ġimp as
Ġseng atan
Ġkir by
bur y
Ġtar zan
Ġpsik ologis
Ġtal k
Ġlau ghs
Ġastron omi
Ġpent agon
Ġprim itif
Ġperah unya
Ġmered ith
Ġargent ina
Ġmckin ley
Ġkenn edy
Ġkeli atan
Ġkees okan
9 0
b ia
j an
k el
l ov
m ak
r in
r aw
Ġt inj
Ġt aring
Ġb ast
Ġber jabat
Ġmemb ur
Ġr inci
Ġdeng er
Ġg uan
eg ori
asi akannya
Ġkep uasan
Ġch ur
Ġpeng angg
Ġterb elakang
Ġsh erman
unj ungi
ri en
Ġmat er
ingk eping
Ġind epend
Ġsec antik
Ġbawa an
ard t
aris kan
Ġbiar awan
Ġpenc erahan
Ġsemb rono
Ġcr ack
Ġmengel ab
Ġlel ang
Ġmah one
Ġmenempat i
Ġlay ang
Ġtumb uhan
ins ky
Ġkn ox
Ġmelupakan mu
Ġir ene
Ġta xi
Ġba x
Ġsimpan an
Ġsumber nya
Ġcor le
Ġna omi
Ġmelempar nya
Ġmenggel itik
van ia
Ġcle ar
Ġlen sa
Ġkaf ir
Ġdiad opsi
Ġtum it
Ġdal ton
Ġmenon jol
Ġimig ran
Ġmengul ur
Ġparamed is
Ġjahan am
2 6
8 6
s ayang
y anya
y up
Ġm ob
Ġs ubuh
Ġd atanya
Ġin tr
Ġmeng isinya
Ġr over
Ġr ingo
Ġg enggam
Ġsi g
ub arkan
Ġpen angkap
Ġpen inggalan
Ġkem arah
Ġbel gia
Ġal ab
Ġku urus
Ġye on
Ġst on
Ġst unt
Ġtr ish
Ġsu ap
Ġgadis nya
Ġdip isahkan
Ġtim mu
Ġdar ry
Ġhub ungkan
Ġsc i
Ġbir ok
Ġnat ur
Ġmet af
Ġge ologi
Ġkons isten
Ġkuh ajar
Ġkuharap kan
Ġkir inya
Ġment ol
Ġreb us
Ġdy nam
Ġmengid ap
Ġque ens
Ġpermain anmu
Ġgrim es
Ġberulang ulang
Ġdinam it
Ġbersek ongkol
Ġberkep ingkeping
Ġoptim is
Ġjol ly
Ġmewawanc arai
Ġmembal askan
Ġterpec ahkan
engs araan
Ġperiks alah
intim idasi
Ġpenunda an
r ess
r angi
Ġd enda
au x
Ġber upa
Ġter rence
Ġr az
Ġg inger
Ġn adi
Ġmel uangkan
Ġf ive
ati kanmu
ob ol
Ġpr ice
Ġdis es
Ġpikir mu
Ġas pek
Ġpem uja
Ġatas terhadap
Ġpes aing
Ġsep eser
Ġdik umpulkan
Ġpeny erg
Ġlap d
Ġjen sen
eran kan
Ġmerah asiakan
Ġmerah asiakannya
Ġgu ess
Ġalex andra
Ġkus elesaikan
Ġusah amu
Ġaf ter
acun an
Ġsant ana
Ġkeberuntungan ku
Ġtand at
Ġdiant aranya
Ġpenya d
Ġstar fleet
Ġmencegah nya
Ġcle o
Ġmej anya
Ġbun ny
Ġpow ers
Ġmaks imal
Ġbrid ge
Ġkip as
Ġramb o
Ġbren nan
Ġmengunc inya
inv estasi
Ġmamp us
Ġfrust asi
b ahkan
u v
Ġk pd
Ġs ilang
Ġs ard
ah ul
Ġp ia
Ġdi mu
Ġdi inginkannya
el ot
Ġh air
Ġh aven
apa inya
is ihan
et ser
emb alikan
ant ar
eg e
amb atan
anj angan
Ġker acunan
Ġmul us
Ġpemb angkit
Ġpes isir
Ġkab ir
Ġberc ahaya
iv ia
Ġcr aw
Ġtutup i
Ġtembak kan
Ġmemukul inya
Ġtanda i
Ġco ff
Ġmant era
ver si
Ġmengeluar kanku
Ġimp ul
Ġtab rak
Ġkisah nya
Ġsch u
Ġmill ie
Ġpenis mu
Ġaktif itas
Ġsol id
Ġmengub urnya
Ġdompet ku
Ġdiku asai
Ġcos ta
Ġfan atik
Ġdream s
mark et
Ġmengu tip
Ġkhal id
Ġloyal itas
Ġsper ma
Ġmung il
Ġcheerle ader
Ġcorle one
, '
3 2
d atang
g oo
o is
r it
am em
Ġse w
Ġy ur
Ġber alasan
Ġke ti
Ġter ompet
Ġr osa
eb us
per g
Ġseb arkan
Ġmeny ulit
Ġdis ewa
Ġberb aur
Ġal is
Ġst ack
Ġas in
Ġsh ah
Ġsh annon
Ġmencari kan
Ġmenya lin
Ġ5 6
Ġcar lo
Ġtim othy
Ġmenyer upai
Ġsekolah nya
Ġbe ep
Ġnomor ku
ort asi
Ġmet al
aksa an
ongk ok
Ġgl etser
Ġwas it
Ġqu int
Ġfavorit mu
Ġmalah an
Ġtw ist
Ġjud e
Ġperhati anku
Ġmencamp akkan
Ġkauk atakan
Ġmenghantu i
Ġlegend aris
Ġefisi en
Ġmemenj arakan
Ġchel sea
Ġbalb oa
Ġoly mp
Ġceng eng
Ġpengangg uran
c el
c ita
h ee
k om
Ġk ocok
Ġd ekati
Ġp om
Ġak e
em e
em asi
am es
el ai
Ġh ul
Ġber jaya
Ġmem andu
ir nya
Ġc anda
Ġr ic
Ġmer enggut
Ġg org
aw asan
Ġmend idik
af al
oh n
Ġkep unya
Ġmember eskannya
Ġkes op
Ġpeng endara
Ġsamp ul
Ġv atikan
Ġmenj ump
Ġpem indahan
Ġdit unjuk
Ġwanita wanita
Ġkap s
Ġgr afik
Ġfr eak
Ġseg itu
Ġpend iam
Ġit em
Ġz ait
Ġbat unya
Ġng el
Ġmemilih ku
Ġtek ad
Ġemas nya
Ġsaran ku
Ġpertunjukan nya
Ġwat er
Ġly le
Ġdu el
Ġberistirahat lah
Ġmenculik nya
Ġmenyamb ar
ket ika
Ġmick y
Ġvol ume
Ġmam alia
Ġmengeks presikan
Ġrevolusi oner
Ġyak ini
egr itas
Ġukur annya
Ġbour ne
Ġtitan ic
Ġemm ett
Ġpersemb ahan
k ov
Ġb ada
Ġp arl
Ġse al
Ġse ok
us un
on o
Ġmemb atasi
Ġg oy
et e
Ġhar um
Ġf urn
ot or
Ġkel apa
Ġmengh erankan
Ġpert andingannya
Ġmenem p
Ġpem alas
Ġmengg oyang
Ġkur a
Ġatas anmu
Ġol lie
Ġdit endang
Ġtr ib
av i
Ġkub awakan
Ġsp ort
Ġpend orong
Ġkat egori
Ġneg aranya
Ġkup el
Ġkup egang
Ġre aks
Ġkej ut
Ġjack y
Ġcr ash
Ġbo ok
Ġdah syat
Ġmerind ing
Ġsus hi
Ġpang ku
Ġu fo
Ġreal istis
pl antasi
Ġgul ung
Ġlidah nya
Ġai goo
Ġdiad ili
Ġparan ormal
Ġkonst itusi
Ġstat istik
Ġgob lok
Ġbord il
Ġmenerj emahkan
Ġkard inal
Ġstrat eg
Ġwarri or
Ġbax ter
3 7
m akan
s ik
Ġm ap
it idak
kan t
Ġy ing
Ġl oc
ek uk
Ġr ama
Ġg engg
Ġmel emah
Ġw orm
ent in
Ġf inan
ob el
kin son
ep ak
Ġpr oto
Ġpert aruhkan
ist e
Ġker ip
Ġdim alam
Ġberk asnya
Ġbol os
Ġmengambil kan
Ġsen ja
Ġsej uk
ons on
Ġel ec
Ġlok i
Ġfor ever
Ġbau mu
Ġlab irin
Ġmart ine
Ġcas tiel
Ġkomputer nya
Ġow n
Ġmendorong ku
Ġcor a
Ġly nn
Ġmenggangg unya
Ġidentitas nya
Ġkarir mu
Ġmimp inya
Ġmembelikan nya
Ġfell as
Ġcolor ado
Ġschu ester
c orn
d it
d ua
d ale
r ek
s ampai
v ers
em ari
Ġl ent
Ġl angk
Ġl ulu
Ġper ubah
Ġdan s
Ġg au
Ġg aul
Ġmel enyapkan
eb a
eb er
et ulnya
Ġw int
Ġbag h
ent a
Ġhar ley
Ġseb etulnya
Ġsel sel
Ġses orang
any on
Ġkes engsaraan
Ġyakin lah
Ġsp ot
Ġcar m
Ġbl ock
Ġberg um
Ġpat ty
ha el
Ġsk ema
Ġterj emahan
Ġmo ose
Ġdam ien
Ġjas mine
Ġcal vin
Ġbarangbarang nya
Ġfe ed
Ġdu it
Ġpandangan ku
Ġmont y
Ġcy ril
cr um
Ġest her
Ġmekan isme
Ġfree ze
Ġabb as
Ġkin erja
Ġvit amin
Ġbatub ara
Ġsuc re
Ġungk apan
Ġspeak er
Ġpatri ot
Ġberangg apan
plo itasi
u id
Ġs ake
al y
Ġl ancang
Ġber investasi
Ġj eda
ag ne
Ġc ic
ek arang
Ġad d
Ġmemb ekukan
Ġr usty
ent r
om s
om or
os eksual
Ġhe eh
Ġmengh ap
Ġanak in
anj at
Ġberp ura
op eng
ip an
Ġsh al
ill ian
Ġdil emparkan
Ġpet erson
Ġny ony
eri fikasi
man is
Ġtim ah
eli at
Ġperg es
Ġel it
Ġdid apatkan
est o
Ġmal one
Ġq i
Ġmusuh ku
Ġtemb us
Ġmad rid
Ġsuper market
Ġpenyel idik
Ġperj am
Ġdij anjikan
Ġche ung
Ġfin ish
Ġpenamp akan
Ġmurid ku
wal ker
Ġmemperk irakan
Ġdev il
Ġberbaring lah
Ġcua c
pl orasi
Ġmcc all
Ġmengusir nya
Ġrobin son
Ġnaf kah
Ġmencamp uri
Ġrh ett
Ġsas tra
Ġpribad imu
Ġsylv ester
Ġori on
Ġcah ayanya
Ġmenag ih
Ġsenya wa
Ġshank ar
Ġaster oid
Ġlop ez
2 8
h ta
p am
r ag
r ac
r ani
Ġm p
Ġm ove
Ġk anji
Ġs anc
kan tor
ad es
el or
Ġh awa
Ġl j
Ġl af
Ġj ih
Ġmeng uap
Ġc iri
Ġad i
Ġad u
Ġad v
Ġr onald
Ġmer ingankan
Ġg arden
Ġw ast
ara f
Ġbi ak
Ġch eng
Ġkes emb
Ġpas tur
Ġset etes
Ġv ip
Ġv ern
Ġberp end
Ġye ar
Ġkeb udaya
Ġmenj angkau
Ġser at
emp ah
Ġdip utar
Ġmar nie
Ġpos e
Ġpos isiku
Ġdic uci
Ġmay be
ert o
Ġterg oda
Ġbo at
enj atai
Ġtip s
Ġka oru
Ġkn ight
Ġbut ch
Ġunit ed
Ġmenatap nya
Ġchrist ina
Ġmenab r
Ġgilir annya
Ġwho ohoo
Ġln v
Ġcle v
Ġbac alah
Ġkai ian
Ġkrypton ite
Ġmempers embahkan
Ġsandi wara
Ġarlo ji
8 00
g le
y er
Ġs apa
Ġs ungk
Ġt art
Ġse ingat
Ġj ed
Ġmeng untit
Ġmemb engkak
et is
Ġw i
Ġsek eras
up at
Ġf ax
Ġkar ma
Ġpen ak
Ġberb aik
Ġch ak
Ġkec emasan
ew askan
Ġv lad
Ġe z
Ġdiper malukan
Ġkomp ensasi
Ġmur ka
Ġwill is
Ġmenghilang kannya
Ġterg uncang
Ġpengh ianat
Ġgen ev
Ġpohon nya
Ġsim ulasi
Ġkus angka
Ġgal on
Ġbaw ahan
effff aku
Ġcarol ina
Ġmengejutkan ku
Ġmelemparkan nya
Ġbibir mu
Ġmun afik
Ġinform asinya
Ġnet ral
Ġimbalan nya
Ġfut ure
Ġpembela an
Ġful crum
Ġambisi us
Ġkepan asan
Ġgump alan
Ġbersi ul
Ġjena zah
Ġelektromagnet ik
Ġbimb ingan
Ġpenyerg apan
Ġbagh dad
Ġclev eland
b ank
d le
m ers
Ġm adis
er ia
Ġb eng
at ung
am emb
it ari
Ġmen umpang
Ġmen daftarkan
Ġh ost
is m
Ġke tujuh
us ahan
Ġmemb idik
ay un
Ġw ai
Ġhar ri
Ġbi ff
Ġch arm
hir o
anj iri
Ġal q
Ġkeb ur
art hur
Ġpun ch
Ġgr af
Ġdr oid
Ġro und
Ġot her
ij ing
Ġer ater
Ġbo ul
Ġfuck ed
Ġins ide
ses uatu
Ġsand al
Ġhel ena
Ġtrans l
Ġpedang ku
Ġmag n
Ġtulis kan
Ġche ol
Ġteling anya
Ġmemperh atikanmu
Ġmengend us
Ġkop inya
Ġbec ause
vi ew
Ġdipr omosikan
rov isasi
Ġganj il
Ġkemur ahan
Ġditerb itkan
Ġcheeri os
Ġaspir in
Ġkesej ahter
Ġpermais uri
Ġerater at
w ater
z h
Ġ unc
Ġt ull
en stein
il ap
Ġper f
ir uan
Ġad opsi
Ġg olongan
Ġmel iputi
Ġ, ,,,
ub ang
Ġmend o
Ġtem u
Ġdis c
Ġmembuat kanmu
Ġbel alang
Ġal ly
Ġv ega
Ġpem eran
Ġdil epas
Ġkap oor
Ġfr ano
Ġsur v
umb at
Ġbat in
ffff t
Ġjawab mu
Ġpat ric
ber k
Ġmis alkan
Ġterj epit
Ġ12 00
Ġlemb ek
Ġpengg alian
Ġpaul ie
Ġne o
Ġkir imu
Ġtongk atnya
Ġrobert s
Ġmemperlakukan ku
Ġkutukan nya
Ġinst itu
Ġkhan na
Ġdiaj ukan
Ġmenghormat inya
Ġdiman akah
Ġmenghabis inya
Ġsco oby
Ġbre ath
Ġpemerkosa an
Ġmenidur inya
Ġprith v
Ġmenggag alkan
Ġelder man
Ġmenyelidik inya
Ġbraz il
Ġditab rak
Ġmengandal kanmu
Ġmenemp uh
Ġperges eran
Ġmadis on
m it
m ed
Ġs unyi
Ġt ian
in ess
un ks
el ikan
el ess
Ġl irik
Ġj ib
ud er
Ġo ce
Ġo ops
Ġn um
eb ody
Ġmeny isir
ain er
Ġdis ajikan
Ġket ukan
Ġpeng ab
Ġpeng iring
Ġi ii
Ġst ation
Ġkan anmu
Ġteman i
Ġtr istan
Ġdil ap
Ġfr ustrasi
Ġind iana
Ġterk aya
Ġz ip
Ġde a
Ġab a
Ġbl ade
Ġdid irikan
Ġhukum annya
Ġmanis nya
Ġalex and
Ġtrans p
Ġtrans plantasi
Ġsim one
Ġsim mons
Ġjon as
Ġberf oto
Ġfred er
Ġmenghind arinya
Ġsingk atnya
Ġdom inus
bo x
Ġwis at
Ġmengkhawatir kanmu
angs ang
Ġsome one
Ġungg un
Ġog re
Ġrekanre kan
Ġmembi asakan
Ġsmur f
b agi
d s
l eh
t el
u aian
Ġmen ewaskan
Ġh un
Ġh ush
Ġl ans
Ġj ip
Ġmemb ajak
ent asikan
up kan
amp an
Ġf ib
Ġf aham
ib el
Ġkar antina
wa an
Ġkep ingan
Ġpert ambangan
Ġpeng isap
Ġkec epat
Ġkec anti
Ġdim inum
Ġbr iar
Ġdit unjukkan
Ġag h
Ġdil antai
Ġberm alam
Ġked udukan
Ġz ed
Ġluc unya
Ġbet on
Ġkons tan
men emukan
Ġwe ii
Ġmenyad ap
Ġmembangun kannya
Ġnorm a
Ġtembakan mu
Ġpop corn
Ġtindakan mu
Ġmit s
Ġint egritas
Ġbayar annya
Ġmemperk enal
Ġdibelakang ku
ile en
Ġbell ick
Ġgib son
Ġkeseti a
Ġmek ah
Ġpenyemb uh
Ġkesi alan
Ġmemad amkan
Ġterpel eset
Ġwheel er
Ġstephan ie
Ġsle ep
Ġkerip ik
Ġcuac anya
2 7
o ti
z ie
Ġk awah
Ġd ate
al f
Ġh any
ag ar
ir ez
Ġad akan
Ġr ivers
es aran
ja ck
ib a
os uke
Ġkem iskin
Ġkembali annya
Ġkep ing
Ġkes ukaan
ind ukan
Ġser buk
Ġdib lokir
imp ah
Ġbur ton
ont o
und ing
Ġpet rus
Ġkub aca
Ġ5 8
Ġberc umbu
Ġsur g
Ġdid ukung
Ġbe an
Ġbe ijing
engk ur
Ġ6 4
Ġmak alah
Ġkant in
Ġis obel
Ġpos ting
Ġdic apai
Ġbab a
Ġmal ik
Ġ8 5
Ġmengej ut
Ġcr own
Ġterg ores
Ġmenjalan inya
Ġkacau kan
Ġsub ur
Ġmenyaksikan nya
Ġaud rey
Ġmengeks pos
Ġderm awan
Ġkelah ir
Ġmenuduh ku
Ġmenip umu
Ġpelih ara
Ġpotensi al
Ġfig ur
Ġparup ar
Ġbersabar lah
Ġmelengk api
Ġlann ister
Ġkt p
Ġcen ayang
Ġpengeluar an
Ġkesop anan
Ġkaps ul
Ġkebudaya an
1 00
d engar
r ok
Ġm umi
Ġd ang
at ore
em s
il da
Ġini adalah
Ġter organisir
ok ong
Ġpr ec
Ġdis isi
Ġken ji
Ġdim ple
Ġkeb ajikan
Ġbr on
sa ja
Ġcer ai
Ġmenyel uruh
Ġcl ive
all ow
Ġmenel usuri
Ġdem on
Ġkut elepon
Ġmenarik ku
uck y
eks inya
Ġbe a
Ġbe er
Ġbal asannya
Ġberg eser
Ġberg uling
Ġbad ak
Ġmo tivasi
Ġhasil kan
Ġla o
Ġje ans
Ġkus ampaikan
Ġimp ikan
Ġjon ah
Ġmengag um
tip e
Ġproses nya
Ġjeff erson
Ġhip notis
Ġgur unya
Ġrab bit
Ġari el
Ġvo ice
Ġteng ok
Ġinisi al
Ġtagih annya
Ġchit ti
Ġkansel ir
Ġchur ch
Ġdimu at
3 6
g ator
q ua
Ġk ind
en an
ah ah
in akkan
ap ur
am un
Ġl ebat
is er
Ġmem etik
Ġan a
ti er
Ġr it
Ġtak hta
wa ve
Ġmelakukan ya
Ġpr atap
Ġdir ilis
Ġch er
Ġch ew
Ġkes empurnaan
Ġkec ender
Ġal ihkan
Ġtr in
ont aminasi
Ġtuan mu
Ġpeny elam
engk er
Ġberg embira
Ġmy stic
Ġperusaha annya
Ġby ron
Ġrob oh
Ġterhadap ku
men awar
Ġkuh abiskan
Ġram irez
Ġperd ebatan
ef on
Ġhabis h
mi one
Ġher mione
Ġop en
Ġmengk r
Ġfo ur
Ġfir man
Ġcuc ian
Ġsom ebody
Ġucapan ku
Ġlamb an
Ġfeel ing
Ġchang e
Ġmemecat ku
str ong
Ġgemb ala
Ġpembel ian
oks ida
Ġwonder ful
Ġselebr iti
Ġferr ari
Ġalab ama
Ġkemiskin an
b agian
i ew
w as
Ġ ich
Ġm ori
Ġs iri
Ġs iksaan
Ġd ash
en er
Ġp uan
as ut
Ġy in
Ġl ui
Ġj ong
Ġj ins
Ġmem ompa
Ġc ame
Ġberb asis
Ġal ec
Ġku yup
Ġi et
Ġser asa
Ġser ingk
Ġman akah
Ġberd eb
Ġsh iz
Ġdit ebak
Ġtr ead
unc ulan
Ġtert ahankan
Ġkap ur
Ġz e
Ġsekolah ku
Ġpl ot
Ġmudah nya
Ġmenikah iku
Ġro ark
Ġda a
Ġwar p
Ġgag ap
Ġmo ons
Ġco okie
sh ine
Ġrep til
se per
Ġmac arthur
Ġdad u
Ġtun da
Ġchuck y
Ġkend ara
Ġex press
Ġmengundang nya
Ġden ver
Ġmenet as
Ġsol omon
Ġhas san
Ġmengub urkan
Ġkedatangan mu
Ġdesain er
Ġcamb ridge
Ġfut bol
Ġbrid get
Ġama zon
Ġfriend s
bro ok
Ġseen aknya
Ġvel ma
Ġmembohong iku
Ġpersel isihan
Ġdekor asi
Ġhister is
Ġgoda an
Ġindepend en
Ġfinan sial
Ġwisat awan
2 9
3 00
d ian
k off
o use
Ġt ada
at ria
Ġp app
Ġdi jawab
Ġse ja
el ar
ul tasi
Ġmel emahkan
Ġw ad
per tanya
Ġhar bor
enar ik
Ġmeny endiri
eg aran
ati v
Ġbert openg
Ġbegitu pun
Ġker ak
Ġser bet
Ġmasuk nya
ip e
Ġberd ebar
Ġpemb oman
Ġpem ir
Ġmengg alinya
Ġmengg endong
Ġbr ock
Ġyo o
Ġked at
Ġcer itaku
Ġpeny ewa
Ġso ok
Ġneg aran
Ġkut angkap
Ġbal ai
Ġdic ampur
Ġmand iri
Ġeks otis
Ġmenjalan kannya
Ġpar o
Ġmenyed ot
Ġrus h
Ġmemperh atikannya
Ġmenghitung nya
Ġmendatang kan
Ġri ang
Ġgub uk
Ġln dia
Ġcount ry
ole on
Ġcle an
Ġshel by
Ġmenghormat imu
Ġtawar menawar
Ġberkh ianat
Ġnap oleon
Ġmengev akuasi
Ġach illes
Ġreli gi
Ġpatric ia
Ġkecender ungan
Ġseringk ali
m al
m is
s hire
x y
an amkan
Ġp av
ap anya
el ius
Ġh ight
Ġy aku
is ku
il agi
or al
Ġan s
Ġmeng asuh
Ġc it
ek ap
ti b
Ġmer ayap
Ġmel ukainya
Ġw it
Ġmas sive
eg er
Ġmend engkur
Ġkel ab
amb uk
Ġbert ujuan
Ġi ove
Ġpel awak
Ġseh ebat
Ġput era
ingk ari
ebut an
Ġam es
Ġberc ukur
Ġanjing anjing
Ġterp ujilah
Ġdic abut
Ġpenuh i
Ġkelas ku
Ġmo use
Ġins truktur
Ġnik ah
Ġder ing
Ġhy ah
Ġsin is
Ġjas per
Ġperj udian
Ġstev ens
Ġmor fin
Ġkuper buat
Ġpus sy
Ġmenerim amu
Ġkasihan ilah
Ġmenggigit ku
Ġmengecewakan ku
Ġcy ber
Ġcre am
Ġmengusir ku
Ġhon or
Ġmengan alis
Ġpencipta an
Ġgett in
Ġspec ial
Ġreh abilitasi
Ġtrop is
Ġdiperh atikan
Ġpitt s
Ġdised iakan
Ġlnv incible
Ġkesejahter aan
Ġnegaran egara
t akan
Ġm ec
Ġb aut
Ġb unyikan
Ġp ok
Ġber olah
Ġmeng om
Ġmeng ind
Ġapa yang
Ġter inspirasi
Ġsem inar
Ġseb is
Ġsel er
Ġf ont
Ġf und
Ġmend uduki
ob ot
Ġpen ata
ikan nya
Ġpert eman
ist ri
ew at
Ġdib entuk
Ġcepat cepat
Ġmengg ila
Ġkur sinya
Ġboleh kan
Ġmenyel undupkan
Ġpenj udi
Ġseg ini
Ġmenya p
Ġso x
Ġkesempat anku
Ġlakil ak
est asikan
ahl angkah
ocok kan
Ġampun i
Ġmengaw asiku
Ġkok oh
Ġhen ri
Ġkuper intahkan
Ġqu entin
Ġsamping ku
Ġshe ik
Ġsimb a
Ġkabel nya
Ġstaf f
Ġmemanj akan
ven ir
Ġdipr ogram
Ġkumaksud kan
Ġbuy ut
Ġtenggoro kannya
Ġlangk ahlangkah
b uck
f on
p eny
s am
Ġs urut
Ġs irip
Ġd ak
Ġd agu
Ġt ub
Ġt unj
ap ar
Ġh ig
ik am
Ġter ulang
ud e
Ġn eb
Ġmel ipat
ant arkan
ac u
ub likasikan
Ġbers in
enang i
Ġberh alus
Ġpeng ep
Ġpeng alihan
ter a
Ġmenj alin
Ġpel ayaran
Ġpem elih
Ġbr ing
Ġtert abrak
Ġme era
Ġkut elpon
Ġkuat irkan
Ġel ise
Ġpe ar
Ġmy self
ne il
Ġmich igan
Ġph ot
ensi f
Ġsistem nya
Ġpal m
Ġbank s
ins ki
Ġkus impan
Ġtop an
Ġac c
Ġbut t
Ġpetunjuk nya
Ġpemimpin nya
Ġtakdir nya
Ġsun shine
yak ini
Ġpot ret
Ġos ka
Ġhom eland
Ġcharles ton
Ġnafas mu
sy l
Ġmempr oses
Ġpor os
Ġhor ton
tim e
Ġpengikut nya
Ġful ler
Ġisab ella
Ġgum iho
Ġlyn ch
Ġgoog le
Ġberpel ukan
Ġfarm asi
Ġmenumb uhkan
Ġdikh ianati
Ġmanc ur
Ġtho ught
Ġtull ius
Ġpemir sa
Ġkedat angannya
f ri
f ace
k it
s ep
w all
Ġ ort
er ir
Ġt aco
au m
Ġy ohan
is sip
Ġc ep
Ġr akit
ul ian
Ġorang e
ant ungan
Ġsel nya
Ġat m
ib ah
Ġberh arg
Ġch et
Ġkes atria
Ġker iting
Ġrumah rumah
Ġpes ulap
Ġdil empar
Ġberm inat
Ġcl ass
Ġde kan
Ġe ur
Ġnak amura
umb angkan
Ġto day
Ġdiper silakan
Ġperg antian
Ġkeras nya
Ġbe e
Ġpant her
Ġwar n
Ġmis imu
engg arakan
Ġsy araf
Ġbo ard
Ġradi onya
Ġkn ot
Ġharapan ku
Ġtop per
Ġtulis annya
Ġher man
Ġmiss issip
Ġmemaaf kannya
Ġrol ler
Ġpam annya
Ġcom in
Ġunivers ity
Ġkarir nya
Ġras is
Ġbibir nya
Ġbibir ku
Ġpeman as
Ġpelukan ku
Ġblu eb
Ġscream ing
Ġantr ian
Ġsalv atore
Ġzait un
Ġberhalus inasi
b ayang
d imana
k alian
m ayat
r aine
Ġm utasi
Ġd n
Ġd eg
Ġh emat
Ġkau lihat
Ġber anjak
Ġmem ihak
Ġmem amerkan
Ġke ag
Ġmeng ukir
ir ian
Ġc og
Ġmemb atal
Ġhar u
eg on
Ġbah agi
ati ons
Ġkem ew
Ġbert obat
Ġi q
Ġser eal
Ġsur e
Ġsur esh
Ġte ii
Ġ6 6
Ġterp otong
Ġpasukan ku
Ġpec at
Ġpar al
Ġkejahatan nya
Ġkus ebut
Ġsing er
Ġpil ar
Ġcor r
Ġlal umu
Ġday s
Ġmengend ap
Ġnih il
Ġrub in
okol ok
Ġgy u
Ġterper caya
Ġgriff ith
Ġbatal yon
Ġskin ner
Ġwhis key
Ġberak ibat
Ġketert arikan
Ġpuing pu
Ġmemboc orkan
Ġasm ara
Ġkebur ukan
Ġpemelih araan
. .
3 4
c up
h ad
t ulang
y nc
ak ub
Ġm n
Ġk alu
Ġt uju
ah uku
in ari
al eri
ap et
Ġdi identifikasi
Ġl ai
Ġj ia
Ġj ie
Ġper u
Ġan other
Ġmeng gig
Ġad uk
Ġg iselle
Ġhar iku
Ġya sh
Ġkel op
ok io
Ġsat pam
any onya
Ġbel ly
Ġch im
Ġpeng ad
Ġpeng amanan
Ġpeng unduran
Ġas ma
ie u
Ġberk abung
Ġbr ett
Ġberm ula
Ġgr ab
Ġar row
Ġbet sy
Ġterh ind
Ġro an
Ġpenc ucian
Ġmenyeb rangi
Ġq ua
Ġkons ekuensinya
Ġbas abasi
Ġtelpon mu
Ġmengingat ku
Ġtulang nya
Ġhow l
iti on
Ġsepup unya
Ġkeker ingan
Ġmendatang imu
Ġgul at
Ġarm strong
Ġkalung nya
Ġmenyanyikan nya
Ġspart a
Ġdal ang
Ġkarna val
Ġcrow d
Ġpengacar amu
Ġmateri al
Ġmenump uk
Ġdob el
Ġtergel etak
Ġbomb ay
Ġtul ip
Ġkeser akah
Ġharri et
Ġhabish abisan
Ġmississip pi
c inta
f ell
l ic
z io
Ġp im
Ġdi arah
Ġh urt
Ġl m
Ġc ot
Ġc anyon
Ġmer angsang
ul ator
Ġw ine
Ġseb odoh
om ing
Ġhal angi
Ġpen emu
Ġhe idi
Ġsatu an
Ġch eryl
ter t
anj akan
Ġv ok
Ġv ers
Ġv ert
Ġdib antai
baik lah
Ġsedikit nya
Ġsen or
Ġmu ffin
Ġsep ulang
ont in
Ġdik emas
Ġ5 4
Ġut ah
Ġkuk embalikan
Ġob yek
Ġpenc uci
Ġkomp romi
Ġer angan
if ic
Ġcol d
Ġder as
Ġham mond
Ġsim pat
Ġkus h
Ġpop py
Ġbetul kah
Ġsahabat mu
Ġdaniel s
Ġmengin formasi
Ġditutup i
Ġfant astik
Ġsol usinya
Ġbrad ley
Ġcass andra
Ġlov ely
Ġdipr oduksi
Ġpur gator
Ġviv ian
Ġlam aran
Ġberkons ultasi
Ġmother fuck
beb erapa
Ġord er
Ġsempr ot
Ġserp ihan
Ġberpas angan
raw ala
Ġyaku za
syl vania
Ġmembatal kannya
b ung
j ect
Ġs arge
Ġd ump
ar ilah
it es
id ang
Ġin jak
Ġmeng udara
Ġc adang
Ġr v
Ġg arth
Ġtak tis
Ġsi f
Ġjangan jangan
Ġken yang
Ġkes inilah
imu ti
Ġhidup lah
Ġth ose
Ġa is
Ġkeb iasa
Ġmenger ahkan
Ġbr ew
Ġbr ady
Ġters iksa
ch ing
Ġdil uncurkan
Ġmus ket
ump uk
Ġpers atuan
Ġ5 3
Ġant art
Ġsam e
Ġsam aran
Ġkej auhan
Ġmemas tikannya
Ġperh entian
Ġsk e
Ġ9 8
Ġbisnis mu
Ġsy n
Ġtok onya
Ġlem as
Ġhell er
Ġus ul
Ġlib atkan
Ġ11 00
Ġche es
Ġu u
Ġanggap lah
Ġmenyus ut
Ġpenyeb aran
Ġberku alitas
Ġtang isan
ect ed
Ġhigh way
Ġvo ya
Ġakad em
Ġsunt ik
Ġfel icia
Ġmewujud kannya
Ġkontr aknya
Ġtemper atur
Ġberpend idikan
Ġpuingpu ing
b ow
s aw
s che
v el
Ġm org
Ġk uart
Ġb le
en ap
Ġp olong
as er
Ġmem unt
Ġc ost
Ġad at
Ġr aw
es ia
Ġo o
ja an
ant s
ab an
Ġf erg
Ġpen anda
Ġpr et
Ġmengh ar
Ġkep astian
si alan
Ġa er
Ġpem asaran
Ġmengg emb
Ġdit ukar
Ġperm usuhan
Ġthe ir
Ġcer mat
Ġdik ab
Ġfr ans
Ġfr eed
Ġdr ac
Ġaw w
Ġz en
Ġkup akai
Ġre kannya
Ġberj arak
ue z
Ġjelas nya
Ġon iy
Ġperempuan nya
Ġfl oyd
Ġmain e
Ġco ach
ro om
Ġsm ile
Ġbin asa
Ġram ona
ker as
Ġmemec atnya
Ġsid ney
Ġmerawat mu
Ġmeminjam nya
Ġpac u
Ġmerc er
Ġpetual ang
Ġrod ney
Ġcak rawala
Ġmempermain kanku
Ġmengunjung imu
Ġster eo
Ġhamp a
Ġmenyiks aku
Ġbertek ad
Ġmenghangat kan
Ġjacqu es
Ġlegi un
Ġcyb org
Ġnyony anyonya
Ġhight ower
Ġkemew ahan
Ġantart ika
0 4
n ak
Ġk ya
er en
in ah
ap al
Ġmen injau
as ed
ik un
Ġl iver
Ġl illy
id an
Ġber and
Ġber ayun
il ot
Ġdia bet
Ġmemb elah
Ġg awang
Ġoh oh
Ġmenc apainya
os p
Ġkem ac
Ġbel ilah
Ġkalau pun
Ġku ingin
ip si
ip op
Ġmenger ing
Ġdib ayangkan
Ġdit unggu
Ġyo ut
und y
Ġdik unjungi
Ġorangorang nya
Ġwh ip
Ġdud ley
eri us
Ġme ad
Ġmenikah lah
Ġel aine
ine a
Ġpilih lah
Ġmenget ik
Ġdih abiskan
Ġpat en
Ġpemer iksa
Ġmc gr
Ġlay ani
bi asa
ongk ong
Ġmener angi
Ġje ep
Ġkok tail
Ġps st
Ġkunc imu
Ġky oko
Ġmeyakin kannya
Ġex p
Ġident ik
Ġbernapas lah
Ġmengend arainya
Ġdokumen nya
Ġekor nya
Ġduga anku
Ġdipert imbangkan
Ġmemu ja
Ġhann ibal
Ġsimp ul
Ġstu ff
Ġpenampil anmu
Ġgant ungan
Ġshot gun
Ġisab elle
Ġkath ryn
Ġkuperk enalkan
Ġobl igasi
Ġferg us
Ġdiabet es
g u
m et
m aka
s or
s af
t uhan
Ġ arang
ak ata
Ġd oris
Ġp t
Ġp oni
Ġmen jabat
Ġl it
Ġj af
Ġan alisa
Ġmeng ut
Ġmemb obol
Ġr ehan
Ġr anting
Ġw orth
Ġsi er
Ġpr ef
Ġdir usak
Ġbi adab
Ġkes endirian
Ġpeng alih
uc ci
Ġmendapat mencapai
Ġth ai
Ġkeh akiman
Ġpol ly
Ġfr itz
Ġam nes
Ġkat alog
Ġz hi
Ġsur f
Ġres ync
engk ing
Ġlet ih
Ġpanas nya
Ġjer ome
Ġperk osa
Ġterj ad
Ġmengel ak
Ġmant ranya
Ġmusik al
ood oo
urn akan
Ġjo el
Ġtelpon ku
anding i
Ġcas si
Ġgal e
Ġreg gie
Ġmotor nya
Ġpub lis
Ġbik ini
Ġpsik olog
pl anet
imbang kannya
Ġmik ro
Ġflor ence
set elah
Ġss st
Ġjoan na
Ġshir ley
erm inkan
Ġkeji waan
Ġsoft ware
Ġkav aleri
Ġmenghalang iku
Ġlad en
Ġnig el
Ġbrain iac
Ġgai a
Ġmendahulu i
Ġmenghin aku
Ġyell ow
Ġmenggang u
Ġbayang bayang
Ġyus uf
Ġmenghap usnya
upat en
5 5
b ilang
c ukup
j end
p p
Ġ ike
an ia
Ġs angk
Ġmen eri
as tic
Ġl d
Ġl oh
Ġl ina
uk au
Ġsa i
Ġsa wah
Ġdan i
Ġad onan
Ġr hy
Ġmer emas
Ġf eri
ub uran
Ġkem irip
Ġdir ah
Ġberh antu
Ġkes ombongan
Ġpeng ingat
Ġset ahuku
Ġberp otongan
Ġye a
ow itz
Ġmengg emaskan
Ġbr ok
Ġbr ight
Ġbol ak
Ġdit inggal
Ġjam al
Ġmemper d
Ġdun can
Ġberm ak
Ġpet ers
Ġmat ter
Ġberl arian
Ġpeny iar
Ġtakut nya
Ġdip ihak
Ġcar e
Ġit ali
Ġz ane
Ġjatuh nya
Ġ10 4
Ġab sen
Ġsir up
Ġkont ol
Ġmur ung
Ġ8 7
Ġpengg el
Ġnenek nya
Ġcon f
Ġtun angannya
Ġseng it
Ġdiatas nya
Ġrol ling
Ġni xon
Ġantar anya
ram ento
Ġketerl ambatan
Ġkonsul at
Ġarsit ektur
Ġbatub atu
Ġimig rasi
Ġditem ani
Ġpenn sylvania
Ġmengucap kannya
Ġintelek tual
Ġyohan es
b re
c am
c om
d om
s alah
y atnya
ak us
Ġm isa
Ġm ord
Ġk ov
Ġs yal
Ġt untut
Ġb entar
Ġb engkok
en ne
Ġh ik
Ġkau kah
Ġj amb
Ġsa jak
Ġmeng itari
Ġmemb untuti
eb aran
Ġw ax
emb uruan
Ġf aks
ob ia
ob ong
Ġdis iarkan
angk angan
Ġch ong
uc c
Ġmalam malam
ew ay
ew all
Ġal f
Ġal atnya
Ġv es
Ġi o
Ġst anton
Ġpel it
Ġpem esan
anc a
Ġdit ambahkan
Ġtr an
Ġmus lihat
Ġtert ahan
Ġpeny erb
Ġind ra
Ġ5 7
Ġz ulu
Ġneg ri
Ġand i
Ġle ader
Ġmemer ah
Ġab iga
Ġdid i
Ġbu alan
Ġbos co
Ġis h
est an
Ġkomp or
ij at
if t
Ġcr uz
Ġsis ir
Ġditu suk
Ġjad w
Ġkim i
Ġmac gr
Ġmelepaskan ku
Ġapartemen mu
Ġsimpan lah
Ġberper asaan
ull en
Ġsn ap
Ġmengad u
Ġtep ung
Ġujung nya
Ġcom es
Ġdipec ahkan
Ġmill s
Ġpsik is
Ġgor ila
ular itas
Ġberlian nya
Ġmemel uknya
Ġcre ated
Ġdompet nya
Ġlot us
Ġtari f
Ġey e
Ġpur ple
Ġnav igasi
Ġpred iksi
Ġchamp agne
Ġmengkhianat imu
Ġmenyal akannya
Ġox ford
Ġsac ramento
Ġiy akan
Ġkemac etan
Ġabiga il
a eda
b entuk
c ast
k os
l agi
Ġm ara
Ġb engkak
em ikian
em ahannya
Ġaku t
Ġh ek
Ġj uar
Ġmem ancarkan
Ġsa ji
Ġmeng ir
Ġc ord
ek kan
Ġter ampil
Ġn ay
Ġw ee
ent s
emb ir
Ġf itur
Ġmend ominasi
Ġkel aku
Ġkel akuan
Ġtem uan
Ġmenc erminkan
Ġkar at
Ġhe x
Ġpr ess
Ġdis egel
Ġku ad
Ġpak ar
Ġser ba
Ġtan ner
Ġsh il
Ġmin or
Ġpint umu
Ġgr aci
Ġpers embahkan
Ġbodoh mu
Ġ4 1
Ġsam ir
Ġre aiiy
Ġjawab ku
Ġdiper siapkan
Ġpl ank
Ġel sa
Ġfil enya
Ġkosong mu
Ġis olasi
omp ol
pon en
Ġ8 8
Ġkol ektor
ach us
ett s
Ġfoto ku
Ġnik ahi
Ġcel ia
Ġram on
Ġlab a
Ġcol a
Ġcol eman
Ġga il
Ġpahlawan ku
Ġpros t
Ġsub s
Ġkeper gi
qu er
Ġsl ide
Ġmengk ilap
ino is
Ġbersikap lah
Ġchris tian
Ġsid d
Ġlind sey
Ġdev lin
Ġmengajarkan mu
Ġmembelikan ku
Ġdimas ak
Ġlim o
Ġobser ver
Ġkaub ilang
Ġmenyemp rot
Ġserge i
Ġjut awan
Ġharm oni
Ġreser vasi
Ġmenyis akan
Ġath ena
Ġnang is
Ġkupel ajari
Ġgengg aman
Ġfrano is
Ġperteman an
b en
n ologi
p ons
Ġs r
Ġs ark
Ġt oto
Ġb imbang
ap o
Ġmen inju
Ġh ep
Ġh ulu
Ġh eboh
Ġber adab
Ġj ahit
is ih
Ġper usak
Ġan om
Ġter min
Ġter isolasi
Ġmemb anggakan
Ġr aul
Ġmer d
es tro
Ġmel anjut
amp ingan
ic unya
om is
Ġtem pel
ist ensi
Ġsend i
Ġdib ungkus
Ġas ik
Ġpem isahan
Ġmengg iring
le c
art y
Ġdit aruh
Ġmu i
Ġtel urnya
Ġsep eng
Ġti up
usah akannya
Ġcer obong
ingk uhan
Ġmemer g
Ġdiper intah
Ġterh apus
Ġterp enuhi
Ġbelajar lah
arg ambar
aus an
Ġrat uku
Ġev aluasi
Ġprib umi
Ġmo z
ro und
Ġmc ph
Ġbus ana
Ġmart ir
onel y
Ġmon key
Ġkucing nya
Ġwah ai
Ġlar angan
Ġsub st
Ġkunc iku
let ing
Ġmenerim aku
Ġjuli ette
Ġover d
Ġrad ha
Ġtant e
Ġmahas is
Ġsarang nya
Ġkeahlian mu
Ġaustr ia
Ġyank ees
Ġeng ine
Ġmid night
Ġplat form
Ġkabin et
Ġbrook s
Ġsamud ra
Ġkepan ikan
Ġabs ol
Ġsempr otan
Ġheli um
08 000
Ġpengas ingan
Ġseingat ku
Ġprithv iji
pertanya an
Ġreligi us
apet aka
Ġkeserakah an
Ġmenginformasi kan
Ġbermak na
Ġs old
Ġd ab
it ri
Ġdi atasi
Ġmen as
Ġse ukuran
Ġh au
id s
Ġj atah
Ġper ed
Ġr amp
Ġr ory
Ġr aven
Ġmer api
Ġo ui
Ġo ooh
Ġtak uti
ol ph
Ġmeny iarkan
Ġpern apasan
arkan nya
angk ang
Ġma il
ew an
Ġberd asar
Ġas k
imp a
Ġberk aki
Ġol i
Ġpes anku
anti c
Ġpet ang
Ġtert awakan
Ġsenang senang
Ġberc ampur
arti kan
Ġberj emur
re asi
Ġangg rek
Ġis abel
Ġsoal nya
Ġkasus ku
Ġkont ainer
Ġed an
Ġmet od
Ġsad akt
Ġterhadap nya
Ġmusuh nya
kh ardt
Ġpanjang nya
Ġangk uh
Ġmempert imbangkannya
Ġor egon
Ġmengemb ara
arget kan
Ġop rah
Ġbaca an
Ġmatt y
Ġcont in
Ġfavorit nya
Ġlal uku
olog y
Ġmenakut inya
Ġarm s
Ġgamb arkan
Ġbeck ett
Ġjab ba
Ġchan ey
Ġbac on
Ġlor raine
Ġril is
seb elum
Ġ00 7
Ġmej amu
Ġrec ord
Ġcry stal
Ġdub lin
Ġsesudah nya
Ġpengeb oman
Ġpsy ch
Ġdomini c
Ġhw ang
Ġforg et
Ġsemau mu
Ġgav in
Ġselemb ar
Ġyout ube
Ġsadakt ilu
3 9
f ish
g ard
g uard
p end
p otongan
r uk
s ley
Ġs ink
Ġp atuhi
as ha
Ġh ist
Ġh anc
Ġber ukuran
us s
Ġmeng anggu
Ġc asan
Ġkam us
ing a
Ġtak eda
Ġhar ness
Ġhal angan
Ġbert ab
Ġdis alah
Ġket el
Ġmenjadi kanku
Ġal un
Ġv s
Ġtan cr
Ġpem angsa
Ġatas anku
Ġdit untut
ch t
Ġsu i
Ġkab upaten
Ġdip arkir
Ġseg enap
Ġbat t
Ġbung k
Ġto y
Ġhi asan
Ġis eng
ber l
ber pikir
Ġfilm film
ach e
Ġsad dam
Ġkons elor
Ġstr ob
Ġha e
Ġgu ill
Ġali ve
Ġpal s
Ġjujur lah
Ġtangg anya
Ġdiber hentikan
Ġhel o
Ġkakek nya
Ġvir usnya
zz le
Ġperminta anku
Ġmengec at
Ġfred die
Ġmendekat iku
Ġfo ol
Ġmengab ulkan
meng atakan
Ġpandangan mu
Ġbakat mu
Ġracun nya
Ġip od
Ġkeselamatan mu
Ġberkom entar
Ġgamb argambar
Ġmemberitahukan nya
Ġatl it
Ġsap na
Ġmengulang inya
Ġmass achus
Ġbry an
Ġmerangk ul
Ġcoll ege
Ġmenginj akkan
Ġmek kah
ongs ong
Ġmai am
Ġobser vasi
Ġduck y
Ġdipel ajari
Ġrefl eks
Ġdefin isi
Ġrodrig uez
Ġfrag men
Ġkelop ak
Ġmerd eka
Ġmelanjut kannya
b ull
g al
an eh
Ġm ali
Ġd eck
Ġd usta
in im
in yak
Ġp ancing
ap oran
kan ya
ik er
apa yang
Ġmem ungut
Ġmeng usahakannya
Ġc od
Ġter el
Ġmemb ag
Ġmemb et
Ġg ond
Ġn d
Ġw right
angan an
ab y
ot ek
Ġbah umu
Ġdis an
Ġdis ita
angk utan
Ġdir asakan
Ġpert olong
Ġpeng angkut
Ġpas al
uc u
hir t
Ġker ahasia
Ġpemb ek
Ġpem ut
Ġdit ekan
Ġtr ust
ill ac
Ġny pd
Ġah j
Ġid fl
Ġmar aton
Ġob ama
Ġmembant ing
Ġdon key
Ġsurat mu
Ġperk enalan
Ġmal apetaka
Ġsy st
Ġmand inya
Ġfl ag
Ġco uid
Ġkeg el
Ġoperasi onal
Ġmayat mayat
Ġrak yatnya
Ġtop imu
Ġteh nya
Ġmelompat i
Ġsant o
Ġmengk on
Ġmengk onsumsi
ost ing
Ġwat ers
Ġtor ch
Ġsor ot
Ġrap hael
Ġmeneg angkan
Ġmengejek ku
Ġsaudari mu
Ġmanu ver
Ġblanc he
Ġgunt ur
Ġkekec ewaan
Ġproto tipe
0 3
7 6
ak ta
Ġm ukanya
Ġs ita
Ġs ump
Ġd ug
Ġt ick
Ġmen eng
Ġl aga
id ato
Ġj aim
Ġan tip
Ġc amar
Ġter muda
Ġmer acun
ul f
orang orang
Ġn orak
Ġmel olos
Ġw rong
Ġmend efinisikan
ep asan
Ġdis kusikan
Ġatau kah
Ġal ja
Ġdim usnahkan
Ġpem uk
Ġkot aku
Ġdit el
Ġters endiri
Ġmobil mobil
Ġmin imum
Ġkap pa
og okan
ons in
Ġkr ed
enting kan
Ġbergerak lah
Ġwal den
Ġob i
ord inasi
Ġsal t
Ġsal im
Ġbab lu
Ġ20 11
Ġ20 12
Ġge or
Ġq ui
gab ah
Ġmich el
men it
Ġmenyerang mu
Ġsup lai
Ġaj ay
Ġdaging nya
Ġir s
Ġmengingat mu
Ġmag is
Ġcon ner
Ġmerek alah
Ġpi on
Ġganti kan
Ġmmm mm
Ġgot cha
Ġval erie
Ġunivers al
Ġcad illac
Ġkid ding
Ġmembah agi
Ġzh u
Ġmengger utu
Ġkara oke
Ġdipert anyakan
Ġmeneb usnya
Ġviv ien
Ġlam alama
Ġbenj olan
zi arah
Ġwes ley
Ġberkel ana
Ġemp uk
Ġmig uel
Ġungk apkan
Ġkehadir anmu
enger ian
Ġsayat idak
Ġmily aran
v ain
ak ini
Ġs ti
Ġd inyal
Ġb ima
Ġp omp
Ġh achi
Ġl ala
Ġber awal
il ir
Ġper unggu
or row
Ġmeng iris
Ġter f
Ġr ingk
Ġr ider
Ġmer tu
Ġg az
Ġmel ody
aik um
Ġw ester
Ġsem u
Ġsel eksi
Ġbenar nya
Ġses uka
Ġkar yanya
Ġsed etik
Ġch oc
Ġlain lain
Ġku usahakan
Ġa qu
Ġdib ahas
Ġberk omp
Ġmendapatkan mencapai
Ġbol t
Ġjam nya
Ġtel an
Ġpol o
Ġtert anam
Ġkul i
Ġgr ow
Ġkub elikan
Ġsp y
Ġz or
Ġmenyer gap
Ġben ed
Ġde unan
Ġmr k
Ġart ef
Ġjen kins
Ġberg embir
Ġserius lah
Ġlet usan
Ġwar ung
Ġpe jalan
Ġ7 7
Ġer m
Ġarah mu
,,, .
ba e
Ġkulit ku
Ġkamp ret
Ġsing apura
Ġop ini
Ġmemerlukan mu
Ġdap et
Ġmeyakin kanmu
Ġhand phone
Ġmemperk os
oda i
Ġhom er
Ġhom oseksual
Ġbent uran
Ġdisitu lah
Ġpag inya
Ġberan ib
Ġteg uh
Ġcall en
Ġkid al
Ġdompet mu
Ġsekeliling mu
Ġasl imu
Ġpinjam kan
Ġgh etto
Ġtunangan mu
Ġabang ku
Ġfan ny
Ġmenerb itkan
Ġpenawar nya
itra an
bro oke
Ġill inois
Ġoak land
Ġchamb ers
Ġcrist ina
Ġdosad osa
Ġbersep eda
Ġtunj angan
Ġcasan ova
Ġdinyal akan
4 8
b uah
h ara
k abel
Ġt all
ar atkan
Ġak au
id y
Ġkau p
Ġkau t
or et
Ġan u
Ġan ark
ut uan
Ġmel anda
Ġw ally
ab ad
Ġf bl
ok um
Ġpunya i
inta an
Ġkec emburuan
Ġal ur
Ġst empel
Ġbur khardt
Ġsh ap
Ġsej alan
Ġped al
Ġkom edi
Ġkom ponen
Ġtamp aran
Ġkr on
Ġz eb
Ġkup otong
Ġdig ambarkan
Ġcr ick
Ġpres ton
Ġkud eta
Ġph illy
ungk apkan
Ġlub uk
Ġtrans f
Ġros al
Ġdij atuhkan
Ġpersis nya
Ġche et
Ġlol a
Ġperbuat annya
Ġmurid nya
Ġmendukung ku
Ġra oul
Ġcow o
Ġlidah ku
Ġpunc aknya
Ġteg ar
Ġany thing
po ol
Ġcak ep
Ġkubuat kan
Ġpenyes uaian
Ġlak h
Ġclaud ia
Ġrox anne
Ġalv ar
Ġcipta an
Ġsentim ental
Ġfern ando
Ġquarter back
Ġmengejut kanmu
Ġmengkr itik
Ġdiarah kan
Ġpublis itas
Ġdirah asiakan
Ġtancr edi
4 00
b c
c erita
n ut
n ot
o ku
t ok
u zzi
w er
Ġs arden
Ġd ink
Ġd akwa
Ġb ott
ang kannya
Ġmen il
Ġl f
Ġl ie
Ġke angg
Ġdan dan
ud ul
eb arkan
Ġseb er
ab uh
int on
Ġmend ug
os er
aj am
aj engking
Ġpr iap
Ġdir acuni
Ġmengh ampir
Ġterb entur
Ġker an
Ġtet ua
Ġpel ampung
Ġmenger j
Ġmengg ugat
Ġbr utus
Ġdit angg
Ġters ulit
ri o
Ġkub isa
Ġdr astis
man ik
Ġsp ike
oo oo
Ġbat es
Ġle ad
Ġcoba an
Ġpl um
Ġterp ukul
akar ya
Ġsir ene
Ġomong an
ota an
Ġmengenal kan
Ġ9 6
Ġmy ung
Ġsemb arang
Ġcr o
Ġsis imu
Ġgem uruh
Ġmon umen
iaya an
Ġtand u
Ġdiant ar
Ġmi ya
Ġrichard s
Ġohh h
Ġinst itusi
Ġkamb uh
Ġkeahlian ku
Ġipar ku
sem uanya
Ġfakt af
Ġvag in
Ġlaur el
Ġkeprib adi
lebih kan
Ġama zing
eti ap
Ġpup uk
kem udian
Ġanting anting
Ġpedul imu
Ġfilos ofi
Ġtandat angani
Ġperf ect
Ġfreed om
Ġberand alan
3 1
d ong
h in
y oko
Ġm oses
Ġk engerian
Ġt ob
at ri
Ġp ong
Ġmen andakan
Ġh icks
Ġper ih
Ġg est
Ġn ekat
ol es
Ġseb isa
ok nya
os ter
Ġsed emikian
Ġket urun
Ġdir k
Ġdir uangan
Ġch ung
Ġkal ajengking
Ġterb ayangkan
Ġv ill
Ġas umsikan
Ġbr igh
ec ker
Ġdit anam
Ġwh ole
Ġar ak
Ġind ikasi
ry s
Ġbet is
Ġpl ester
Ġangg un
Ġpenc er
Ġpat el
Ġdic at
Ġlet aknya
Ġsal ut
Ġge gabah
Ġjahat nya
Ġul tr
Ġoper asinya
sh ip
Ġgar cia
Ġinter ior
Ġdin ilai
Ġor anye
Ġhy e
Ġhy per
Ġtop iku
Ġpenerb it
Ġop ium
Ġver vain
Ġ13 0
Ġmeman faat
Ġangel o
Ġki os
Ġsak umu
Ġts hirt
Ġhero ik
Ġjanj inya
Ġmeneg akkan
Ġpenemb aknya
Ġtrip le
Ġhang us
Ġmikr oskop
Ġfam ily
Ġjasad nya
Ġtenggoro kanmu
Ġdihad api
Ġcolumb us
Ġhag rid
Ġwaf at
Ġmeras uk
Ġmenginter ogasi
Ġcourt ney
Ġcaf e
Ġkeaman annya
Ġmicro wave
Ġanom ali
Ġsepeng etahuan
Ġhanc ock
Ġbergembir alah
9 5
d ag
g an
j ob
s us
ak ami
Ġm ech
Ġt osh
Ġp umb
Ġmen awari
as ib
Ġh ersh
Ġl owongan
id ge
Ġber ger
Ġmem on
Ġper il
or f
unt uhkan
ti ce
ung nya
Ġr amping
um umkan
Ġmer etas
ana an
ud an
Ġg osh
Ġmel intas
Ġseb atang
emb angannya
Ġap p
amp ilkan
Ġf itch
Ġdalam mu
ed u
aj akan
Ġket idaknya
Ġberb ahagia
Ġkal angan
Ġv illa
Ġia in
Ġth n
Ġpem and
Ġtr em
Ġmemper ingat
Ġberm oral
Ġam ati
Ġdr ag
Ġkum as
Ġmemp his
Ġkek aya
Ġres olusi
Ġterp aku
Ġkapal mu
arg h
Ġperk embangannya
Ġmenulis kannya
encan akannya
Ġge isha
Ġmanis an
Ġlemb ab
Ġkeg ug
urn ian
Ġhol l
Ġhol low
Ġgl aber
Ġsung kan
Ġpis ahkan
Ġ0 7
Ġdad ar
Ġpros pek
Ġmey akini
Ġche ese
Ġmendukung nya
amping i
Ġdown ey
Ġgaun nya
ubung kan
Ġpensi unan
Ġtir iku
Ġts uk
Ġpengaruh nya
Ġlus inan
Ġspek ulasi
Ġtunduk kan
Ġchat ting
Ġinisi atif
Ġmenon aktifkan
Ġmemand angi
Ġdup ree
Ġketig anya
Ġberolah raga
Ġsier ra
Ġstrob eri
Ġmembag inya
c ik
f i
r ose
s m
w est
Ġm amaku
Ġs v
en h
en ia
Ġp anjat
Ġdi pat
Ġl uangkan
Ġj l
is ian
Ġmeng ampun
et aran
ant in
ong ga
ac le
asa inya
Ġsat urn
Ġdis ney
Ġket entuan
Ġmengh ipnotis
Ġkal ori
Ġpeng atur
Ġpeng enalan
Ġberp ose
Ġmenj arah
Ġberk erja
Ġsh ig
Ġibu ibu
Ġmobil e
Ġmat rix
Ġfr iday
Ġpers atu
Ġz iva
Ġneg er
Ġkl ing
Ġgel edah
Ġom ega
Ġperb esar
Ġq uan
Ġev elyn
Ġhad es
Ġdes as
Ġdes ert
Ġbo ob
ses eorang
Ġham ster
Ġgl ad
Ġx i
Ġdinding nya
Ġaf f
Ġkarya w
Ġalih alih
Ġbicar anya
Ġpotongan potongan
Ġsak unya
fr ont
memb unuh
Ġnov a
Ġmemandang nya
Ġpin us
Ġlook in
Ġmemu akkan
Ġgand alf
Ġspr ings
Ġhu o
Ġkontr over
Ġkemalu anku
Ġmengac u
Ġpest amu
Ġlukis annya
Ġmengor bit
isk usi
Ġther esa
Ġpunja b
Ġdikur angi
Ġstarl ing
Ġsemamp uku
Ġstack house
Ġpengab dian
ativ itas
Ġpemesan an
Ġmemanfaat kannya
b ut
g l
g aris
k ak
m uran
o ordinasi
r u
t ator
y angan
Ġm up
er ina
Ġd ed
Ġt akan
Ġb ey
Ġb usnya
Ġb az
al ai
Ġdi ampuni
Ġdi amankan
Ġl engah
Ġber unding
Ġmem v
Ġsa f
Ġapa apanya
ir inya
Ġc ai
Ġc ase
Ġter endah
on ius
ung a
Ġmemb ara
Ġmer li
Ġg ee
Ġbaik iah
Ġmeny anjung
Ġf ung
ac t
Ġhal f
Ġpen al
Ġken ari
Ġma unya
uc han
Ġsamp e
Ġal e
si ght
Ġberd ampingan
le in
Ġmemper cayakan
Ġsep endapat
Ġpet ak
Ġbiarkan lah
Ġberl apis
Ġwh a
Ġam e
Ġsialan mu
Ġsp in
Ġbat tle
Ġbet ulkan
Ġkek el
Ġli es
re al
Ġtib et
ris h
ual ang
arg as
Ġkont ribusi
Ġmis h
Ġdig antikan
Ġbad anku
Ġes p
ro id
Ġband el
Ġpengh isap
Ġjal urnya
Ġpengg antinya
Ġinter s
Ġsand ers
Ġlubang nya
Ġkun al
Ġmempert ahan
Ġmengant isipasi
Ġkus erahkan
Ġqu ick
ji wa
Ġmenyalah kannya
Ġdu aduanya
Ġjan ey
Ġmenggigit mu
Ġsky walker
Ġmengijin kanmu
Ġjoy ce
Ġmach o
Ġdikep ung
Ġcolumb ia
Ġarri etty
Ġpey ton
Ġmenjeb aknya
Ġbergum am
Ġparal el
Ġmelolos kan
Ġfaktaf akta
Ġmerli ah
b and
c urkan
d ik
d ekat
g ate
i askan
l air
p ong
er ik
Ġt uruti
ah ar
al un
am us
Ġdi operasi
Ġse umuran
el amatkan
as mi
Ġber nya
Ġj t
Ġj od
Ġj org
Ġc ay
Ġc ash
Ġc ann
Ġad al
ur annya
es imen
Ġn ga
Ġya g
Ġf ur
ib ilitas
Ġpen ilai
Ġhe av
Ġbers im
Ġsed er
Ġkem asan
Ġken shin
ada an
Ġma z
Ġch ul
Ġpas o
Ġal ma
Ġser asi
Ġser uling
op y
Ġberd iskusi
Ġpemb om
Ġpemb eri
Ġpem ad
anc h
Ġgadis mu
ig rasi
Ġmat inya
Ġwh ile
Ġdip esan
Ġdiam ond
Ġsc out
Ġjer uji
Ġup on
Ġmenyes atkan
Ġq in
Ġdel usi
Ġbib it
Ġjo ff
ahab atnya
Ġhy eon
Ġkok pit
Ġusah anya
Ġdij emput
Ġmemakan mu
Ġsn ack
Ġraj u
Ġment ri
Ġproduk tif
Ġmei akukan
Ġmemandang ku
Ġgreg ory
Ġmeraih nya
Ġdisamping mu
Ġatmos fir
Ġsqu ad
Ġdiman faatkan
Ġfol ks
Ġkemalu anmu
Ġaur ora
Ġmeluc uti
Ġseusi amu
Ġtuc o
Ġmengelab ui
Ġdynam ic
Ġseja jar
Ġpitts burgh
Ġmenggig il
Ġske eter
saf at
Ġdisan alah
j arkan
k k
m ari
t olong
w or
an ah
Ġm iz
Ġak ash
Ġj ock
Ġper antara
Ġsa fe
ag ihan
Ġmer lin
Ġmer amalkan
Ġo die
Ġn uan
Ġn cis
et nya
Ġsek adar
ini i
Ġf on
ot ase
Ġmend asar
Ġkel am
Ġkel ainan
Ġdis eret
Ġmengh adang
Ġch h
Ġker udung
Ġst ore
Ġst atis
Ġkan anku
Ġmenger tilah
Ġpem indai
Ġbr ent
Ġsh u
Ġters angkanya
Ġters akiti
ont e
Ġgr id
Ġpenj epit
Ġdr ess
Ġ5 9
Ġluc ille
Ġkum an
Ġkum engerti
Ġto oth
Ġli ur
Ġ6 9
Ġro ya
Ġpe ace
Ġperempuan mu
Ġ8 6
Ġkelas nya
Ġrek rut
ogr aph
Ġ50 50
Ġharapan mu
Ġpop per
Ġkucing ku
net h
Ġlou ie
ass o
Ġmenet es
Ġsayap nya
Ġmembebaskan ku
Ġkeberada anmu
day ung
Ġpaket nya
Ġteg anya
onc at
Ġlaw annya
Ġanti bi
Ġari a
Ġbergegas lah
Ġtest is
Ġjing le
Ġmemant ul
Ġjah e
Ġgam ma
Ġpengemb alian
Ġbrit ney
Ġtonton an
Ġmengay unkan
hay ul
Ġzod iac
Ġnev ada
Ġmelet us
Ġpersek utuan
Ġcraw ford
Ġkepunya an
Ġcot ton
Ġkemirip an
Ġgest apo
Ġjoff rey
k eh
l ia
l ight
p aling
p ond
Ġd aud
Ġb m
Ġb ender
Ġb ongkar
Ġb aptis
en son
ah arus
Ġdi inter
Ġh ast
ik il
Ġber ilah
Ġj ub
Ġj odoh
Ġke ungg
il ya
Ġc ub
ti es
Ġmer a
Ġmer oboh
Ġn ons
ja jah
gi o
ot r
om en
Ġkem enter
Ġdis ingkirkan
Ġken ali
Ġv ene
Ġrum us
Ġkeb esaran
ri f
Ġyo g
Ġ3 50
Ġmar l
Ġant ah
ich ael
Ġdem o
oy ak
Ġmil e
Ġjelas jelas
Ġdic etak
arg o
Ġ7 8
Ġge omet
Ġph one
Ġpal ace
Ġmad inah
Ġdam e
Ġla und
Ġx av
se tiap
Ġten ness
Ġmengur as
Ġlog o
Ġhow dy
Ġfe i
Ġmeman as
Ġund ian
Ġmarc el
Ġjaket ku
rig an
amer ika
Ġmeluk aiku
ran o
Ġlook ing
Ġkart uku
hh h
Ġjangk ar
Ġtern ilai
Ġrela x
Ġmengunjung iku
Ġprodus en
Ġkua jak
Ġsind rom
Ġdot tie
Ġpony o
Ġsales man
Ġmong ol
Ġmentol erir
Ġamnes ia
Ġbertab rakan
Ġobi wan
Ġalvar ez
e ar
k ee
m aksud
o ak
u asi
w ig
y c
Ġm ami
Ġs uhan
Ġs oc
Ġd est
Ġb aks
Ġb oth
Ġb br
Ġp ain
al aku
ap olis
it am
Ġdi yakini
Ġmen und
el in
Ġh ain
Ġl anding
Ġl onely
Ġin tu
Ġber eks
is isi
itu lah
Ġsa ve
Ġan at
Ġmeng obat
Ġr ewel
Ġn eha
Ġsel ongsong
Ġf ood
Ġf ikirkan
ot ensi
end el
Ġmend aratkan
Ġat r
Ġpen er
Ġsed iakan
Ġdis arankan
Ġdis etiap
Ġpeng amat
ter jadi
Ġset umpuk
Ġth under
Ġi ga
Ġberp idato
Ġdib ius
enc y
Ġkur va
ri es
unc ing
Ġpenj ahit
Ġbagian bagian
Ġair port
Ġsp esimen
tr e
Ġtim b
uny ian
Ġle ah
Ġab el
Ġbl az
Ġcr ap
Ġge off
ast e
Ġkenc anmu
Ġsw ee
he imer
Ġpu erto
Ġgem etaran
ph on
Ġpasangan nya
Ġsl ater
Ġmengab ari
Ġgay anya
Ġcor b
Ġcor por
Ġkeberanian mu
Ġpam ela
Ġos kar
Ġsak ura
Ġpor tug
Ġmenculik ku
Ġberlutut lah
Ġjun o
Ġkart el
Ġkart umu
Ġsho oting
Ġpound s
Ġlaur ie
Ġberkil auan
Ġexc ell
Ġjump ai
Ġspl it
ecti ve
Ġza ara
Ġgrac ie
Ġpenyad ap
Ġjadw alnya
Ġoverd osis
Ġmassachus etts
Ġkerahasia an
Ġbersim pati
Ġkementer ian
d ate
w eg
Ġm ace
Ġk air
Ġs que
Ġp f
Ġse or
Ġber pat
Ġj il
Ġj eez
is d
Ġmem us
Ġper omp
or ot
ek uatan
Ġter angkat
im ia
Ġr ana
uh i
ud aranya
Ġg ita
Ġg iz
Ġg aib
aw k
Ġbag chi
Ġmas anya
Ġsel ir
Ġsel ma
Ġmeny umbang
Ġf usi
Ġbah uku
om od
end ing
Ġkem au
Ġch es
Ġhei ght
Ġv ali
Ġa apa
Ġmenj il
Ġst up
ger s
Ġdib agian
Ġpem als
Ġpem ogokan
Ġberk es
Ġbr andy
Ġtr ig
Ġwan da
ug s
ey o
Ġkap el
Ġkub eli
Ġsakit mu
Ġcar ver
Ġe is
Ġger ard
Ġkl ise
Ġangg urnya
Ġ6 3
Ġ6 7
Ġmak es
Ġmenunjukkan mu
Ġwar s
Ġmis iku
Ġrat h
Ġsk ep
Ġsad ako
Ġhadiah mu
Ġco ur
Ġsm art
Ġbus a
Ġsuper star
Ġkun ingan
Ġkond isimu
Ġlib by
Ġtes nya
Ġperj uangkan
Ġmengurus mu
Ġrock et
teri ak
Ġmeledak kannya
Ġgay atri
Ġpay udaranya
Ġsingk atan
meng apa
yo ur
Ġmempr ov
Ġsul ung
Ġcount er
Ġalarm nya
Ġhaus er
Ġcass idy
Ġmenghukum ku
Ġbow l
Ġmembagi kan
Ġmengep ak
Ġcir ic
Ġdod ge
Ġmengu asainya
Ġrest aur
Ġconst ance
Ġrodrig o
Ġgog ol
Ġmanik manik
Ġdut ch
Ġfilip ina
Ġdikar enakan
Ġmenguat kan
Ġinstitu t
Ġkuart al
Ġkling on
Ġkekel iruan
Ġinters ect
b aj
b rien
n ow
r el
Ġm amb
Ġm ond
Ġk aj
Ġk itt
Ġs ahabatnya
Ġb ust
ang o
Ġh aluan
Ġy et
Ġl intah
id as
Ġmem atuh
Ġmem entingkan
ag ram
eng arkan
Ġmeng isolasi
es ak
ud ut
Ġbis on
Ġn ur
Ġsek ering
Ġmas h
eg asi
Ġbah unya
Ġmend er
Ġkel anjut
Ġpen et
Ġpen arikan
Ġpen erus
af el
Ġkem alangan
Ġdis co
Ġkes usahan
Ġal isha
Ġkan al
Ġpem ukulan
Ġbr et
Ġsh ack
Ġyo unggu
Ġgr ady
ej i
Ġind era
ulit i
Ġkup injam
Ġkej aksaan
Ġdekat ku
Ġger akannya
Ġmil isi
Ġab orsi
Ġdet on
Ġ6 8
Ġdih ilangkan
est e
Ġby ung
Ġil sa
Ġstr aw
Ġrek reasi
Ġx u
Ġx ian
Ġ0 1
Ġmac donald
Ġtulang tulang
way ne
Ġterc apai
Ġqu inc
Ġmenanyakan mu
Ġpus aran
Ġrakyat ku
Ġcow boy
Ġover sight
fat her
Ġefek nya
Ġinst an
Ġketidak adilan
Ġmemberitahukan mu
Ġmete orit
Ġgy an
Ġdipert ahankan
Ġpic kup
Ġseri al
Ġister inya
Ġtrip p
pek ulasi
dis ini
Ġmust ard
Ġkari er
Ġketid uran
Ġmask apai
Ġhipot ek
Ġmengol okolok
Ġmembas mi
Ġgn ome
Ġcoff ee
Ġmacgr uber
Ġmerapi kan
Ġartef ak
Ġdesas des
Ġtenness ee
b odoh
b atas
c omb
g unaan
j ad
j oy
k otak
t ha
v ensi
Ġ uri
Ġm uc
Ġt ac
Ġb ing
Ġb int
ap akan
em er
un us
ad iri
el asi
Ġh ide
ik en
Ġl anjutan
Ġber iman
is aya
Ġmem ut
Ġke e
Ġc aii
ek alan
Ġmemb ent
Ġmemb untut
Ġr ebut
ul tas
ed ot
Ġmenc ipt
Ġdis akiti
Ġch ili
Ġib rani
Ġth ough
Ġtan am
Ġpemb ant
Ġberk ec
Ġbur ns
Ġsh ou
Ġdit ampilkan
Ġput usan
Ġberm inyak
Ġdik orbankan
Ġdik tator
Ġkub us
Ġam en
Ġpers epsi
Ġseger ombolan
Ġsp ider
Ġkr ab
Ġkut unjukan
Ġanj ungan
Ġbal istik
Ġmengirim i
Ġpertanyaan pertanyaan
Ġdih idup
Ġbab ys
Ġ7 6
Ġdig it
Ġcr u
Ġcr us
Ġco ast
Ġwe ek
Ġsebelah nya
Ġruangan ku
enj i
Ġtip eku
ern ihkan
Ġkus ut
Ġrem eh
Ġkrist ina
Ġroh r
Ġbut ler
Ġkuper t
Ġsant os
Ġky lie
Ġ14 0
Ġbatas nya
Ġperalatan nya
Ġklien mu
Ġden is
Ġra qu
Ġmenurun kannya
meng ambil
do ch
Ġau ra
Ġbernafas lah
firm asikan
Ġform alitas
Ġmerc y
Ġpa x
Ġmelibatkan mu
Ġmemerintahkan mu
gr ade
Ġatl antic
Ġbug il
Ġkaf ein
Ġduni anya
Ġpie ase
Ġmemecat mu
Ġspir it
Ġfair y
Ġpenculik nya
Ġaid s
Ġkonv oi
Ġgett ing
Ġphill ips
Ġtetangg amu
Ġspark y
Ġbertel ur
Ġkepul auan
Ġchih uah
Ġjih ad
Ġchurch ill
jend eral
Ġalun alun
Ġpriap ria
Ġsaturn us
Ġgyan esh
h orn
h old
m ing
m ata
r ing
r isi
y unk
Ġ uran
Ġk umpul
Ġd wayne
Ġt l
Ġt ilang
Ġt ugaskan
Ġb ian
en o
Ġp oe
am ental
Ġl ugu
Ġber andal
Ġj ongkok
Ġmem indai
il er
Ġper ekam
Ġan ita
ir ingan
Ġmemb olehkan
ul es
es annya
ud o
Ġg illy
Ġn isan
ay arkan
Ġtak hayul
Ġsek aii
ab l
Ġpr aha
Ġkem p
atang i
isi ana
Ġkep r
Ġbar ik
Ġkes unyian
Ġsamp ingan
Ġal t
Ġker ikil
Ġku ucapkan
ow ulf
Ġberd uri
Ġpemb atas
Ġsen sei
Ġdik enang
Ġfr ench
Ġpend ahul
Ġe ung
Ġberjalan lah
ard er
Ġjawab anku
Ġmembaw akannya
Ġmenarik mu
Ġger ilya
Ġli ontin
Ġterh enti
re ady
Ġhi ya
Ġfil safat
Ġpanggil annya
Ġperb andingan
Ġperk irakan
Ġer eksi
Ġperusaha anmu
Ġkelas mu
Ġrob b
han ia
Ġmc n
sh it
Ġim per
Ġkomputer ku
Ġbalik kan
Ġne ut
Ġlou isiana
Ġmont ir
Ġpenis nya
Ġtam ara
Ġmimp im
Ġgaj iku
Ġmelatih nya
Ġpa o
Ġkompl ikasi
Ġmelebih lebihkan
Ġjean ne
Ġduni awi
Ġotom o
Ġmenantang ku
kas us
Ġod in
Ġotor isasi
Ġkew alahan
Ġwait ing
mend apatkan
Ġpenjag anya
Ġskuad ron
Ġkehadir annya
Ġstik er
Ġklon ing
alon kan
Ġsard ar
Ġmenabr aknya
Ġsungk yunk
Ġgenev ieve
Ġsurg awi
Ġpumb aa
Ġmup pet
Ġcorb ett
weg ia
Ġkelanjut annya
Ġdesasdes us
Ġsungkyunk wan
d oo
g es
m ie
m art
Ġm ikir
Ġm amamu
Ġs z
Ġd uh
Ġt ael
Ġb ali
Ġb ej
Ġb ingkai
Ġdi kantor
el asan
Ġh oy
Ġin chi
Ġad apun
Ġad olf
ing ati
Ġr p
Ġr aik
Ġr ene
Ġmer encanakannya
es el
Ġn adia
Ġn umber
Ġsek alikali
Ġsek otak
Ġhal el
Ġpen jawab
Ġbers pekulasi
Ġkem ak
Ġkem as
Ġbert en
Ġbel okan
Ġbel atung
Ġbar ca
Ġth i
Ġpel epasan
Ġpemb ayar
Ġkur ung
Ġbol ivia
Ġtel adan
Ġpes uruh
ont ar
Ġdep artment
ig n
Ġkemud ikan
Ġme ga
Ġduduk duduk
Ġmar mad
Ġli on
Ġmemas angnya
Ġbe owulf
Ġberg ulir
imb o
Ġro ch
Ġun s
Ġrat ch
Ġkol ega
Ġdo ing
mas h
Ġq iu
Ġtom orrow
ni es
Ġul asan
Ġpengh ilang
Ġpengh akiman
Ġkeputus asaan
Ġpark iran
Ġtop inya
Ġlar s
Ġsar ana
Ġtun as
Ġmor p
Ġky eong
Ġmeyakin kanku
Ġmengin f
Ġpenya lah
Ġmayor itas
Ġlal unya
Ġsol onius
Ġpag er
Ġtam uku
Ġfot ografi
Ġlutut mu
Ġmahk amah
Ġzh en
Ġhay den
Ġjangk rik
Ġnor wegia
Ġmengeks ekusi
Ġlun as
Ġkonsul tasi
fo ot
Ġlec ter
Ġtebakan ku
Ġvari asi
uff le
Ġslo ane
Ġmenggul ingkan
Ġdistrib usi
Ġmetaf ora
Ġgorg on
Ġperjam uan
Ġoce an
Ġmenganalis is
Ġsurf ing
Ġantibi otik
Ġswee tie
8 5
c ap
c es
j anji
p ilih
r ain
w on
w hat
Ġk uhan
Ġd ukung
ang el
Ġak a
em ia
am nya
Ġmen ata
as ah
Ġh uj
Ġh antam
ik uk
Ġy oshi
Ġl uncurkan
Ġmem enangkannya
Ġke el
Ġc oo
uh annya
Ġmer int
Ġmer untuhkan
Ġg egar
Ġmel amun
ol k
ol ai
Ġw arden
Ġbag ikan
Ġbag well
ent ik
Ġap art
Ġf ond
Ġf ade
ac her
Ġpr an
Ġpr ison
Ġayo o
Ġwak e
Ġkec ap
ew ek
Ġv ulkan
Ġtan aka
Ġpemb edahan
Ġjam uan
Ġters elesaikan
Ġdil edakkan
Ġdik omp
Ġterk asih
Ġcar r
Ġkup on
Ġle ague
Ġhat ilah
Ġberj udul
Ġbl air
ans e
Ġide a
sek al
ock s
Ġpesawat ku
Ġcat ch
Ġfrank enstein
ikasi kan
ogr ap
Ġnik i
Ġnik hil
Ġmengemb ali
Ġyour self
qu is
Ġkuper lukan
Ġpenyakit nya
Ġsamping mu
fikasi kan
use au
Ġinsp eksi
Ġras ul
Ġlag ilagi
fr ey
Ġmendes ah
Ġgus ta
Ġprod uc
Ġputer aku
Ġnil ain
Ġud ik
Ġberser agam
Ġmengan alisa
Ġclo useau
Ġkemalu annya
Ġmoh inder
Ġprith vi
Ġsanj ay
Ġemos imu
Ġbuff alo
Ġfai zal
Ġmccart hy
Ġplas ma
Ġaldo us
Ġelec tr
Ġalexand ria
Ġvoya ger
Ġpembek uan
Ġjaim e
Ġketidaknya manan
Ġperomp ak
Ġkuhan curkan
p as
t ons
u in
ak ti
Ġk wan
Ġs oh
Ġs ven
Ġs tern
Ġt aw
Ġt ow
Ġb umb
Ġmen anc
Ġmen arilah
Ġh em
Ġh ic
Ġl udah
id el
Ġper egangan
us uar
Ġsa il
on im
Ġg op
Ġbis ing
Ġseb erat
Ġoh ohoh
Ġhe aven
Ġbers en
Ġbers usah
Ġpr ima
Ġsed ia
Ġdis unt
Ġdis ambut
aks akan
Ġdir eksi
Ġterl empar
Ġkasih ku
Ġpert apa
Ġch al
od el
anj uti
Ġal g
Ġv u
Ġye ars
Ġmenj ernihkan
Ġst ac
Ġpel ur
Ġ2 30
antu i
Ġkecil kan
Ġmus ium
Ġmencari cari
Ġar en
Ġar teri
Ġar nold
ons truksi
Ġsp agh
Ġkr amer
Ġen zim
Ġlup ut
Ġand o
Ġuh m
Ġbulan an
aut an
ma al
ber ang
ha an
Ġmed itasi
Ġgambar mu
Ġplanet planet
Ġmembicarakan mu
Ġluk as
Ġyour s
Ġcas per
Ġpeg gy
Ġkent ucky
Ġtab ib
Ġterc ekik
Ġsl im
Ġsl ow
Ġmiss y
Ġsun il
engaruh i
Ġtw itter
Ġson ar
Ġrobert o
Ġlawan mu
erti ban
ye ong
Ġsak lar
Ġhum mel
Ġln d
Ġsor otan
Ġmerc usuar
Ġgol maal
Ġandrew s
Ġditak utkan
Ġsekeliling nya
Ġbgm n
Ġmengecek nya
Ġspek tr
Ġkebers amaan
Ġditangan mu
Ġditer apkan
Ġdiplom atik
Ġjav ier
Ġdokum enter
Ġhog w
Ġresepsi onis
Ġrog ue
hol m
Ġbuen os
Ġperab otan
Ġdarry l
Ġfurn itur
Ġterjad ilah
Ġbolak balik
Ġkeungg ulan
Ġxav ier
Ġheight s
Ġpenyalah gunaan
f ar
j ohn
p ar
w ill
Ġ icar
Ġs obek
Ġd ow
ang ku
ar na
Ġp ike
al di
em aran
it ori
Ġmen end
el et
id on
Ġkau inginkan
Ġper empat
us ul
ag awa
ti onal
Ġmemb uj
Ġmemb orgol
Ġr ash
Ġr itch
Ġr entang
Ġg alia
Ġn adinya
Ġsi put
Ġsi asiakan
Ġsudah i
Ġdir antai
Ġpeng ger
Ġpeng agum
Ġv and
Ġv oodoo
Ġku is
Ġku alami
Ġth re
ger ald
Ġtan ia
Ġpel elangan
akin jak
Ġkeh end
Ġmengg orok
Ġbr uder
ill s
Ġyo da
Ġyo gi
Ġpint uku
Ġgr ove
ej ak
ebut kan
Ġpeny idik
Ġpenj ilat
Ġdip ekerjakan
Ġdip enggal
Ġcl ap
Ġpend irian
Ġmar se
Ġz ep
Ġdar is
Ġle igh
ffff ff
Ġ10 5
Ġpl an
Ġel se
Ġjoh an
Ġfil ter
Ġng asih
asar annya
Ġmenget es
li ff
Ġmur doch
Ġkol eg
Ġsk uter
Ġji ang
Ġkud amu
Ġmah oney
Ġmaj or
Ġlay la
Ġburung nya
enj ar
ii y
Ġgen ius
Ġtrans isi
Ġpertemuan nya
ern er
Ġsing hania
Ġumum kan
Ġimp lan
Ġex tr
Ġdisel idiki
iss om
Ġasal ku
Ġberant ah
Ġfant astic
Ġdom ina
Ġidentitas mu
Ġpemak amannya
Ġaud itor
Ġmempr ogram
Ġdisek eliling
Ġintern ational
ren ia
rib ut
Ġgur ita
Ġcut ter
Ġrab ies
Ġterkutuk lah
Ġbh u
Ġvol t
Ġmengum pat
akut idak
Ġmenyeret nya
Ġnob el
Ġsign or
Ġliv ing
Ġspir al
Ġherb al
Ġmeneman inya
Ġtiger s
Ġnal ur
Ġgam es
Ġmind y
Ġwinter fell
Ġindones ian
Ġhorn et
Ġskip per
Ġpersel ingkuhan
Ġcort ex
Ġmenyulit kan
Ġparl emen
Ġgoy ah
Ġdiinter ogasi
Ġexcell ent
Ġbabys itter
Ġberten aga
Ġmarmad uke
Ġicar us
c ewek
d k
g ado
h av
l ong
l ich
m asih
r ator
s k
t uan
t entu
w here
Ġm any
Ġb ilangan
ah kannya
Ġp eb
Ġp ust
am oto
Ġse usia
ad ing
Ġh ed
Ġl amar
Ġl ose
Ġl endir
Ġl illian
Ġj b
Ġc ong
Ġmemb anjiri
uh e
ul uki
Ġg iv
Ġhar un
Ġpr ee
Ġterl indungi
Ġmengh ianati
uc he
Ġv og
Ġku as
Ġmenj inakkan
Ġst am
Ġst ead
Ġpel ana
uj in
Ġdib enci
Ġbr ow
Ġbr onson
Ġsh op
Ġtr ack
Ġsu v
Ġti g
ey e
Ġgr issom
Ġberl abuh
Ġkr aus
Ġkat rina
ffff i
ffff tidak
Ġbet ah
Ġkor e
Ġsil ent
Ġel ia
Ġbe aut
Ġangg apan
Ġperjalan anku
Ġmak mur
Ġpul sa
Ġdih antui
Ġer otis
Ġ9 7
Ġlemb u
Ġgen etika
Ġangk ut
Ġbuah buah
Ġangkat lah
ann er
Ġmon ter
Ġalat alat
Ġradio aktif
Ġperj elas
Ġroh ani
Ġbut ir
Ġgood man
Ġtump angannya
Ġsun set
Ġraj amu
Ġtur k
Ġav a
Ġditembak kan
Ġni inii
Ġaud i
Ġtam my
Ġmenuntut mu
Ġmendes is
Ġmendes ain
Ġpin okio
Ġkesel uruh
Ġnan as
Ġmenghukum nya
Ġfall ing
Ġnar nia
Ġkonser v
Ġdipr ediksi
Ġlim un
Ġkai au
Ġrincian nya
Ġrec eh
Ġmenanya imu
Ġmelamb aikan
Ġlant ern
Ġobser v
Ġpeop ie
Ġmelengk ung
Ġmenghabis kannya
Ġatlet ik
Ġsambut lah
Ġdidep anku
Ġreh ab
Ġuk iran
Ġmengizin kanku
Ġdiplom at
Ġhump h
Ġmika el
Ġpayudar aku
Ġpengalam anku
Ġshek har
Ġhul k
Ġstrateg is
kant ong
Ġpenggel edahan
Ġkair o
Ġberpat roli
Ġpemals uan
Ġmencipt akannya
Ġbarik ade
Ġbhu van
a ah
h wa
h og
m engg
o jok
t eman
Ġk oy
Ġt int
Ġb hi
at ra
Ġak i
al iku
ik es
ik ku
Ġl ess
Ġl antainya
apa ian
Ġber usah
Ġj og
Ġper kins
Ġsa ys
Ġr uk
Ġg ain
Ġbis ikan
Ġmel iput
ol t
Ġsek alis
Ġsek te
Ġsek ecil
ab e
int ir
Ġf ee
ib ukan
Ġdis ert
and i
angk ok
Ġket ertiban
Ġpeng isian
Ġv era
Ġv oss
Ġmasuk i
Ġpel uncur
ip han
Ġdib eb
Ġpem icunya
art inya
Ġtr ey
Ġpol y
Ġcer amah
Ġterus ter
Ġkub uka
Ġfr az
Ġseger alah
Ġkat apun
Ġsur prise
Ġkuat asi
Ġjoh ann
Ġsc rew
Ġmur dock
Ġwill ow
Ġed dy
su o
Ġmah aku
Ġmichael s
Ġcatatan mu
Ġkus adari
Ġmenolak ku
Ġjag al
Ġterc ipta
Ġled eng
Ġtol eransi
Ġfak ultas
Ġgig ih
Ġtur bo
Ġpam it
Ġbotol nya
Ġlil o
ait kan
Ġki ara
Ġstan nis
que z
Ġreb ei
bu quer
Ġmengajarkan ku
Ġdek lar
Ġjuli us
Ġhor se
Ġmenamp ung
bah arui
Ġpemandangan nya
Ġplay ing
Ġkompl ain
Ġhapp en
Ġlat te
Ġweb ster
Ġmenghukum mu
Ġbac kup
Ġhans on
Ġdur asi
Ġmenanya inya
Ġdub ai
Ġmengup ing
Ġduck s
Ġkesayangan ku
Ġmembas ahi
Ġriz zo
Ġkeram ahan
Ġmenyembuh kannya
Ġditanya i
Ġberang berang
Ġburg undy
Ġmerel akan
Ġmelec ehkan
Ġmartine z
Ġmori arty
Ġperkosa an
Ġmahasis wi
Ġmendug anya
Ġskep tis
Ġhogw arts
h ard
r ans
s eh
w ork
z en
Ġd ebut
Ġb aling
Ġdi ulang
Ġdi ungkapkan
Ġse ver
Ġh d
Ġber apapun
Ġj imbo
Ġke untungannya
Ġmeng und
Ġmeng ins
ir l
Ġc isco
Ġmer ilis
Ġg uci
ay u
eb abkan
Ġw c
Ġw agon
Ġya le
Ġorang utan
Ġtem en
Ġmenc egat
Ġmenc alonkan
od ifikasi
Ġterb ongkar
Ġal buquer
Ġv old
Ġku alifikasi
Ġrumah an
Ġpemb ajak
Ġpem us
baik baik
Ġberk ati
Ġmengg enggam
Ġwan itamu
Ġpet inya
Ġpet ey
Ġberl omba
Ġpeny impangan
Ġar om
Ġmes iu
Ġmar ni
Ġz im
Ġben son
Ġand atidak
Ġre aper
Ġkl im
Ġdengarkan lah
of il
Ġdic ky
Ġterd epan
Ġmo ody
ith y
Ġmc fly
own load
Ġwil kes
se o
Ġhabis lah
Ġusah aku
Ġpenjahat nya
Ġsch rad
Ġpip anya
Ġmenatap mu
sel amat
Ġpolitik us
Ġmont real
Ġkesehatan mu
Ġaud io
Ġlapor anku
Ġgaj imu
mo uth
Ġmemeriks amu
gy ver
Ġmelah ap
Ġmarsh m
Ġmenggantung nya
Ġlutut ku
Ġmengontrol nya
Ġgand hi
Ġmuk aku
angsa an
Ġborgol nya
Ġster oid
Ġmembodoh iku
Ġvin nie
Ġengg an
Ġmengas umsikan
Ġmorris on
Ġmengev aluasi
Ġpemas ok
Ġcc tv
Ġstein er
Ġjig saw
Ġhoff man
mak hluk
Ġcleo pat
Ġyur isd
Ġwint ers
Ġbron x
Ġterhind ar
Ġqua id
Ġmcph ee
Ġabsol ut
Ġterel akkan
Ġkegel isahan
Ġchihuah ua
Ġkemak muran
Ġspagh etti
Ġstead man
Ġmahaku asa
Ġalbuquer que
4 1
b elum
b orn
d ikan
f k
f ac
f hrer
h ewan
l ayang
n t
t angan
v y
y angk
ak utkan
Ġs ya
Ġs ona
Ġd erita
Ġd orn
am s
Ġdi x
Ġdi ev
Ġdi akses
Ġdi umumkan
Ġmen ua
Ġh uman
Ġh ogg
Ġy erus
Ġmeng ingkari
Ġdia z
Ġc e
Ġc tu
Ġc ip
Ġc acar
ut on
Ġg uar
Ġg ipsi
Ġw awasan
Ġbag imana
up aya
ama inya
Ġf ather
Ġf hrer
Ġkel enjar
Ġhal te
Ġmenc at
Ġbers arang
Ġpr ay
aya shi
Ġkemb aran
Ġket erb
Ġdir ubah
Ġbar nett
Ġpeng arahan
Ġterb erat
Ġmati us
Ġberp otensi
Ġser bu
Ġdib enarkan
Ġberd atangan
ec r
Ġbur sa
Ġtr ili
Ġtr unks
Ġmemper juangkan
Ġtel ak
Ġbang au
oc al
Ġdik el
Ġar tif
Ġar yan
Ġind y
usaha an
Ġtim my
Ġde eds
umb o
ffff tapi
Ġmemp edulikan
Ġwal sh
Ġger aman
aca o
era inya
Ġbern ad
Ġro ul
Ġpat h
Ġot is
Ġpe ziarah
Ġer is
Ġmy ers
Ġhak ku
Ġbo u
Ġpengg alangan
Ġtangg alnya
Ġinter vensi
Ġrem ember
Ġmac gyver
Ġcon c
Ġpegang i
Ġta ani
Ġayam nya
Ġmor ello
ling er
Ġfe et
tic us
Ġbarb ek
Ġstar s
Ġasisten ku
Ġmengusir mu
Ġwood s
Ġpetern ak
Ġconn ec
Ġkesed ih
Ġekstr aksi
Ġkamer ad
Ġnor ris
Ġven ice
Ġnav ig
Ġlumb ung
Ġhob bit
Ġmenangg alkan
Ġsekamar ku
Ġmempers ulit
Ġjoseph ine
usn ahan
Ġthor ne
Ġmelamb ai
Ġhur ric
Ġlaku in
Ġhant unya
Ġbody guard
Ġfitz gerald
Ġbrig ade
Ġdiak hiri
Ġdw ight
Ġimpul s
Ġolymp us
Ġlent era
Ġez ra
Ġhany ut
Ġbrok en
Ġpemuk iman
Ġdakwa an
baj ingan
Ġhalel uya
Ġcleopat ra
Ġyerus alem
b aru
g les
j atuh
n el
n enek
s ec
y uki
Ġm ira
Ġs akin
Ġs tig
Ġb org
Ġp ist
Ġp uri
Ġp indahan
em ort
it her
un ahan
Ġmen anamkan
Ġmen odai
Ġl r
Ġkau r
Ġber anda
Ġmem udah
or in
ari ah
ur s
ut unggu
Ġr empah
Ġo oo
Ġmel irik
Ġsekarang lah
ib an
Ġkar b
eh ee
Ġdir uang
Ġch ec
Ġpeng umpulan
Ġv ance
Ġker iput
Ġst all
Ġman i
Ġpem impi
Ġsh ower
ch es
Ġkap it
Ġpeny erahan
Ġkr am
Ġmar oko
Ġde i
Ġsekolah an
ffff dan
Ġwal king
Ġmemer ankan
Ġpl eton
Ġng ant
ust om
Ġbir d
Ġkont estan
Ġdol ly
buk ti
Ġhadiah ku
Ġsiang nya
Ġmatah achi
tur e
Ġdel egasi
Ġdag ang
Ġgl am
Ġtind akannya
Ġx ander
Ġmod ul
main kan
Ġkuper lihatkan
Ġtump ul
Ġperbuat anku
Ġlind say
Ġmenyayang iku
Ġmei ihat
Ġkompet itif
Ġmembawakan ku
Ġlev iat
Ġsuh unya
Ġkit alah
Ġipar mu
Ġdec ker
Ġmempermain kanmu
Ġdob by
Ġtit ip
Ġmust ang
ns worth
Ġrox ie
Ġmengul urkan
Ġbour bon
Ġic eman
Ġcoc o
maaf kan
Ġlb h
Ġlav a
Ġmenyew anya
Ġej ekan
Ġhemb usan
Ġnatur al
Ġparupar unya
Ġsyst em
Ġbereks perimen
Ġcorpor ation
Ġsekalis ekali
Ġvold emort
5 6
a irkan
c ow
h ati
m ph
o ya
o oth
p ekerja
p esan
s ama
t itik
v as
Ġ ack
Ġk unyah
Ġs asarannya
Ġt hir
at su
Ġp ump
it nah
Ġmen st
Ġh ori
ik us
Ġl ir
Ġl uncur
id rasi
Ġber untun
Ġj ose
Ġmem arkir
ir us
Ġc ember
Ġter tuju
on om
Ġmemb ius
Ġmer i
et in
Ġw ent
Ġw ord
Ġsem asa
ant au
amp ungan
Ġmend anai
Ġpen antian
Ġkep ahlawan
Ġch ai
Ġkes ucian
Ġmalam ku
Ġterb angkan
Ġterb ebas
Ġal m
Ġmul a
Ġdib ekukan
Ġkeh ausan
Ġsep ant
Ġdik et
ev ia
Ġberl umuran
Ġberl impah
Ġpeny u
Ġar ist
Ġterk ontaminasi
ebat kan
Ġso nya
Ġmemang sa
Ġminum anmu
Ġsp ion
Ġmenik ahkan
Ġluc ian
Ġle arn
Ġmenel annya
Ġdekat mu
Ġkor eksi
Ġpanggil anmu
Ġjack pot
omp o
Ġdih ubungkan
Ġsir e
ber ad
li f
Ġ7 30
Ġ20 10
Ġed ison
Ġperusaha anku
Ġsemb uny
Ġkons umen
Ġha z
Ġ19 0
ert as
Ġperc epat
Ġberat mu
Ġbus ter
Ġmad emo
Ġikan nya
Ġhol a
Ġluk al
Ġkisah mu
Ġmary land
Ġbertah ap
Ġgas nya
Ġleb owski
Ġmenawarkan mu
Ġraj in
Ġmurid mu
Ġpus s
Ġcia o
Ġep il
Ġrad he
Ġdilihat nya
Ġpac o
Ġmenamp akkan
Ġwoo chi
Ġfar nsworth
Ġlutut nya
Ġchan el
Ġmenjebak mu
Ġprop orsi
Ġmerem eh
Ġranc ho
Ġekspr es
Ġabb ott
Ġdihapus kan
Ġdeep ak
Ġbamb u
Ġgoyang kan
Ġmenyiks anya
Ġchick en
Ġiv y
Ġpemec ah
Ġmerk uri
Ġsala zar
Ġmenges ampingkan
Ġsaudarasaud araku
Ġbros ur
Ġbast ard
Ġdises uaikan
Ġkecepat annya
Ġcorr ected
Ġpurgator y
Ġliver pool
Ġcassi us
Ġhek tar
Ġbuahbuah an
Ġberusah alah
Ġbernad ette
c er
f an
h atikan
j ong
l av
l ash
Ġ urat
Ġ ech
ak un
Ġm angs
Ġs oci
Ġd ho
Ġt ail
Ġb ia
Ġb oe
Ġp akan
Ġp ock
ap el
Ġmen am
Ġmen oleh
el ei
Ġh ongkong
Ġmem il
Ġper ancang
ir ut
Ġc ulik
Ġkam im
Ġr angk
Ġmer e
Ġg ome
Ġo og
Ġn ort
Ġmel odi
Ġmel oncat
ay ette
Ġdari us
Ġhar tanya
Ġmeny andera
Ġmeny umbangkan
ep s
any ilah
Ġkem itraan
Ġok lah
Ġlihat lihat
Ġma o
Ġberb icar
Ġberb atu
Ġkes ibukan
ist s
od es
Ġv ader
si onal
Ġdim enangkan
ger ia
Ġas ah
Ġpemb at
Ġpem inda
Ġbur ma
Ġseh ubungan
Ġsen apannya
Ġol sen
Ġag aknya
Ġtr uth
Ġthe a
Ġdil ayani
Ġked ap
Ġdik ontrol
Ġmat im
Ġkul epaskan
Ġped alaman
Ġkub is
Ġz am
Ġpembunuh annya
ffff dia
Ġberj atuhan
Ġno el
Ġdet ektor
Ġlo od
Ġcat hy
Ġhukum nya
Ġarah an
ens ei
ink y
Ġsis ilia
Ġsm iley
Ġpar adis
Ġpengg ali
Ġmad onna
Ġmembangun kanku
Ġall ie
Ġor al
Ġpop s
Ġrak us
Ġgedung nya
Ġjiwa jiwa
Ġkuber itahukan
Ġpeg as
Ġpihak mu
Ġry o
Ġkac angk
pr ia
Ġsl am
Ġfir ewall
Ġsun bae
Ġchris tie
tic s
Ġnasib nya
Ġsabar lah
Ġmenet eskan
Ġpri x
Ġsenyum lah
Ġsewa an
Ġlamp au
Ġlen non
Ġpartner mu
Ġpro ject
Ġcem ilan
Ġdijalan an
Ġcd c
Ġhur ley
Ġhend erson
Ġmenghak im
Ġpest aku
Ġteor imu
Ġistan bul
Ġstory brooke
Ġshort y
Ġselar as
Ġmeringk uk
Ġsinc lair
Ġdirek rut
Ġmembur umu
Ġkesemb ilan
Ġplank ton
Ġmembahagi akan
wor ld
Ġdeton ator
Ġmerint ih
Ġauditor ium
Ġschrad er
Ġbarbek yu
Ġcember ut
Ġgome z
b ahan
q i
Ġ ung
Ġ aim
Ġs iku
Ġd t
Ġd edikasi
Ġt ori
Ġt apak
as si
Ġh ent
Ġl ukai
Ġber wajah
Ġj ompo
Ġmem enangi
il in
Ġper ez
us aja
Ġmeng ar
Ġmemb entang
Ġmer eda
Ġn ini
Ġn ord
Ġsel ancar
Ġsel ular
Ġmeny e
Ġap arat
uar do
end ra
Ġkel emahannya
and anya
Ġmember atkan
Ġbi o
Ġpeng aku
Ġv argas
Ġberp et
Ġkeb aikannya
Ġser vis
Ġdib orgol
Ġdit ikam
Ġmemper lihat
Ġdun k
ont rak
Ġked elai
Ġny et
Ġam igo
Ġdip engaruhi
Ġid ol
Ġmar sekal
Ġz eke
Ġz hou
Ġbermain lah
Ġsam ars
Ġsur aj
Ġluc ie
Ġle ila
Ġng ebut
Ġres ort
Ġlo omis
Ġmenak lukan
Ġterj emahkan
engg ang
mas ter
Ġfl o
Ġul at
Ġhot dog
Ġtoko ku
Ġpal ang
Ġfor bes
Ġdam as
Ġus s
Ġrem nya
Ġangin nya
Ġtindakan ku
Ġjep it
Ġamb oi
Ġtiket mu
di es
Ġmengad ukan
Ġproy eksi
Ġjan in
Ġrev ol
Ġlinc ah
Ġjuli en
rib us
Ġgreg or
mem iliki
Ġmemanfaatkan mu
Ġwalt z
Ġfun ny
Ġmenggambarkan nya
Ġmotif nya
Ġaut o
kand ung
Ġfig gins
Ġcorn elius
Ġcomm ander
Ġabb ey
Ġwhist le
Ġclaud e
Ġler eng
Ġbrit ish
Ġsalin annya
Ġmengizin kannya
Ġmembohong imu
Ġdetil nya
kap al
Ġditem pa
ecti ons
Ġcid era
Ġfif i
Ġkeped ulian
Ġvern on
Ġcharm ing
Ġtrin ity
Ġpengep ungan
Ġbm w
Ġbbr p
Ġmenend angnya
Ġpust ak
Ġkacangk ac
b esarkan
i ons
l ot
p an
r amu
r aina
w eh
Ġd l
Ġt ati
Ġt su
en erasi
am is
am ing
Ġdi ujung
ad api
Ġl ena
Ġtid a
Ġmeng intimidasi
Ġter tib
im ir
ung utan
ul angan
Ġg unc
Ġg ov
Ġw ords
Ġsem angkuk
Ġsi am
ab ukan
Ġf ix
Ġbah ayanya
ub ur
aku akan
ep ort
Ġpen olong
Ġbers et
Ġken ai
Ġbel erang
Ġkep ler
Ġkep unahan
Ġpeng ukuran
Ġv oting
op ang
op ot
Ġst itch
Ġmul anya
Ġkan ibal
Ġman sion
Ġdib atasi
Ġberd enyut
Ġmengg oreng
Ġsh ing
Ġsh ip
Ġsh out
jalan an
Ġters adar
Ġti en
Ġdil anggar
unc tion
Ġtert ular
Ġsp ong
Ġmar ina
Ġen kripsi
Ġz et
Ġz ig
ju alan
umb uh
Ġwal ton
Ġli f
ans on
Ġbuk akan
Ġng eb
Ġberg ulat
Ġkemar en
Ġkomp osisi
intang i
Ġup eti
Ġ9 3
engg u
Ġge ar
Ġtom as
Ġpengh asil
Ġlay u
Ġtek o
Ġkad ar
Ġir isan
Ġkus ukai
Ġgem ma
Ġmark us
Ġmod us
Ġooh ooh
Ġcon way
Ġvir tual
Ġtab ah
Ġop tik
Ġpenerbangan nya
Ġmendorong mu
Ġcek ik
Ġmerubah mu
Ġmengin v
Ġmerawat ku
Ġdu et
Ġditembak i
Ġmi yuki
Ġet ta
Ġna evia
Ġjin ak
Ġmemperlakukan nya
ye ar
Ġmelempar mu
Ġdibelakang nya
Ġlapor anmu
Ġcuc umu
Ġpac uan
Ġmerebut nya
Ġbow man
Ġhero es
Ġkeponakan mu
jo ur
Ġunt il
Ġ36 0
Ġhind i
Ġkoord in
Ġkw ang
Ġmenukar nya
Ġlec et
Ġub i
Ġsuz uran
Ġmenyemp urnakan
Ġmengay un
Ġdiperh itungkan
Ġgard ner
hart ha
Ġskr g
Ġinn ov
Ġlaugh ing
Ġtung ku
Ġkei uar
Ġmengind ikasikan
Ġsidd hartha
Ġchoc ol
Ġbened ict
Ġmemon itor
Ġpemad aman
Ġhast ings
Ġyurisd iksi
6 8
c abik
h on
h ish
k ers
s uko
v ed
ak ud
ak ian
Ġm aki
Ġs ank
er ak
er anya
Ġd oe
en n
it eran
Ġdi obati
Ġse isi
ad as
ad apat
Ġh in
Ġl ich
id d
us si
ag g
Ġc uck
im ura
Ġr ishi
Ġmer apat
Ġn ino
Ġn andu
et z
Ġw itch
ab iasa
Ġf uk
Ġf aye
Ġmend edikasikan
Ġmend ownload
ib i
Ġmenc akar
Ġmenc ocokkan
Ġsangat sangat
Ġdis adap
Ġken neth
Ġma en
Ġket awa
Ġset ir
Ġal ong
Ġal angkah
Ġdim obil
Ġtet esan
Ġpemb agian
Ġberk eb
Ġbr illi
Ġdit iup
Ġwan itaku
Ġpes at
Ġdil lon
Ġkap lan
Ġar my
Ġterk ini
Ġdr ink
ank ing
Ġcl ari
Ġbat erainya
ffff ini
Ġdiper ingatkan
Ġmil imeter
Ġbe irut
Ġterp anjang
Ġperb inc
Ġsk at
Ġnat asha
Ġdo om
Ġlu is
Ġfl oor
Ġmengubah mu
Ġhubungan ku
Ġdel gado
Ġcel este
Ġbon jour
Ġjo urn
Ġmengant ri
Ġmengemb ang
Ġcas ino
Ġhewan hewan
lin es
Ġkeper gian
Ġmor se
Ġcal lahan
Ġsihir nya
Ġknow s
Ġcor al
Ġklien nya
Ġdisel enggarakan
Ġly ra
Ġtw ink
Ġdown load
Ġtir ani
Ġroger s
Ġsepak ati
Ġpink man
Ġump et
Ġmahk ot
Ġpass port
Ġlor elei
Ġasl iku
Ġmargar ita
Ġvo ila
Ġmenempel kan
Ġnger i
Ġpic asso
Ġprinc eton
Ġkw ek
Ġelektr ik
Ġveg eta
Ġmenuntun ku
Ġteng ik
Ġhend rick
Ġnit rogen
Ġtetangg aku
Ġuk raina
Ġdihad apkan
Ġperek rutan
Ġkonvensi onal
tug as
Ġfus co
Ġess ex
Ġkelemb aban
Ġquint us
Ġsiri us
Ġvert ikal
Ġsif atnya
Ġmcgr egor
Ġsangk ar
Ġlaund ry
Ġmemprov okasi
Ġmembuj uknya
Ġpree ti
Ġoog way
Ġoklah oma
Ġsamars amar
Ġinnov ation
Ġbrilli ant
9 6
c onsin
o ir
p otong
q ui
t am
u il
Ġ angkanya
an ut
Ġm oo
er min
Ġd ll
Ġb ev
Ġb umbu
ap u
it at
it on
Ġan onim
Ġmeng asy
ir anya
ir ot
ek nya
ti us
Ġn ub
Ġw ir
Ġsek urit
Ġmeny eka
amp iri
amb akan
Ġmenc uc
Ġpen angkal
aj ukan
Ġbers angkutan
Ġkes et
Ġkec ocokan
ew ood
Ġkeb alikannya
Ġpel um
Ġas asi
Ġpemb imbing
Ġpem inum
Ġberk e
Ġkot anya
Ġmemper jelas
ĠĠ ĠĠĠ
ont a
Ġberm il
Ġluar biasa
Ġdik lasi
Ġpeny endiri
Ġam and
Ġsp ace
Ġjel i
ani um
Ġmenang isi
Ġluc ia
Ġkut aruh
Ġkej atuhan
Ġger ej
ra z
Ġkesempat annya
Ġgel andang
omb ol
Ġbos nia
Ġsk ating
Ġed uardo
Ġdo in
Ġsemb uran
Ġq ur
Ġq ian
Ġgag ang
Ġbintang nya
Ġmengubah ku
su f
Ġpres dir
Ġha iti
Ġobat mu
ott s
Ġdah i
Ġsus p
Ġspesi fikasi
yar atkan
Ġgre ene
Ġkelompok nya
Ġpenerbangan mu
Ġmist is
Ġry der
Ġkuper jelas
ave z
Ġtand atangan
Ġmengab dikan
Ġpasien nya
Ġgay aku
Ġtersenyum lah
app y
Ġnot e
Ġuntung lah
Ġland on
Ġtor u
Ġcre ed
Ġmelatih mu
Ġevery one
Ġdeh idrasi
Ġeng land
Ġfun k
Ġmengasih ani
Ġjudul nya
Ġmanu el
Ġkaub icarakan
Ġtry ing
Ġmig rasi
Ġmenyal urkan
Ġparam eter
Ġmemperb olehkan
Ġmenghalang inya
Ġditer uskan
Ġpenjag al
Ġblood y
zu ela
Ġmaxim us
Ġmenggul ung
Ġmingg uan
Ġbias abiasa
Ġstock holm
Ġdrac ula
Ġcontin u
Ġpencer naan
Ġkegug uran
Ġmempertahan kannya
omod asi
Ġbeaut y
ithy ia
Ġsakin a
Ġsepant asnya
Ġmatim atian
Ġpustak awan
Ġkacangkac angan
b incang
d id
f ungsi
h el
i ger
j e
m arah
o ot
ak as
Ġt old
in ak
al th
Ġmen amainya
Ġse ku
Ġse gi
ad alam
Ġh aknya
Ġh indu
Ġl ada
Ġj fk
Ġsa ber
Ġsa una
ag anda
Ġmeng is
Ġmemb om
Ġmemb entak
Ġr av
Ġr imb
Ġn ept
ihat inan
Ġsi an
Ġsel epas
Ġsel endang
Ġmeny em
Ġf ah
Ġf ill
amb i
ed ral
Ġsat ud
Ġkem ej
Ġken angk
Ġju g
and am
Ġbeg o
Ġket uk
Ġmengh asut
Ġkep int
Ġkep alan
Ġch avez
ter angan
Ġv etti
Ġku i
Ġman if
Ġmenger ingkan
Ġdib uktikan
ulang kan
Ġsh ab
Ġtetap kan
ri um
Ġmin im
Ġkh abar
Ġpint up
Ġgr as
Ġgr oss
Ġfr ame
Ġdip egang
Ġz ur
Ġle one
Ġpan itia
Ġkum akan
Ġkut awarkan
Ġdid akwa
Ġng aw
ma an
Ġbab u
Ġpe ac
Ġinf us
Ġ8 30
Ġdo ub
Ġdo od
Ġcr ew
Ġha il
Ġsis w
Ġ15 00
Ġkorban kan
Ġmad dy
Ġtrans it
Ġmark et
Ġgre ase
Ġdij atuhi
ihir o
Ġsemangat nya
Ġmendekat imu
Ġcewek cewek
Ġkepercaya anmu
Ġris au
Ġmik ha
Ġhir sch
Ġekor ku
Ġwis consin
Ġtang is
Ġlift nya
Ġplay er
Ġatl antis
Ġboo gie
ebr as
Ġabang mu
Ġzomb i
Ġdetail nya
vis or
Ġbeat les
Ġgentl eman
Ġgemb el
Ġmud aku
Ġpembel ajaran
Ġberkh ayal
Ġfight ing
Ġgob lin
Ġpeneg akan
Ġsylv ia
Ġdias ingkan
Ġhipot esis
Ġgim me
Ġfal con
Ġnev ille
Ġjangg al
Ġjangg ut
Ġmene kannya
Ġroc co
Ġselar ut
Ġmenyert ai
Ġpayudar amu
Ġsach in
Ġarke ologi
Ġhalam annya
Ġvok al
Ġpertolong anmu
Ġhersh el
Ġbersen andung
Ġkonserv atif
Ġmarshm allow
Ġmademo iselle
Ġepil epsi
Ġsoci ety
Ġberpet ualang
Ġvetti us
4 9
b ing
b ons
c ah
c ong
d im
e os
n ar
ak h
ak alan
Ġm ala
er oboh
Ġd uch
Ġt ach
Ġb oh
ah ari
Ġp eka
ya m
ap ah
it ha
Ġdi ary
Ġdi esel
Ġaku arium
Ġse y
Ġse arch
ad ewa
Ġh aya
Ġj ok
ir am
ut ter
Ġr ode
uh kannya
Ġmer ger
Ġmer edakan
ul kannya
Ġn anya
eb uah
per m
Ġseb egitu
Ġsi ber
Ġat ticus
Ġpen it
wa it
Ġkem urnian
Ġbel t
ist ir
ist im
Ġpemb ajakan
Ġpemb asmi
Ġsh ine
Ġdit anyakan
asan anya
Ġdil alui
ump ut
Ġgr ub
Ġgr ib
og o
Ġbay on
Ġam ar
Ġam ir
Ġind o
Ġterk ilir
Ġah med
Ġdr y
Ġz il
ers e
Ġle av
Ġfil suf
Ġalam iah
Ġdih at
Ġcat h
Ġpe anut
Ġperk ampungan
Ġdig ali
if i
Ġhak mu
Ġfl eks
Ġil ithyia
Ġmemukul iku
Ġcharl ene
Ġperc intaan
Ġwe iss
Ġul rich
Ġsang min
Ġus ulan
Ġhotel nya
Ġpang er
th at
Ġgem a
Ġhy ena
Ġ200 3
Ġmengec oh
Ġkir iku
Ġkac anya
okus kan
Ġ16 0
Ġbatas batas
Ġmenet r
Ġdisk ors
Ġpengantin nya
Ġja ehee
Ġlas ky
Ġhir aukan
Ġmenekan kan
Ġgur auan
Ġgend ong
Ġsho ot
Ġtai wan
Ġgran ny
Ġur in
Ġgand akan
Ġcop ot
Ġvik ram
Ġmagnet ik
Ġcita cita
Ġzo om
Ġmengijin kannya
Ġgin ny
Ġtenggoro kanku
Ġtro uble
Ġcav eman
Ġskin ny
Ġpembaca an
Ġraf ael
Ġpand ora
Ġreput asiku
Ġwaf el
Ġbeh ind
Ġgund ukan
Ġlon jakan
Ġpenyelundup an
Ġmengeb or
Ġsci ence
Ġpenak luk
Ġlui gi
Ġberdeb u
Ġdak ota
Ġmenggemb irakan
Ġtermin ator
Ġtempel kan
Ġguill ot
Ġbrigh ton
Ġcay man
Ġdest iny
Ġcuck oo
Ġkenangk enangan
c antik
i ong
w ith
ak n
Ġm ohan
Ġm otto
Ġt unjuk
Ġb em
Ġb olong
Ġp all
Ġdi ari
Ġmen indak
ad engan
Ġh uai
Ġke aton
Ġper und
Ġper form
Ġsa e
Ġapa apan
Ġc ilik
Ġc nn
Ġad ap
Ġmemb ubarkan
Ġg ust
Ġo le
Ġn os
eb ridge
aw anya
ent e
Ġsel at
Ġf ana
Ġf asis
Ġf ogg
Ġdalam ku
end ok
ok kan
Ġpen antang
Ġhe ard
aks an
Ġbel adiri
angk o
Ġket agihan
Ġdir ektor
Ġmengh uj
Ġmengh afal
Ġch au
Ġch or
Ġker ahkan
Ġdim asa
arah annya
Ġpem utar
Ġmengg eliat
Ġbr ah
Ġag nes
Ġcara cara
Ġdil ema
Ġberm urah
Ġberm unculan
Ġmus ibah
Ġpet isi
Ġar lene
Ġso u
Ġen aknya
Ġberikan lah
Ġhentikan lah
ubuh i
Ġpanggil anku
Ġgo in
Ġmak elar
Ġpenc apaian
Ġlo op
Ġun ni
her n
Ġwill ard
Ġtu as
Ġmenyebut mu
eral d
Ġho over
Ġsis akan
Ġpo irot
Ġsuper visor
land o
Ġjo ong
Ġla x
Ġx in
Ġcob ra
atis asi
Ġtengg at
Ġjess up
Ġba e
Ġkehormatan ku
Ġ200 6
Ġsebut annya
Ġell i
Ġmenyalah gunakan
Ġsn ake
Ġpasien ku
Ġmemperh itungkan
Ġmarc y
Ġrev iew
Ġmemperhatikan ku
Ġrad h
Ġpac ific
Ġlag umu
Ġbec ker
Ġrahasi akan
Ġperkata annya
Ġgray er
Ġconn ors
Ġjangk au
Ġfly ing
mes in
Ġkesuka annya
Ġpur ba
Ġkesabaran ku
Ġwould n
Ġtawar annya
Ġmerepot kanmu
Ġkill er
Ġfol low
Ġpengeb om
Ġmengharap kanmu
Ġstadi um
Ġthr ac
Ġemil io
Ġear hart
Ġreput asimu
Ġbernard o
Ġvul gar
Ġmeras uki
Ġmoss ad
Ġnes tor
Ġpemuja an
Ġmenjump ai
Ġvlad imir
Ġchew ie
Ġbahagi anya
Ġkepr ihatinan
Ġhic cup
Ġparadis e
Ġdiklasi fikasikan
8 7
b ekerja
d ip
k ed
l eg
n or
p ara
r aj
r ine
s al
u askan
v ous
Ġ aya
Ġ ench
ak el
Ġm aling
Ġk uny
Ġk lein
Ġs osuke
Ġt us
Ġt bag
Ġb t
Ġp ati
Ġdi ukur
Ġdi angkut
ad emy
el ek
ik mati
Ġl ian
Ġl ula
Ġber otot
Ġper okok
ag ama
Ġmeng ada
Ġmeng usahakan
ek in
Ġr eda
Ġmer endah
Ġmer rick
Ġg ala
Ġg lo
Ġo ye
Ġn ebras
Ġmel ingk
et kan
Ġw ush
Ġsel angkangan
Ġmeny akin
Ġmeny ewakan
Ġmeny egel
ub en
ob ar
Ġkemb aii
Ġkep ung
Ġbar n
Ġberb aju
Ġpas c
anj ur
Ġv ib
Ġv ort
Ġth und
Ġst eel
Ġberd agang
Ġtinggal nya
ec uali
Ġbur ning
Ġol af
Ġmu eller
ri er
Ġnam akan
Ġtert aw
Ġdik r
Ġpers ent
Ġpers eus
Ġpend anaan
Ġkat alis
Ġe ja
Ġmenel antarkan
Ġto ast
Ġbl g
re i
Ġbal tha
Ġsatusat u
Ġmak lum
Ġterp uruk
Ġro ot
Ġmand or
Ġge ary
osi asikan
abuk kan
Ġgar field
Ġsus unan
Ġrep r
Ġgil anya
se if
Ġpop ularitas
Ġ0 12
Ġkomputer mu
Ġ200 2
Ġ18 00
Ġkeper awanan
Ġgal ak
Ġmemakan ku
pr insip
Ġky u
Ġlou isa
Ġray uan
Ġtump ahkan
Ġu z
Ġcur am
Ġperp indahan
Ġval id
Ġistim ew
Ġujian nya
Ġpenya yang
Ġki asan
Ġdom est
Ġjaket nya
Ġpor sche
Ġasisten nya
Ġmenghajar ku
Ġindustri es
Ġlight s
Ġgri zz
Ġklin is
Ġlob ang
Ġven esia
Ġkaz eh
Ġmenyiks amu
Ġdumb o
Ġlatih annya
Ġhung aria
film kan
Ġeb ay
Ġrefl eksi
berh enti
Ġtenag amu
Ġvid ya
Ġkekuasa annya
Ġinfant eri
Ġketakut anmu
Ġbirok rasi
Ġcanda ce
Ġgau ri
Ġchak ra
Ġrit me
Ġfrans isco
okum entasikan
Ġtosh io
Ġteruster usan
Ġleviat han
Ġmenam akannya
Ġpembat alan
Ġchocol ate
Ġsekurit i
Ġzur ich
Ġbaltha zar
4 3
b apak
d ell
k ecil
l ass
l augh
n eck
w akt
Ġ orn
Ġm ost
Ġs g
Ġs ri
Ġs ly
Ġp aj
Ġdi oksida
Ġmen tor
Ġmen argetkan
Ġmen dayung
Ġl aj
Ġj ee
Ġj ilat
Ġmem uncul
Ġke ung
il o
Ġsa ge
or eksi
Ġmeng ungsi
Ġc in
Ġmemb urunya
Ġmemb utakan
Ġr ian
Ġr ongga
Ġmer aka
Ġg iri
Ġg ate
Ġn ab
Ġn ott
Ġtak jub
Ġay unkan
ant as
Ġmeny od
ab rik
agi alah
Ġf asih
Ġbah w
ed or
Ġmenc abik
Ġpen ind
Ġpr ak
Ġkem unduran
Ġkep sek
Ġch ihiro
Ġpeng kh
Ġkeb alikan
Ġdib utakan
Ġberd ampak
Ġas uka
emp rot
Ġnya da
Ġburuk mu
Ġgr anger
Ġdr over
Ġmar ily
utup i
Ġz amb
Ġben z
Ġkup ilih
Ġant ony
ard on
Ġto ok
Ġkek amar
Ġger angan
Ġkeras keras
Ġjen ewa
Ġkemari kan
Ġbern af
Ġng es
Ġ6 1
Ġsc ene
Ġpenc ahaya
Ġdih uni
Ġcerita cerita
ui ang
Ġpesawat mu
Ġ7 3
Ġsk ak
Ġed ith
Ġed ge
Ġmy ka
Ġstr aus
Ġwe as
ens h
Ġins pir
Ġnik olai
Ġcatatan ku
Ġpengg oda
Ġram ses
Ġdiber itahukan
Ġpu itis
Ġmembuk akan
Ġperj aka
Ġpi per
Ġsumb u
aa a
Ġjembatan nya
Ġwo ohoo
Ġpri anya
truk sikan
Ġdirumah ku
itz er
Ġgul ma
Ġfisik awan
Ġsom ew
Ġhaw kins
Ġren ovasi
Ġlot ere
Ġtat t
Ġkepon akannya
Ġpartner ku
Ġnor ah
rer o
Ġruss ia
Ġmenghisap nya
Ġberbah agialah
Ġmatthew s
Ġkandung mu
Ġmath eson
Ġberser u
Ġkonst elasi
Ġgett ys
Ġtut ul
Ġnig ga
Ġcah ill
Ġlac ey
eau x
Ġnir kabel
Ġmengangg uk
hot ra
Ġmeren ungkan
Ġern esto
Ġkacamat aku
Ġnut risi
Ġmenyir am
Ġchev y
Ġmengaget kan
Ġbone kanya
los kan
Ġpengan iayaan
add in
Ġcomb o
Ġsurve i
Ġkemarah anmu
Ġwast afel
Ġfergus on
Ġmeneri akkan
Ġmembet ulkan
Ġditangg uhkan
front asi
Ġjorg e
Ġmeroboh kan
Ġbint ara
Ġmcn ally
Ġneut ron
Ġmorp heus
Ġlukal uka
Ġtati ana
Ġngaw ur
b il
b iarkan
c ake
h ukum
p ret
s amp
t uk
Ġt iny
ap nya
am ak
un aga
Ġdi alami
as ini
Ġh ert
Ġj ewel
is in
Ġmem esannya
ag reen
Ġc edar
Ġc ullen
on da
on aktifkan
im asi
ing mu
Ġo da
Ġo of
Ġn ok
Ġn ampan
Ġmel man
Ġmel esat
Ġmel etakan
aik a
ol ek
ja e
Ġsek oci
up uk
up si
ini us
Ġing rid
ant ine
Ġmas al
Ġsel ada
end i
Ġhal e
af kan
Ġterl acak
Ġpeng ukur
anj urkan
Ġterb uru
Ġkalau kalau
Ġal addin
enti f
Ġker amat
Ġtet suo
Ġbesar ku
Ġkan na
Ġpem otr
Ġberk eluarga
le en
aga an
Ġsh ark
Ġdit elan
Ġsu zy
Ġsu venir
Ġperm ainkan
empat kan
Ġmin it
ig ur
Ġmenyel ipkan
og ne
Ġmenya bot
Ġminum anku
Ġsec ond
man i
Ġmar lene
Ġz ee
Ġkuk unya
Ġkej antan
Ġkej elasan
Ġdiper mainkan
Ġkl o
Ġbl ind
Ġgel adak
Ġng ompol
Ġberg antian
Ġob ses
Ġterp anas
sek olah
ock er
Ġon ar
anggung jawab
Ġpe agreen
Ġhukum anmu
Ġterd iam
Ġmis cha
Ġfl ush
Ġfl eming
ink i
Ġmakhluk makhluk
Ġor lando
Ġimp rovisasi
Ġmod ifikasi
Ġmengem asi
Ġlar va
Ġmembel ai
ekan an
bffff kita
Ġjej u
Ġprogram nya
Ġmengganti kanku
Ġval e
uti on
Ġimpian nya
Ġmeman askan
Ġatap nya
Ġwho ops
Ġpenderita annya
Ġpenggemar mu
Ġtor onto
Ġpid at
Ġkompet en
Ġbangkit lah
Ġwant ed
Ġsah aja
cr ed
Ġwhit more
Ġkah n
Ġkob ayashi
Ġlilin nya
Ġkuj amin
Ġmenghibur ku
Ġporn ografi
Ġpenyam b
Ġtrav el
Ġmempermalukan ku
Ġmengharga imu
Ġdos en
con nell
Ġkandung nya
Ġmenghormat iku
Ġvent ura
Ġmengenc ingi
Ġberkep ala
Ġlud wig
Ġmengizin kanmu
Ġmenant uku
Ġmengangg ur
Ġbann er
Ġvul can
Ġlav ender
Ġanggot anya
Ġkacamat amu
Ġira q
Ġhadap ilah
Ġlencan amu
Ġmenguj inya
Ġfem in
Ġfreder ick
buck s
Ġmemunt ahkan
Ġaff air
Ġadal ind
Ġtooth less
Ġstraw berry
Ġnilain ilai
Ġcortex iphan
Ġnavig ator
Ġpeminda ian
Ġperbinc angan
Ġelli ott
Ġnebras ka
Ġwush u
Ġpemotr etan
k atakan
n omor
Ġm ab
Ġs enar
Ġd ora
Ġt up
Ġb unc
it tie
ad il
Ġh ap
ik awa
uk akan
Ġber inter
ek o
Ġter tera
on ik
im es
Ġr uncing
Ġmer r
Ġmer le
es ti
Ġg ide
Ġn and
et ri
per n
Ġsel ebaran
Ġmeny inari
ab awa
Ġf uj
ed ers
Ġbert em
Ġbert ulis
Ġju alan
and uk
Ġbar king
Ġbi asakan
Ġbi iang
Ġch azz
Ġpas aran
Ġset ua
ind ir
Ġv ila
Ġku z
Ġth eta
Ġmenj ej
Ġas hur
Ġpem anggang
Ġpem usnahan
Ġkeh ar
Ġberk enan
Ġmendapatkan ku
Ġkur on
Ġsh eng
Ġyah weh
Ġpol usi
ill ing
Ġdil ewati
Ġluar nya
unc ak
Ġmat ilda
ev e
Ġgr endel
Ġdip as
Ġah ead
Ġsec tional
Ġtim er
Ġdiam eter
Ġbuat nya
Ġdar la
Ġle i
Ġre f
ard i
Ġbl m
Ġbern asib
Ġmengirim iku
Ġterp anggang
Ġlo ud
Ġdic intainya
Ġlet ter
Ġdon asi
Ġbir nya
Ġkont ra
Ġup date
Ġ8 2
Ġnat s
Ġsis wi
Ġgu inea
Ġsm oke
ungk awa
Ġkotak kotak
Ġka ali
Ġtrans por
Ġham id
Ġkond uk
Ġor c
Ġmon k
Ġac ademy
Ġdij ahit
Ġterc ium
Ġmenent angnya
Ġperi u
Ġment ari
Ġdipercaya i
Ġangel ina
Ġsent ral
Ġpenelitian ku
Ġsenyum mu
Ġja ek
Ġtot alnya
Ġamat iran
Ġgod father
Ġton ik
Ġtam unya
Ġhip pie
Ġsky net
Ġchip m
ili asi
Ġjab at
Ġrun ning
Ġrud y
Ġmam ah
Ġmun na
Ġwin ch
Ġsign al
Ġsimp anse
Ġmengantarkan mu
Ġmelarang ku
Ġprinsip prinsip
Ġ198 5
Ġmengkhianat inya
Ġmelengk ing
Ġmengup as
Ġtetangg anya
Ġtemp uh
Ġug d
Ġdoctor e
Ġcirc le
Ġtersel ubung
Ġcoy ote
Ġarke olog
fri end
Ġmemperd ulikan
Ġberkomp romi
Ġmenund anya
Ġvali um
Ġritch ie
Ġfee i
Ġperund ingan
8 8
b eck
g ly
k isah
l ove
l anjuti
m r
n ai
t inggal
v ari
w ant
Ġ ambar
Ġm unc
er og
Ġt ingkatkan
Ġb uny
ah anya
in ov
Ġp ancang
al aya
am as
am ine
un er
Ġmen uk
ad anya
Ġmem or
or aknya
Ġan al
Ġmeng ap
Ġr etakan
Ġmer ak
Ġmer akit
ul annya
ana ya
Ġo enom
Ġn ess
Ġmel um
Ġw ina
per im
per usahaan
aw s
Ġhar ih
Ġya man
Ġseperti ga
uar y
ed e
ed ian
Ġpr ud
Ġmengh ampiri
Ġbi or
Ġpeng ering
ist em
Ġset imp
Ġkec eroboh
Ġib adah
Ġv a
Ġdim at
Ġye o
Ġser ies
Ġser bia
op oli
Ġman chester
Ġas una
Ġpem ungutan
art a
Ġdit emui
Ġtel efon
ont ek
ch ip
Ġpol anya
Ġmus ashi
Ġkh otbah
Ġpeny atuan
Ġbay angannya
Ġdip osting
Ġme ade
tr ak
Ġtim on
Ġaw am
Ġit ik
Ġkup ukul
oo f
Ġluc inda
Ġre zim
iv es
Ġger takan
Ġab unya
Ġpl uton
Ġkuat kan
Ġkosong nya
Ġ6 2
Ġterp ojok
Ġbiar pun
Ġpat rice
Ġon es
Ġjer awat
Ġdol ph
Ġdo u
Ġge ografi
Ġco op
Ġco unc
Ġbo zz
Ġmenempat kanku
Ġalex is
Ġko q
Ġrom ulan
Ġus a
Ġkay uh
Ġgem er
Ġtitik titik
Ġsin bad
Ġkrist in
Ġkeraja anmu
Ġhid rol
Ġtop h
Ġkent al
Ġmembel anya
Ġ200 7
Ġ200 9
elas annya
Ġcal v
Ġmengganti kanmu
Ġgaya mu
Ġberputar lah
Ġmotor ku
Ġfed er
Ġkebahagia anmu
Ġsak uku
Ġdiseb erang
Ġkantong mu
bah w
Ġsom et
esh if
Ġplay off
Ġbug s
Ġcho uhe
Ġlot re
Ġmenantang mu
Ġmengeks ploitasi
Ġdisamping ku
tern al
Ġfun ky
Ġmenghidup kannya
Ġsimp son
Ġviv ek
Ġmekan ika
col l
Ġhamp tons
Ġisa ak
Ġkekhawatir anmu
Ġpras angka
Ġpush up
Ġkard us
Ġpig gy
Ġemos inya
Ġdiagn osa
Ġmccart ney
Ġyud as
Ġmeraj ut
epak ati
Ġfund amental
Ġmoz art
Ġterf okus
Ġkuli ahan
Ġshap eshif
Ġpenal ti
Ġmish ima
Ġvene zuela
Ġbaks o
Ġdeklar asi
Ġpintup intu
Ġdomest ik
Ġsomew here
Ġberinter aksi
Ġgide on
Ġoenom aus
Ġsetimp al
Ġchouhe ung
j okan
m n
m or
m ler
r un
r aku
s han
Ġm anggung
er kan
Ġt atan
Ġb p
Ġb ane
at he
Ġmen amai
ad ani
Ġber gi
Ġber ebut
Ġmeng ib
Ġter ik
ung e
Ġr adang
Ġmer ujuk
ul tz
es uatu
Ġn arat
udah an
ant um
ant es
Ġf en
ati ve
ain s
Ġmend iang
Ġtent era
aku in
Ġmenc ek
os et
ep anjang
oh id
Ġdis angka
Ġdir ections
Ġmengh iasi
Ġberh ala
Ġbar rett
Ġbar nab
Ġkes itu
Ġbes arkan
ter l
Ġkec ewakan
Ġkeb angsaan
Ġst au
Ġmengg andakan
Ġsh og
Ġdit ol
Ġtr ud
Ġsep uas
Ġtuan nya
Ġar es
Ġpers onel
Ġdip anggang
Ġdr ak
Ġcl inton
Ġaw et
Ġz ah
Ġsur el
Ġto oms
Ġab hay
Ġpl ato
eks ikan
Ġbu ffy
Ġres m
Ġgo anna
Ġnaik i
Ġpenc inta
Ġmengen aiku
Ġmenyeb ab
Ġent ri
Ġbir unya
Ġsurat ku
Ġmal hotra
Ġmenyad arkan
ens e
Ġmc mur
Ġfor est
Ġbon ek
sh aw
sh op
Ġrom mel
Ġsand inya
Ġtrans formasi
Ġgeorg es
Ġgi ok
Ġmempert emukan
th ia
Ġtruk ku
Ġmag istr
Ġhy d
Ġcas tor
Ġ0 2
Ġbro oke
Ġkotor mu
Ġpasangan mu
Ġjag uar
Ġberf okus
Ġsl ot
Ġkuper s
Ġky oto
Ġdap urnya
ling s
Ġwo ol
Ġnasib mu
Ġund erst
Ġkebohong anmu
Ġcab ai
Ġsikap nya
Ġwho osh
Ġhor ny
Ġtant ang
Ġtawaran ku
Ġcy n
Ġkarakter istik
Ġwood ward
Ġrod anya
Ġtay angan
Ġgy ung
Ġprop aganda
seb agai
Ġmeneb aknya
Ġmembesarkan nya
Ġpent house
Ġfri ed
Ġpic c
Ġmini atur
Ġrip per
ros se
Ġkonst antin
Ġmeludah i
Ġyam ag
Ġpand ey
Ġcand i
Ġteor inya
Ġjut su
Ġkoh l
Ġmencer aikan
Ġlng at
Ġmengeb om
Ġmengoper asikan
Ġpangg angan
Ġ06 00
apt iste
Ġbriar eos
Ġwarn awar
Ġpret zel
Ġpt ol
Ġzet rov
Ġduch ess
Ġrode o
Ġpenind asan
Ġmarily n
Ġbernaf su
Ġnarat or
0 1
d ick
e as
m ay
r atis
Ġm oe
Ġm oto
Ġm bak
Ġk incir
Ġs ulu
Ġs rig
Ġs mash
Ġd omb
en kripsi
ar awan
in asakan
Ġp ari
Ġp yar
Ġdi eter
Ġh ock
Ġl over
Ġin car
Ġber asa
Ġber upaya
Ġmeng unakan
Ġc k
Ġc ake
ut s
Ġg ok
Ġmel ebar
Ġmel ongg
Ġtak uma
ol y
eb e
eb asannya
eb urger
Ġw ag
Ġsem angka
Ġsek al
int h
int osh
ot el
ob e
Ġpen angg
Ġsed alam
ilik inya
angk itkan
Ġterb odoh
Ġterb entang
Ġal go
si um
Ġi ittie
Ġmakan nya
Ġpemb atasan
Ġbol amu
Ġol eg
Ġmemper ingati
Ġkak tus
Ġberm igrasi
emp it
Ġkh ale
Ġgr en
Ġpeny ok
Ġdip injam
Ġdr is
Ġcl um
[...]
