{"!":0,"\"":1,"#":2,"$":3,"%":4,"&":5,"'":6,"(":7,")":8,"*":9,"+":10,",":11,"-":12,".":13,"/":14,"0":15,"1":16,"2":17,"3":18,"4":19,"5":20,"6":21,"7":22,"8":23,"9":24,":":25,";":26,"<":27,"=":28,">":29,"?":30,"@":31,"A":32,"B":33,"C":34,"D":35,"E":36,"F":37,"G":38,"H":39,"I":40,"J":41,"K":42,"L":43,"M":44,"N":45,"O":46,"P":47,"Q":48,"R":49,"S":50,"T":51,"U":52,"V":53,"W":54,"X":55,"Y":56,"Z":57,"[":58,"\\":59,"]":60,"^":61,"_":62,"`":63,"a":64,"b":65,"c":66,"d":67,"e":68,"f":69,"g":70,"h":71,"i":72,"j":73,"k":74,"l":75,"m":76,"n":77,"o":78,"p":79,"q":80,"r":81,"s":82,"t":83,"u":84,"v":85,"w":86,"x":87,"y":88,"z":89,"{":90,"|":91,"}":92,"~":93,"¡":94,"¢":95,"£":96,"¤":97,"¥":98,"¦":99,"§":100,"¨":101,"©":102,"ª":103,"«":104,"¬":105,"®":106,"¯":107,"°":108,"±":109,"²":110,"³":111,"´":112,"µ":113,"¶":114,"·":115,"¸":116,"¹":117,"º":118,"»":119,"¼":120,"½":121,"¾":122,"¿":123,"À":124,"Á":125,"Â":126,"Ã":127,"Ä":128,"Å":129,"Æ":130,"Ç":131,"È":132,"É":133,"Ê":134,"Ë":135,"Ì":136,"Í":137,"Î":138,"Ï":139,"Ð":140,"Ñ":141,"Ò":142,"Ó":143,"Ô":144,"Õ":145,"Ö":146,"×":147,"Ø":148,"Ù":149,"Ú":150,"Û":151,"Ü":152,"Ý":153,"Þ":154,"ß":155,"à":156,"á":157,"â":158,"ã":159,"ä":160,"å":161,"æ":162,"ç":163,"è":164,"é":165,"ê":166,"ë":167,"ì":168,"í":169,"î":170,"ï":171,"ð":172,"ñ":173,"ò":174,"ó":175,"ô":176,"õ":177,"ö":178,"÷":179,"ø":180,"ù":181,"ú":182,"û":183,"ü":184,"ý":185,"þ":186,"ÿ":187,"Ā":188,"ā":189,"Ă":190,"ă":191,"Ą":192,"ą":193,"Ć":194,"ć":195,"Ĉ":196,"ĉ":197,"Ċ":198,"ċ":199,"Č":200,"č":201,"Ď":202,"ď":203,"Đ":204,"đ":205,"Ē":206,"ē":207,"Ĕ":208,"ĕ":209,"Ė":210,"ė":211,"Ę":212,"ę":213,"Ě":214,"ě":215,"Ĝ":216,"ĝ":217,"Ğ":218,"ğ":219,"Ġ":220,"ġ":221,"Ģ":222,"ģ":223,"Ĥ":224,"ĥ":225,"Ħ":226,"ħ":227,"Ĩ":228,"ĩ":229,"Ī":230,"ī":231,"Ĭ":232,"ĭ":233,"Į":234,"į":235,"İ":236,"ı":237,"Ĳ":238,"ĳ":239,"Ĵ":240,"ĵ":241,"Ķ":242,"ķ":243,"ĸ":244,"Ĺ":245,"ĺ":246,"Ļ":247,"ļ":248,"Ľ":249,"ľ":250,"Ŀ":251,"ŀ":252,"Ł":253,"ł":254,"Ń":255,"an":256,"ak":257,"Ġm":258,"Ġk":259,"Ġs":260,"er":261,"Ġd":262,"Ġt":263,"Ġb":264,"en":265,"ang":266,"ar":267,"ah":268,"in":269,"at":270,"Ġp":271,"ya":272,"Ġak":273,"al":274,"ap":275,"em":276,"am":277,"it":278,"un":279,"Ġdi":280,"Ġmen":281,"kan":282,"Ġaku":283,"Ġse":284,"au":285,"ad":286,"el":287,"as":288,"Ġh":289,"ik":290,"Ġy":291,"Ġl":292,"id":293,"Ġkau":294,"Ġin":295,"uk":296,"apa":297,"Ġber":298,"Ġyang":299,"Ġj":300,"Ġtid":301,"Ġtidak":302,"is":303,"itu":304,"Ġmem":305,"Ġke":306,"nya":307,"il":308,"Ġitu":309,"Ġper":310,"Ġini":311,"us":312,"Ġsa":313,"or":314,"ih":315,"Ġdan":316,"Ġan":317,"ag":318,"eng":319,"Ġmeng":320,"Ġapa":321,"Ġdia":322,"Ġakan":323,"ir":324,"da":325,"Ġc":326,"ari":327,"ek":328,"Ġad":329,"ita":330,"Ġter":331,"on":332,"ur":333,"ukan":334,"im":335,"unt":336,"ti":337,"Ġkita":338,"Ġkam":339,"ung":340,"untuk":341,"Ġuntuk":342,"Ġanda":343,"ing":344,"ut":345,"Ġmemb":346,"Ġr":347,"uh":348,"um":349,"Ġmer":350,"akan":351,"anya":352,"Ġdeng":353,"ul":354,"Ġsaya":355,"ana":356,"es":357,"Ġtah":358,"ud":359,"Ġg":360,"Ġbis":361,"orang":362,"Ġo":363,"Ġn":364,"alah":365,"mu":366,"Ġmel":367,"ay":368,"ai":369,"adi":370,"Ġdengan":371,"Ġbisa":372,"Ġtak":373,"ali":374,"aik":375,"ku":376,"ol":377,"eka":378,"Ġada":379,"Ġmereka":380,"eb":381,"et":382,"Ġtahu":383,"ja":384,"Ġw":385,"per":386,"Ġdari":387,"Ġsem":388,"alam":389,"Ġsek":390,"angan":391,"aw":392,"ara":393,"api":394,"Ġbag":395,"ent":396,"ihat":397,"akukan":398,"ua":399,"Ġhar":400,"ia":401,"uat":402,"up":403,"Ġseb":404,"ama":405,"Ġ.":406,"Ġbaik":407,"Ġya":408,"ini":409,"Ġkami":410,"ika":411,"Ġing":412,"emb":413,"lah":414,"Ġpad":415,"enar":416,"Ġtapi":417,"Ġkamu":418,"Ġsi":419,"Ġorang":420,"Ġharus":421,"gi":422,"Ġ,":423,"ga":424,"udah":425,"Ġay":426,"ant":427,"pat":428,"Ġadalah":429,"Ġmas":430,"Ġseper":431,"unya":432,"Ġsel":433,"Ġingin":434,"Ġsudah":435,"Ġmeny":436,"ab":437,"arang":438,"Ġsaja":439,"int":440,"Ġseperti":441,"Ġap":442,"Ġpergi":443,"amp":444,"Ġhanya":445,"inya":446,"ic":447,"apat":448,"eg":449,"jadi":450,"agi":451,"Ġf":452,"elah":453,"Ġdalam":454,"ot":455,"ong":456,"Ġsini":457,"alu":458,"Ġjika":459,"Ġsekarang":460,"Ġbukan":461,"ac":462,"Ġsemua":463,"Ġbah":464,"uar":465,"aim":466,"ati":467,"om":468,"ub":469,"end":470,"ain":471,"ikir":472,"asa":473,"Ġmend":474,"Ġat":475,"Ġkel":476,"ob":477,"Ġbenar":478,"ok":479,"Ġjadi":480,"akah":481,"Ġtent":482,"Ġses":483,"ib":484,"Ġoh":485,"Ġtem":486,"Ġhal":487,"Ġbagaim":488,"Ġkali":489,"amb":490,"aku":491,"ed":492,"Ġpunya":493,"atakan":494,"Ġbagaimana":495,"Ġsat":496,"Ġmenc":497,"kin":498,"ebih":499,"os":500,"Ġjangan":501,"Ġkar":502,"Ġlagi":503,"ep":504,"Ġpen":505,"alan":506,"eh":507,"Ġpada":508,"ungkin":509,"Ġlebih":510,"ian":511,"Ġapakah":512,"Ġhe":513,"wa":514,"angat":515,"ingg":516,"Ġlakukan":517,"Ġmungkin":518,"Ġmelihat":519,"aj":520,"Ġmelakukan":521,"any":522,"ena":523,"Ġpern":524,"ima":525,"Ġbers":526,"Ġpr":527,"asi":528,"Ġsed":529,"af":530,"ungg":531,"Ġsatu":532,"Ġkem":533,"Ġsangat":534,"oh":535,"Ġbert":536,"uatu":537,"Ġkas":538,"uan":539,"Ġtelah":540,"Ġdis":541,"aya":542,"Ġ?":543,"Ġok":544,"Ġken":545,"Ġpernah":546,"Ġkeluar":547,"atang":548,"Ġkalian":549,"ada":550,"Ġkarena":551,"ata":552,"amu":553,"Ġju":554,"ikan":555,"ilang":556,"Ġmau":557,"Ġkemb":558,"Ġmembuat":559,"arkan":560,"ilik":561,"uka":562,"Ġsiapa":563,"aks":564,"and":565,"Ġlihat":566,"tu":567,"angg":568,"Ġbel":569,"Ġbeg":570,"Ġdatang":571,"Ġkembali":572,"angk":573,"enang":574,"Ġayo":575,"Ġhari":576,"unuh":577,"Ġma":578,"isi":579,"Ġtentang":580,"Ġket":581,"idup":582,"Ġdir":583,"Ġterl":584,"Ġmengh":585,"Ġjuga":586,"iri":587,"Ġkep":588,"Ġberh":589,"inggal":590,"anyak":591,"Ġatau":592,"Ġbahwa":593,"Ġdapat":594,"atan":595,"Ġsesuatu":596,"Ġkasih":597,"Ġmember":598,"Ġayah":599,"Ġbar":600,"Ġpert":601,"Ġseorang":602,"Ġbegitu":603,"iku":604,"epat":605,"Ġsaat":606,"Ġbanyak":607,"Ġmenjadi":608,"Ġbi":609,"Ġberb":610,"Ġch":611,"Ġkal":612,"Ġterima":613,"Ġwak":614,"Ġkes":615,"Ġlain":616,"Ġmaaf":617,"Ġpeng":618,"Ġ1":619,"Ġpikir":620,"ist":621,"erja":622,"Ġanak":623,"Ġterjadi":624,"Ġbagus":625,"Ġyg":626,"uang":627,"imu":628,"Ġbes":629,"Ġpas":630,"inta":631,"ff":632,"annya":633,"unggu":634,"uc":635,"Ġbeb":636,"ambil":637,"od":638,"Ġkenapa":639,"Ġhidup":640,"Ġmendapat":641,"iliki":642,"hir":643,"Ġhei":644,"icara":645,"ter":646,"amat":647,"Ġsamp":648,"Ġset":649,"Ġtempat":650,"Ġsend":651,"anj":652,"Ġoke":653,"Ġmalam":654,"ind":655,"Ġmenem":656,"Ġkec":657,"erapa":658,"ew":659,"Ġterb":660,"uah":661,"Ġib":662,"Ġbilang":663,"uhan":664,"Ġkalau":665,"Ġsana":666,"Ġmana":667,"Ġwaktu":668,"Ġal":669,"Ġv":670,"enti":671,"ekerja":672,"Ġker":673,"Ġku":674,"Ġmemiliki":675,"Ġmasih":676,"Ġrum":677,"00":678,"si":679,"Ġia":680,"awa":681,"Ġth":682,"Ġmati":683,"Ġi":684,"Ġdim":685,"Ġpak":686,"Ġbeberapa":687,"Ġtahun":688,"kah":689,"Ġmengapa":690,"Ġsebuah":691,"Ġbaiklah":692,"Ġkatakan":693,"Ġsedang":694,"aksud":695,"Ġtet":696,"arah":697,"Ġa":698,"Ġperl":699,"ilah":700,"Ġlalu":701,"Ġberp":702,"olah":703,"Ġye":704,"Ġkeb":705,"Ġmengatakan":706,"Ġsampai":707,"Ġmenj":708,"Ġsekali":709,"Ġser":710,"ahu":711,"kannya":712,"Ġrumah":713,"Ġsalah":714,"Ġsendiri":715,"Ġbaru":716,"op":717,"Ġyeah":718,"Ġst":719,"caya":720,"aman":721,"Ġmul":722,"ger":723,"oba":724,"Ġketika":725,"Ġmasuk":726,"Ġbesar":727,"Ġtan":728,"Ġkan":729,"ahan":730,"Ġpel":731,"Ġman":732,"Ġmaksud":733,"ow":734,"Ġmasalah":735,"ip":736,"utuh":737,"akin":738,"Ġmembunuh":739,"Ġmenger":740,"uj":741,"yang":742,"Ġdib":743,"Ġperlu":744,"Ġtunggu":745,"Ġmakan":746,"uanya":747,"apan":748,"Ġberd":749,"Ġtuhan":750,"Ġ2":751,"Ġsama":752,"Ġas":753,"Ġmenemukan":754,"Ġpemb":755,"awan":756,"Ġpem":757,"Ġcepat":758,"aran":759,"Ġtinggal":760,"enc":761,"Ġkeh":762,"Ġdengar":763,"ie":764,"benar":765,"engar":766,"elum":767,"Ġsebelum":768,"olong":769,"baik":770,"imp":771,"Ġberk":772,"Ġpadaku":773,"Ġdisini":774,"Ġmendapatkan":775,"ulang":776,"Ġsemuanya":777,"Ġbenarbenar":778,"Ġmengg":779,"Ġpasti":780,"Ġdua":781,"le":782,"aga":783,"Ġselamat":784,"anc":785,"Ġkur":786,"Ġjalan":787,"apun":788,"Ġbr":789,"ec":790,"art":791,"uku":792,"Ġtentu":793,"Ġbur":794,"ukup":795,"Ġmari":796,"Ġapaapa":797,"Ġteman":798,"Ġbol":799,"Ġpercaya":800,"ikit":801,"emu":802,"akhir":803,"Ġcukup":804,"Ġsedikit":805,"Ġatas":806,"antu":807,"ila":808,"Ġbelum":809,"eorang":810,"Ġseh":811,"Ġsayang":812,"pa":813,"Ġsuka":814,"Ġbicara":815,"akit":816,"Ġselalu":817,"Ġmengambil":818,"Ġsh":819,"Ġseseorang":820,"ungan":821,"Ġsen":822,"Ġsiap":823,"Ġmelakukannya":824,"awat":825,"Ġdimana":826,"Ġberada":827,"Ġmengerti":828,"unj":829,"Ġseti":830,"Ġkecil":831,"Ġkot":832,"Ġol":833,"Ġdit":834,"Ġmu":835,"Ġpria":836,"Ġag":837,"Ġberpikir":838,"Ġuang":839,"Ġbaikbaik":840,"Ġtr":841,"Ġjam":842,"Ġbahkan":843,"Ġput":844,"Ġtolong":845,"Ġmemper":846,"Ġwan":847,"Ġ'":848,"Ġsej":849,"Ġsetelah":850,"ug":851,"Ġkak":852,"asan":853,"Ġibu":854,"Ġsetiap":855,"Ġtel":856,"agai":857,"Ġpes":858,"jalan":859,"adis":860,"Ġbekerja":861,"Ġsep":862,"Ġdun":863,"Ġyah":864,"Ġterlalu":865,"ĠĠ":866,"auh":867,"Ġters":868,"Ġwanita":869,"Ġmeninggal":870,"Ġbertemu":871,"ell":872,"ont":873,"Ġtetap":874,"ch":875,"ala":876,"Ġtangan":877,"Ġlama":878,"Ġsebagai":879,"askan":880,"ri":881,"Ġyakin":882,"aka":883,"Ġhey":884,"Ġsu":885,"obil":886,"Ġperm":887,"anmu":888,"Ġthe":889,"sa":890,"ikut":891,"Ġpol":892,"Ġti":893,"orm":894,"ill":895,"empat":896,"Ġmobil":897,"Ġpertama":898,"Ġnam":899,"Ġcara":900,"Ġyo":901,"Ġmulai":902,"und":903,"Ġayolah":904,"Ġpadamu":905,"Ġdil":906,"Ġdunia":907,"ulan":908,"Ġberhenti":909,"anti":910,"Ġberm":911,"umu":912,"Ġgadis":913,"Ġluar":914,"Ġmus":915,"Ġdiri":916,"Ġselama":917,"Ġist":918,"itahu":919,"asil":920,"unc":921,"Ġpet":922,"Ġked":923,"Ġoleh":924,"Ġmencari":925,"emp":926,"Ġmin":927,"uran":928,"Ġbutuh":929,"Ġbang":930,"ump":931,"Ġmendengar":932,"ira":933,"aknya":934,"Ġbersama":935,"Ġtert":936,"Ġkh":937,"Ġdep":938,"na":939,"Ġ3":940,"unakan":941,"usah":942,"ta":943,"oc":944,"Ġsenang":945,"uruh":946,"usia":947,"Ġmerasa":948,"ulu":949,"Ġboleh":950,"ig":951,"Ġmencoba":952,"ey":953,"Ġcer":954,"Ġkemud":955,"Ġdik":956,"Ġnya":957,"usnya":958,"Ġmat":959,"esai":960,"ev":961,"Ġapapun":962,"ubah":963,"ahkan":964,"Ġpun":965,"ark":966,"ingin":967,"Ġkab":968,"uru":969,"Ġkemudian":970,"Ġtidur":971,"Ġburuk":972,",,":973,"Ġkepada":974,"Ġingat":975,"Ġmembawa":976,"Ġkap":977,"awah":978,"Ġpint":979,"arik":980,"Ġkul":981,"Ġgr":982,"ingan":983,"Ġmenyel":984,"Ġterus":985,"Ġpekerja":986,"Ġsebenar":987,"Ġbiarkan":988,"Ġtuan":989,"Ġberl":990,"embak":991,"Ġsebenarnya":992,"Ġped":993,"av":994,"ohon":995,"anggil":996,"ilih":997,"Ġorangorang":998,"Ġkub":999,"aling":1000,"Ġtanpa":1001,"Ġberapa":1002,"Ġberbicara":1003,"urut":1004,"ingk":1005,"ej":1006,"Ġny":1007,"Ġwh":1008,"Ġmaksudku":1009,"tinya":1010,"epon":1011,"ebut":1012,"ungguh":1013,"Ġakhir":1014,"Ġpeny":1015,"unjuk":1016,"Ġpolisi":1017,"og":1018,"anku":1019,"arap":1020,"Ġpulang":1021,"Ġsakit":1022,"Ġitulah":1023,"Ġterakhir":1024,"Ġfr":1025,"Ġdenganmu":1026,"Ġkom":1027,"Ġtakut":1028,"Ġtamp":1029,"Ġdud":1030,"entikan":1031,"Ġkurasa":1032,"angkap":1033,"Ġpara":1034,"Ġbay":1035,"Ġambil":1036,"atuh":1037,"Ġar":1038,"Ġsehar":1039,"odoh":1040,"Ġam":1041,"ny":1042,"Ġpenj":1043,"Ġdulu":1044,"Ġcinta":1045,"irim":1046,"Ġpers":1047,"Ġsialan":1048,"Ġgila":1049,"Ġdip":1050,"uli":1051,"Ġseger":1052,"Ġind":1053,"Ġterk":1054,"Ġnama":1055,"Ġhalo":1056,"ons":1057,"Ġtepat":1058,"ebat":1059,"eri":1060,"Ġbagian":1061,"Ġmes":1062,"Ġsegera":1063,"Ġseg":1064,"Ġmenya":1065,"Ġso":1066,"Ġah":1067,"Ġmemang":1068,"Ġminum":1069,"Ġmemberikan":1070,"Ġseharusnya":1071,"anjang":1072,"Ġsial":1073,"entar":1074,"ekat":1075,"Ġmembantu":1076,"Ġdr":1077,"ampir":1078,"Ġbawah":1079,"Ġsec":1080,"ank":1081,"Ġme":1082,"Ġtiga":1083,"Ġdepan":1084,"Ġjauh":1085,"aud":1086,"ajar":1087,"usaha":1088,"man":1089,"enal":1090,"Ġtenang":1091,"Ġair":1092,"Ġkota":1093,"ack":1094,"Ġ5":1095,"Ġsp":1096,"Ġterlihat":1097,"Ġcar":1098,"tr":1099,"anda":1100,"urun":1101,"Ġmenurut":1102,"Ġanakan":1103,"ungi":1104,"Ġcl":1105,"Ġpend":1106,"Ġtim":1107,"Ġid":1108,"Ġmeninggalkan":1109,"Ġbodoh":1110,"Ġduduk":1111,"Ġbiasa":1112,"aja":1113,"Ġminta":1114,"Ġaw":1115,"Ġkr":1116,"Ġpadanya":1117,"Ġanakanak":1118,"Ġsebentar":1119,"Ġmar":1120,"Ġsungguh":1121,"Ġpagi":1122,"ilangan":1123,"Ġkat":1124,"eda":1125,"Ġut":1126,"Ġjel":1127,"icar":1128,"awatir":1129,"'s":1130,"Ġdirimu":1131,"Ġit":1132,"Ġbagi":1133,"itar":1134,"Ġkehilangan":1135,"Ġrasa":1136,"Ġmenik":1137,"Ġ4":1138,"Ġen":1139,"ry":1140,"Ġmanusia":1141,"uri":1142,"utup":1143,"Ġum":1144,"Ġberikan":1145,"ulit":1146,"enting":1147,"ahat":1148,"Ġdiam":1149,"Ġmenunggu":1150,"Ġz":1151,"ers":1152,"Ġhebat":1153,"Ġtetapi":1154,"Ġpekerjaan":1155,"urus":1156,"engah":1157,"Ġmenyer":1158,"Ġneg":1159,"Ġlup":1160,"Ġmaafkan":1161,"Ġyou":1162,"aki":1163,"ani":1164,"antai":1165,"Ġselesai":1166,"Ġbawa":1167,"Ġbaj":1168,"unjukkan":1169,"Ġsepertinya":1170,"Ġben":1171,"Ġtua":1172,"iarkan":1173,"Ġberhasil":1174,"Ġtakkan":1175,"uma":1176,"Ġbuat":1177,"Ġterbaik":1178,"Ġsuatu":1179,"Ġkup":1180,"Ġand":1181,"utan":1182,"gerak":1183,"ick":1184,"Ġseluruh":1185,"akang":1186,"Ġde":1187,"Ġsenj":1188,"all":1189,"Ġuh":1190,"ov":1191,"Ġbersam":1192,"Ġsekolah":1193,"Ġhai":1194,"Ġpaling":1195,"ju":1196,"Ġmenit":1197,"Ġe":1198,"inggu":1199,"Ġkeluarga":1200,"Ġmenang":1201,"Ġpenting":1202,"Ġant":1203,"Ġmelihatnya":1204,"Ġem":1205,"antuan":1206,"Ġnanti":1207,"Ġberc":1208,"Ġkabar":1209,"Ġlap":1210,"Ġmencint":1211,"Ġikut":1212,"Ġkhawatir":1213,"usat":1214,"ich":1215,"Ġbermain":1216,"ugas":1217,"Ġmr":1218,"Ġaneh":1219,"Ġnak":1220,"Ġberjalan":1221,"Ġbergerak":1222,"ulis":1223,"Ġdok":1224,"Ġdar":1225,"enangkan":1226,"uny":1227,"Ġnah":1228,"Ġsekitar":1229,"Ġuntukmu":1230,"Ġsam":1231,"Ġjatuh":1232,"Ġcuma":1233,"ayar":1234,"oo":1235,"Ġpeduli":1236,"arti":1237,"Ġsur":1238,"Ġmenggunakan":1239,"ius":1240,"Ġdisana":1241,"Ġbulan":1242,"Ġberdua":1243,"Ġbisakah":1244,"Ġluc":1245,"Ġkuk":1246,"umb":1247,"icarakan":1248,"iksa":1249,"Ġbat":1250,"Ġpembunuh":1251,"Ġbesok":1252,"Ġmembiarkan":1253,"Ġbung":1254,"Ġle":1255,"Ġhub":1256,"Ġkepala":1257,"Ġcoba":1258,"Ġmasa":1259,"ohong":1260,"abis":1261,"ina":1262,"ancur":1263,"atkan":1264,"Ġmenel":1265,"erima":1266,"Ġberarti":1267,"eli":1268,"ond":1269,"utuhkan":1270,"inc":1271,"ffff":1272,"Ġre":1273,"Ġbangun":1274,"Ġpan":1275,"Ġhat":1276,"Ġtadi":1277,"Ġbet":1278,"Ġjaw":1279,"iv":1280,"Ġaman":1281,"Ġkum":1282,"ard":1283,"Ġdem":1284,"Ġjawab":1285,"Ġmilik":1286,"Ġto":1287,"Ġkos":1288,"Ġkapan":1289,"angkan":1290,"acam":1291,"aham":1292,"Ġsaud":1293,"Ġmemp":1294,"Ġkut":1295,"Ġeh":1296,"Ġkamar":1297,"Ġwal":1298,"encana":1299,"Ġmembaw":1300,"intah":1301,"apkan":1302,"Ġkej":1303,"Ġmemer":1304,"Ġhampir":1305,"Ġmemberitahu":1306,"utus":1307,"Ġtn":1308,"Ġbelakang":1309,"Ġberj":1310,"Ġturun":1311,"Ġdekat":1312,"atian":1313,"Ġmenarik":1314,"Ġdiper":1315,"antik":1316,"uck":1317,"ue":1318,"tor":1319,"Ġinginkan":1320,"Ġhentikan":1321,"ukul":1322,"Ġno":1323,"Ġkek":1324,"ona":1325,"asanya":1326,"Ġger":1327,"Ġlang":1328,"Ġsecara":1329,"Ġpintu":1330,"ra":1331,"oy":1332,"Ġkor":1333,"epaskan":1334,"ton":1335,"Ġ10":1336,"Ġkl":1337,"Ġkeku":1338,"ajah":1339,"Ġdapatkan":1340,"Ġkeber":1341,"Ġkesempat":1342,"Ġsejak":1343,"Ġperg":1344,"Ġsenjata":1345,"Ġmil":1346,"Ġsebelumnya":1347,"anji":1348,"aian":1349,"Ġab":1350,"aris":1351,"aca":1352,"Ġsulit":1353,"Ġpl":1354,"Ġli":1355,"Ġmemberi":1356,"Ġmudah":1357,"Ġkuat":1358,"Ġmaksudmu":1359,"angkat":1360,"Ġbantuan":1361,"atih":1362,"Ġmenikah":1363,"org":1364,"ambat":1365,"mm":1366,"Ġsil":1367,"itas":1368,"Ġhati":1369,"Ġterh":1370,"Ġart":1371,"eks":1372,"inggi":1373,"Ġbl":1374,"Ġdarah":1375,"aruh":1376,"Ġmaka":1377,"anjut":1378,"Ġtau":1379,"Ġtelepon":1380,"Ġel":1381,"Ġmenyelamat":1382,"re":1383,"Ġdid":1384,"Ġcantik":1385,"Ġkesempatan":1386,"ans":1387,"Ġanj":1388,"oa":1389,"Ġpertanya":1390,"Ġbu":1391,"Ġmata":1392,"era":1393,"uta":1394,"000":1395,"Ġgel":1396,"Ġindah":1397,"Ġkehidup":1398,"Ġkeras":1399,"ahui":1400,"omb":1401,"Ġjen":1402,"Ġminggu":1403,"Ġtib":1404,"Ġjoh":1405,"Ġmemas":1406,"ris":1407,"Ġjelas":1408,"ly":1409,"Ġcari":1410,"Ġdilakukan":1411,"akkan":1412,"otong":1413,"Ġayahku":1414,"Ġhi":1415,"Ġberkata":1416,"ual":1417,"Ġkemari":1418,"Ġmembutuhkan":1419,"Ġkupikir":1420,"Ġbe":1421,"ingga":1422,"Ġbern":1423,"ahas":1424,"Ġayahmu":1425,"Ġbos":1426,"Ġalasan":1427,"isa":1428,"Ġberakhir":1429,"Ġkawan":1430,"ium":1431,"Ġbuk":1432,"ahaya":1433,"Ġangg":1434,"Ġdokter":1435,"ten":1436,"Ġjohn":1437,"ine":1438,"Ġbukankah":1439,"ukum":1440,"Ġbal":1441,"ubuh":1442,"pada":1443,"Ġte":1444,"Ġberharap":1445,"Ġfil":1446,"Ġanjing":1447,"Ġdet":1448,"akil":1449,"Ġkosong":1450,"kanmu":1451,"Ġdengannya":1452,"Ġng":1453,"Ġakhirnya":1454,"aut":1455,"Ġmengirim":1456,"Ġres":1457,"engk":1458,"tif":1459,"antung":1460,"Ġbenarkah":1461,"Ġjum":1462,"Ġberubah":1463,"asar":1464,"Ġberg":1465,"ban":1466,"Ġmenyenangkan":1467,"Ġpilih":1468,"Ġpanggil":1469,"Ġob":1470,"Ġ6":1471,"Ġom":1472,"asakan":1473,"Ġgo":1474,"Ġperjalan":1475,"aimu":1476,"arat":1477,"Ġwajah":1478,"Ġlainnya":1479,"Ġnaik":1480,"Ġsatusat":1481,"Ġserius":1482,"Ġhilang":1483,"Ġkata":1484,"Ġkekuatan":1485,"ilan":1486,"pun":1487,"Ġperh":1488,"Ġmeminta":1489,"Ġmak":1490,"Ġdenganku":1491,"Ġsatusatunya":1492,"ess":1493,"Ġbarang":1494,"Ġkerja":1495,"Ġterp":1496,"uju":1497,"akar":1498,"Ġnom":1499,"Ġkant":1500,"Ġmenget":1501,"untung":1502,"Ġhit":1503,"Ġamer":1504,"ikuti":1505,"itah":1506,"sung":1507,"Ġkehidupan":1508,"Ġtubuh":1509,"Ġberi":1510,"Ġkemana":1511,"nis":1512,"Ġkapal":1513,"imb":1514,"Ġdengarkan":1515,"Ġsc":1516,"Ġide":1517,"Ġro":1518,"Ġbertanya":1519,"Ġbiar":1520,"Ġbajingan":1521,"Ġpul":1522,"Ġkaki":1523,"of":1524,"alanya":1525,"ulai":1526,"ihkan":1527,"ma":1528,"Ġjack":1529,"Ġmenembak":1530,"Ġis":1531,"Ġalam":1532,"omp":1533,"Ġberbeda":1534,"Ġbuku":1535,"Ġlima":1536,"Ġmembayar":1537,"Ġkemar":1538,"Ġdasar":1539,"esi":1540,"Ġkira":1541,"Ġpertanyaan":1542,"acar":1543,"Ġsilakan":1544,"Ġwakt":1545,"Ġpenc":1546,"Ġpos":1547,"Ġkedua":1548,"Ġruang":1549,"Ġpergilah":1550,"son":1551,"Ġmenangkap":1552,"Ġperjalanan":1553,"Ġmenyelamatkan":1554,"Ġbunuh":1555,"Ġkapten":1556,"Ġperang":1557,"pon":1558,"onal":1559,"Ġpikirkan":1560,"Ġlew":1561,"uali":1562,"Ġagen":1563,"Ġdaripada":1564,"Ġlakil":1565,"egang":1566,"Ġdih":1567,"agia":1568,"Ġpermisi":1569,"Ġmelalu":1570,"Ġmengen":1571,"Ġamerika":1572,"Ġlari":1573,"Ġlo":1574,"umi":1575,"Ġtinggi":1576,"Ġtahan":1577,"Ġtuj":1578,"hal":1579,"Ġbelajar":1580,"Ġlupa":1581,"Ġkesalah":1582,"Ġpat":1583,"Ġlakilaki":1584,"Ġnomor":1585,"arl":1586,"Ġberitahu":1587,"adang":1588,"Ġpant":1589,"Ġkumohon":1590,"upakan":1591,"Ġmuda":1592,"sek":1593,"Ġkulakukan":1594,"Ġwell":1595,"asih":1596,"ock":1597,"Ġon":1598,"Ġtanah":1599,"Ġmakanan":1600,"Ġmenurutmu":1601,"Ġsitu":1602,"Ġsoal":1603,"Ġdic":1604,"Ġmemanggil":1605,"eta":1606,"Ġmarah":1607,"Ġlet":1608,"Ġberdiri":1609,"impi":1610,"Ġmembuatku":1611,"aikan":1612,"unci":1613,"Ġmembant":1614,"Ġmenunjukkan":1615,"Ġmelalui":1616,"Ġcerita":1617,"ord":1618,"Ġsal":1619,"Ġun":1620,"Ġda":1621,"Ġlucu":1622,"ainan":1623,"Ġlihatlah":1624,"ancurkan":1625,"Ġsuara":1626,"angka":1627,"acau":1628,"Ġpenuh":1629,"acara":1630,"Ġbila":1631,"Ġsir":1632,"ui":1633,"Ġkepad":1634,"ony":1635,"ber":1636,"Ġberikut":1637,"Ġagar":1638,"Ġnegara":1639,"Ġmenyeb":1640,"atnya":1641,"Ġot":1642,"adap":1643,"oran":1644,"Ġkasus":1645,"Ġsepanjang":1646,"li":1647,"Ġent":1648,"agu":1649,"ht":1650,"ust":1651,"Ġomong":1652,"oe":1653,"Ġmenuju":1654,"Ġast":1655,"Ġtugas":1656,"asama":1657,"Ġkecuali":1658,"Ġdemi":1659,"Ġdiriku":1660,"eman":1661,"Ġwar":1662,"embuny":1663,"oto":1664,"ebak":1665,"Ġwow":1666,"Ġmemberitah":1667,"Ġpesawat":1668,"Ġlepaskan":1669,"Ġmelawan":1670,"Ġastaga":1671,"Ġpanas":1672,"Ġantara":1673,"her":1674,"Ġbab":1675,"Ġcat":1676,"Ġdon":1677,"Ġjer":1678,"Ġjend":1679,"akai":1680,"Ġrencana":1681,"pur":1682,"anggung":1683,"anyakan":1684,"est":1685,"ampu":1686,"Ġsuam":1687,"Ġapi":1688,"Ġiya":1689,"ela":1690,"ilahkan":1691,"wan":1692,"usi":1693,"Ġkantor":1694,"Ġpe":1695,"Ġhukum":1696,"Ġmenelepon":1697,"Ġsendir":1698,"Ġawal":1699,"Ġraja":1700,"alkan":1701,"itakan":1702,"Ġterbang":1703,"Ġkakak":1704,"Ġbir":1705,"arg":1706,"Ġdirinya":1707,"Ġmelew":1708,"Ġnamanya":1709,"Ġempat":1710,"Ġkomp":1711,"erah":1712,"Ġkont":1713,"ota":1714,"Ġterlambat":1715,"Ġbicarakan":1716,"asaan":1717,"Ġokay":1718,"Ġ7":1719,"Ġperb":1720,"Ġterd":1721,"impan":1722,"Ġmengenal":1723,"Ġberusaha":1724,"Ġlaut":1725,"ihati":1726,"Ġibumu":1727,"Ġsilahkan":1728,"ukai":1729,"aus":1730,"Ġapos":1731,"Ġsurat":1732,"Ġang":1733,"Ġinf":1734,"Ġkematian":1735,"ee":1736,"Ġmay":1737,"onton":1738,"Ġpesta":1739,"Ġmendeng":1740,"Ġ20":1741,"Ġperk":1742,"entuh":1743,"enci":1744,"entara":1745,"atikan":1746,"Ġbuka":1747,"Ġmur":1748,"intang":1749,"Ġtampak":1750,"Ġadik":1751,"ahasia":1752,"ley":1753,"ore":1754,"ij":1755,"Ġmemilih":1756,"Ġup":1757,"engsek":1758,"Ġlangsung":1759,"Ġmal":1760,"Ġpesan":1761,"Ġfilm":1762,"Ġpacar":1763,"Ġbayi":1764,"Ġnona":1765,"Ġmembuatnya":1766,"Ġmenulis":1767,"Ġsendirian":1768,"Ġbertahan":1769,"empuan":1770,"aksi":1771,"Ġulang":1772,"Ġistr":1773,"Ġperempuan":1774,"Ġmis":1775,"Ġsementara":1776,"Ġrat":1777,"ha":1778,"Ġer":1779,"Ġrahasia":1780,"Ġ8":1781,"udi":1782,"my":1783,"Ġmendengarkan":1784,"tikan":1785,"Ġclark":1786,"Ġmengej":1787,"Ġmenak":1788,"Ġmemikir":1789,"ort":1790,"Ġkol":1791,"Ġsemacam":1792,"akat":1793,"Ġdig":1794,"Ġmengaj":1795,"Ġdol":1796,"if":1797,"onya":1798,"Ġperintah":1799,"Ġwill":1800,"Ġmelind":1801,"ambut":1802,"amanya":1803,"Ġuntukku":1804,"Ġsk":1805,"Ġmendapatkannya":1806,"Ġ9":1807,"Ġed":1808,"impin":1809,"Ġmenyes":1810,"Ġguru":1811,"Ġkesalahan":1812,"abiskan":1813,"Ġnat":1814,"Ġmy":1815,"Ġterj":1816,"Ġbrengsek":1817,"Ġmenerima":1818,"Ġsebaik":1819,"Ġjuta":1820,"Ġsempur":1821,"Ġbahagia":1822,"Ġtiba":1823,"Ġibuku":1824,"Ġmencintaimu":1825,"indah":1826,"undur":1827,"ach":1828,"engg":1829,"ator":1830,"Ġlewat":1831,"Ġwaktunya":1832,"irkan":1833,"Ġmesin":1834,"Ġpilihan":1835,"Ġsempurna":1836,"Ġbad":1837,"Ġperusaha":1838,"Ġmenyakit":1839,"Ġartinya":1840,"Ġdo":1841,"Ġhalhal":1842,"Ġentah":1843,"Ġberuntung":1844,"Ġmenging":1845,"Ġdingin":1846,"emen":1847,"eran":1848,"Ġnyata":1849,"Ġsebab":1850,"ler":1851,"Ġjar":1852,"Ġsemb":1853,"Ġbisnis":1854,"Ġrasanya":1855,"Ġmesk":1856,"Ġtemukan":1857,"Ġsy":1858,"ula":1859,"Ġkelihat":1860,"Ġhak":1861,"Ġtok":1862,"Ġbumi":1863,"Ġcr":1864,"Ġsetengah":1865,"ambar":1866,"Ġtutup":1867,"encan":1868,"uncul":1869,"Ġsemakin":1870,"Ġtinggalkan":1871,"Ġkelas":1872,"Ġmengel":1873,"ahl":1874,"ane":1875,"air":1876,"Ġmemakai":1877,"Ġanakku":1878,"isah":1879,"Ġmenemukannya":1880,"Ġpermainan":1881,"Ġnamun":1882,"Ġsegalanya":1883,"Ġmengingin":1884,"Ġpemer":1885,"ori":1886,"Ġlem":1887,"st":1888,"Ġof":1889,"ne":1890,"Ġlu":1891,"Ġbercanda":1892,"Ġmerasakan":1893,"Ġnew":1894,"Ġmuncul":1895,"alaman":1896,"usak":1897,"Ġpaman":1898,"Ġmulia":1899,"uangan":1900,"Ġsih":1901,"Ġwhoa":1902,"udara":1903,"ett":1904,"Ġmembuatmu":1905,"Ġby":1906,"Ġperusahaan":1907,"Ġmet":1908,"Ġmand":1909,"mas":1910,"Ġes":1911,"Ġberikutnya":1912,"Ġmenghub":1913,"atas":1914,"Ġmulut":1915,"Ġjanji":1916,"Ġmembeli":1917,"Ġge":1918,"Ġmanis":1919,"angun":1920,"endali":1921,"Ġhidupku":1922,"alik":1923,"Ġmenjaga":1924,"buk":1925,"Ġq":1926,"aul":1927,"Ġsebaiknya":1928,"Ġtemant":1929,"oga":1930,"Ġtom":1931,"ex":1932,"Ġtersebut":1933,"Ġfl":1934,"esar":1935,"Ġmundur":1936,"Ġkenal":1937,"Ġkeren":1938,"Ġpikiran":1939,"idaknya":1940,"Ġarah":1941,"Ġgag":1942,"Ġpasukan":1943,"Ġmenghancurkan":1944,"Ġgun":1945,"Ġil":1946,"anggu":1947,"Ġbantu":1948,"Ġtembak":1949,"Ġurus":1950,"opi":1951,"erb":1952,"ike":1953,"rol":1954,"Ġbintang":1955,"Ġev":1956,"Ġdew":1957,"ast":1958,"Ġpakai":1959,"Ġmain":1960,"Ġmusim":1961,"Ġsad":1962,"Ġkuc":1963,"adiah":1964,"Ġji":1965,"Ġmengubah":1966,"Ġpenjara":1967,"ikat":1968,"Ġsegala":1969,"gab":1970,"Ġmemukul":1971,"irahat":1972,"Ġrob":1973,"Ġtampaknya":1974,"Ġpernik":1975,"Ġmembunuhnya":1976,"Ġmelihatmu":1977,"Ġcharl":1978,"Ġputr":1979,"Ġtik":1980,"tar":1981,"Ġsehingga":1982,"ingkat":1983,"Ġkurang":1984,"itik":1985,"Ġdav":1986,"Ġsemoga":1987,"Ġkeada":1988,"Ġkesini":1989,"tuju":1990,"ight":1991,"Ġlel":1992,"Ġhadiah":1993,"Ġmengetahui":1994,"ayan":1995,"Ġsetidaknya":1996,"alahkan":1997,"by":1998,"usan":1999,"Ġmich":2000,"istol":2001,"Ġsiang":2002,"Ġistri":2003,"Ġmerah":2004,"Ġtanda":2005,"Ġprib":2006,"Ġkons":2007,",,,":2008,"Ġmembaca":2009,"Ġhubungan":2010,"Ġhatihati":2011,"Ġterhadap":2012,"Ġmo":2013,"Ġsetuju":2014,"Ġfrank":2015,"utuskan":2016,"Ġmembawanya":2017,"Ġtu":2018,"Ġmenyesal":2019,"ikasi":2020,"Ġco":2021,"Ġmimpi":2022,"Ġputri":2023,"ith":2024,"su":2025,"ahun":2026,"Ġharap":2027,"ewa":2028,"Ġpres":2029,"Ġrambut":2030,"Ġpistol":2031,"Ġmenyebut":2032,"Ġlupakan":2033,"Ġmenghilang":2034,"angkah":2035,"Ġagak":2036,"Ġstr":2037,"gabung":2038,"umpah":2039,"gn":2040,"orong":2041,"Ġpembunuhan":2042,"Ġpeter":2043,"Ġsaudar":2044,"Ġsiapapun":2045,"Ġbola":2046,"atur":2047,"erita":2048,"Ġha":2049,"Ġhad":2050,"Ġlah":2051,"Ġkeluarg":2052,"Ġdes":2053,"Ġkud":2054,"undang":2055,"Ġlagu":2056,"Ġhitam":2057,"Ġpernikahan":2058,"Ġpaham":2059,"Ġberita":2060,"ro":2061,"ormasi":2062,"men":2063,"Ġkuh":2064,"Ġmah":2065,"Ġsering":2066,"ode":2067,"iden":2068,"Ġ19":2069,"Ġkukatakan":2070,"Ġenam":2071,"Ġhuh":2072,"una":2073,"ert":2074,"utkan":2075,"Ġperc":2076,"ide":2077,"eral":2078,"Ġobat":2079,"Ġmed":2080,"Ġkubilang":2081,"Ġrek":2082,"Ġjahat":2083,"jakan":2084,",?":2085,"Ġmencuri":2086,"akaan":2087,"Ġsaudara":2088,"ael":2089,"Ġmenutup":2090,"Ġutk":2091,"Ġgue":2092,"Ġmaj":2093,"Ġberani":2094,"ipun":2095,"Ġsisi":2096,"Ġmatah":2097,"ura":2098,"ni":2099,"Ġterg":2100,"Ġberbohong":2101,"inj":2102,"Ġjenis":2103,"Ġwe":2104,"idak":2105,"ulkan":2106,"esan":2107,"Ġsist":2108,"tur":2109,"lis":2110,"Ġmempunya":2111,"Ġmenjel":2112,"Ġtengah":2113,"Ġmenghabiskan":2114,"Ġbenda":2115,"emukan":2116,"anet":2117,"Ġjumpa":2118,"orn":2119,"Ġmenghentikan":2120,"angi":2121,"Ġmeskipun":2122,"Ġprof":2123,"gris":2124,"iz":2125,"Ġbetapa":2126,"Ġmusuh":2127,"Ġmant":2128,"Ġmenjual":2129,"Ġtemb":2130,"Ġbahasa":2131,"iam":2132,"angga":2133,"Ġbersamasama":2134,"Ġho":2135,"Ġkemarin":2136,"ash":2137,"Ġbenci":2138,"Ġph":2139,"Ġkunci":2140,"ensi":2141,"wab":2142,"Ġmenangis":2143,"Ġmenyad":2144,"osi":2145,"Ġmempunyai":2146,"Ġ12":2147,"Ġbo":2148,"Ġmengerikan":2149,"Ġinggris":2150,"Ġbergabung":2151,"Ġsebelah":2152,"Ġjim":2153,"Ġmemutuskan":2154,"iko":2155,"Ġeks":2156,"luk":2157,"Ġudara":2158,"Ġlok":2159,"Ġmatahari":2160,"ork":2161,"Ġterluka":2162,"Ġgambar":2163,"Ġmenyelesai":2164,"Ġul":2165,"Ġpindah":2166,"Ġmemikirkan":2167,"jawab":2168,"kh":2169,"Ġberbahaya":2170,"ukainya":2171,"Ġberat":2172,"Ġmusik":2173,"Ġoper":2174,"entuk":2175,"Ġkanan":2176,"aksa":2177,"Ġbebas":2178,"epas":2179,"Ġselamanya":2180,"Ġhmm":2181,"ome":2182,"Ġkereta":2183,"angani":2184,"Ġband":2185,"ott":2186,"Ġdel":2187,"Ġdolar":2188,"iran":2189,"Ġkenc":2190,"Ġbatu":2191,"Ġsang":2192,"Ġpengh":2193,"Ġjal":2194,"Ġhot":2195,"Ġlantai":2196,"Ġmengikuti":2197,"Ġkesep":2198,"Ġmenjalan":2199,"okok":2200,"yata":2201,"emuan":2202,"Ġmenyerah":2203,"lukan":2204,"Ġfoto":2205,"ens":2206,"Ġbukti":2207,"Ġpribadi":2208,"'t":2209,"Ġsepat":2210,"Ġputih":2211,"ibat":2212,"Ġner":2213,"Ġtujuan":2214,"enuh":2215,"Ġinilah":2216,"Ġnyonya":2217,"ink":2218,"san":2219,"Ġsis":2220,"Ġgu":2221,"Ġfuck":2222,"Ġsebabnya":2223,"Ġmenempat":2224,"Ġmichael":2225,"Ġmengenai":2226,"Ġmenyukainya":2227,"ve":2228,"Ġmembuka":2229,"arga":2230,"Ġpec":2231,"han":2232,"Ġmc":2233,"Ġmelewati":2234,"Ġins":2235,"rik":2236,"Ġ15":2237,"Ġkhus":2238,"ekor":2239,"Ġmenyerang":2240,"Ġmenyukai":2241,"Ġdapatkah":2242,"alami":2243,"Ġali":2244,"Ġtoko":2245,"Ġsm":2246,"Ġpanjang":2247,"Ġbob":2248,"Ġmenonton":2249,"az":2250,"anjutkan":2251,"Ġdariku":2252,"Ġplanet":2253,"one":2254,"enangan":2255,"abuk":2256,"Ġpo":2257,"Ġsistem":2258,"eksi":2259,"ogr":2260,"Ġnik":2261,"Ġbersalah":2262,"Ġdisebut":2263,"Ġkeberatan":2264,"oth":2265,"Ġmemeriksa":2266,"Ġpal":2267,"Ġmelindungi":2268,"artemen":2269,"Ġbukanlah":2270,"Ġlay":2271,"Ġharusnya":2272,"Ġpintar":2273,"Ġcatatan":2274,"Ġdag":2275,"Ġmencintai":2276,"Ġruangan":2277,"Ġinformasi":2278,"Ġmandi":2279,"Ġkesana":2280,"Ġfor":2281,"Ġkorban":2282,"Ġpakaian":2283,"ocok":2284,"enek":2285,"Ġbas":2286,"Ġlemb":2287,"ake":2288,"Ġenak":2289,"Ġkeg":2290,"Ġselain":2291,"ba":2292,"Ġtamb":2293,"ampun":2294,"bi":2295,"mati":2296,"ungk":2297,"amanan":2298,"Ġsadar":2299,"Ġrib":2300,"Ġ30":2301,"Ġsibuk":2302,"Ġpar":2303,"Ġbank":2304,"Ġburung":2305,"Ġsaling":2306,"Ġbill":2307,"enj":2308,"Ġbin":2309,"Ġberas":2310,"Ġneraka":2311,"jur":2312,"ormat":2313,"Ġpelac":2314,"Ġkiri":2315,"iah":2316,"Ġpengg":2317,"Ġsw":2318,"Ġnamaku":2319,"Ġbau":2320,"uci":2321,"Ġkartu":2322,"nie":2323,"Ġbib":2324,"arung":2325,"Ġnenek":2326,"Ġkebenar":2327,"Ġhell":2328,"Ġhasil":2329,"Ġberjanji":2330,"Ġserangan":2331,"Ġkukira":2332,"ongk":2333,"Ġbus":2334,"ce":2335,"Ġditu":2336,"Ġsup":2337,"ver":2338,"Ġmengejar":2339,"own":2340,"Ġbiasanya":2341,"Ġcel":2342,"Ġkecel":2343,"Ġbon":2344,"amana":2345,"Ġjad":2346,"Ġalex":2347,"rak":2348,"Ġmad":2349,"Ġmenyentuh":2350,"Ġdimulai":2351,"Ġmampu":2352,"Ġtd":2353,"Ġjujur":2354,"Ġpresiden":2355,"olo":2356,"Ġdetik":2357,"Ġyes":2358,"Ġmembangun":2359,"Ġwil":2360,"kanku":2361,"Ġmengalami":2362,"adilan":2363,"Ġkotak":2364,"ilai":2365,"Ġperasaan":2366,"Ġcahaya":2367,"lo":2368,"Ġpanggilan":2369,"Ġgunakan":2370,"atihan":2371,"Ġuj":2372,"untungan":2373,"Ġsaatnya":2374,"Ġtemanku":2375,"Ġmenjauh":2376,"sh":2377,"iap":2378,"Ġkecelakaan":2379,"Ġram":2380,"Ġgar":2381,"Ġlab":2382,"akannya":2383,"Ġtas":2384,"elam":2385,"arikan":2386,"la":2387,"Ġkeamanan":2388,"Ġko":2389,"iel":2390,"Ġrom":2391,"Ġaj":2392,"arian":2393,"Ġjantung":2394,"Ġtentara":2395,"ompat":2396,"Ġdah":2397,"Ġbegini":2398,"Ġim":2399,"Ġdam":2400,"anggap":2401,"Ġhah":2402,"Ġseberapa":2403,"Ġmener":2404,"Ġtanganmu":2405,"ii":2406,"ere":2407,"'m":2408,"Ġtek":2409,"Ġistirahat":2410,"Ġnorm":2411,"ses":2412,"Ġradi":2413,"Ġterbuka":2414,"olak":2415,"ker":2416,"Ġdaf":2417,"Ġtangg":2418,"Ġtdk":2419,"Ġbagiku":2420,"Ġkulit":2421,"Ġkeadaan":2422,"Ġbud":2423,"Ġacara":2424,"Ġcol":2425,"dan":2426,"Ġseks":2427,"ood":2428,"Ġkeputus":2429,"Ġpetugas":2430,"anyi":2431,"unjukan":2432,"Ġgen":2433,"Ġpukul":2434,"Ġtertarik":2435,"apai":2436,"Ġga":2437,"Ġpohon":2438,"Ġmembunuhmu":2439,"ompok":2440,"he":2441,"Ġtemanteman":2442,"Ġdiber":2443,"Ġakal":2444,"Ġinter":2445,"ahlawan":2446,"hluk":2447,"Ġmembicarakan":2448,"Ġmart":2449,"Ġsab":2450,"Ġkhusus":2451,"Ġikan":2452,"Ġgagal":2453,"Ġcocok":2454,"ahatan":2455,"dy":2456,"Ġkad":2457,"Ġotak":2458,"Ġtumb":2459,"Ġmemulai":2460,"Ġmempercaya":2461,"ayah":2462,"Ġsand":2463,"agian":2464,"Ġmenempatkan":2465,"Ġtunjukkan":2466,"Ġanggota":2467,"Ġtip":2468,"ate":2469,"utang":2470,"Ġposisi":2471,"Ġder":2472,"urit":2473,"Ġmenolong":2474,"Ġwalter":2475,"Ġmabuk":2476,"Ġmasalahnya":2477,"ins":2478,"Ġmenyelesaikan":2479,"Ġutama":2480,"Ġkuda":2481,"Ġhel":2482,"Ġperiksa":2483,"Ġus":2484,"osa":2485,"Ġdaging":2486,"ektif":2487,"uluh":2488,"omong":2489,"Ġ100":2490,"Ġsepert":2491,"urn":2492,"eny":2493,"Ġperd":2494,"Ġangk":2495,"etan":2496,"Ġmerind":2497,"ef":2498,"isan":2499,"Ġmakhluk":2500,"Ġdaftar":2501,"Ġmom":2502,"Ġlub":2503,"idik":2504,"Ġsuper":2505,"Ġmenginginkan":2506,"Ġkalah":2507,"umur":2508,"ase":2509,"Ġbersiap":2510,"inkan":2511,"Ġmenyadari":2512,"Ġpahlawan":2513,"utar":2514,"ucapkan":2515,"Ġkopi":2516,"ukur":2517,"Ġka":2518,"Ġhingga":2519,"Ġsampah":2520,"Ġkejahatan":2521,"tiga":2522,"Ġperhatian":2523,"ice":2524,"Ġtrans":2525,"land":2526,"Ġkabarmu":2527,"Ġkirim":2528,"Ġsus":2529,"ace":2530,"ancis":2531,"Ġmenyuruh":2532,"Ġmohon":2533,"Ġham":2534,"Ġyork":2535,"embunyi":2536,"Ġpark":2537,"obat":2538,"Ġhol":2539,"Ġ50":2540,"Ġkuharap":2541,"ove":2542,"Ġkn":2543,"Ġjo":2544,"uga":2545,"erang":2546,"Ġmenjawab":2547,"erh":2548,"Ġpercayalah":2549,"Ġsejauh":2550,"Ġpertemuan":2551,"Ġmengeluar":2552,"ikap":2553,"Ġrep":2554,"Ġnamamu":2555,"Ġkag":2556,"Ġthat":2557,"Ġdgn":2558,"etak":2559,"ng":2560,"Ġmembuang":2561,"Ġgl":2562,"Ġputus":2563,"Ġdaerah":2564,"Ġgil":2565,"Ġgeorg":2566,"Ġtertawa":2567,"iter":2568,"Ġmerindukan":2569,"uter":2570,"Ġpenjaga":2571,"Ġmerupakan":2572,"Ġkay":2573,"organ":2574,"ahab":2575,"Ġjaga":2576,"Ġsung":2577,"Ġdigunakan":2578,"Ġgi":2579,"Ġemas":2580,"Ġoperasi":2581,"Ġmengganggu":2582,"Ġditemukan":2583,"Ġgak":2584,"Ġbinatang":2585,"Ġsop":2586,"Ġsejarah":2587,"Ġmm":2588,"Ġkejadi":2589,"ipt":2590,"Ġlubang":2591,"eku":2592,"Ġhotel":2593,"Ġtelpon":2594,"Ġmencium":2595,"Ġmelupakan":2596,"Ġterlibat":2597,"Ġkini":2598,"ish":2599,"Ġtind":2600,"andingan":2601,"Ġmengalahkan":2602,"itt":2603,"Ġayahnya":2604,"Ġmeja":2605,"Ġhello":2606,"Ġdin":2607,"ail":2608,"Ġmengatakannya":2609,"eritakan":2610,"Ġketak":2611,"Ġkakek":2612,"ajurit":2613,"Ġmenjelaskan":2614,"Ġmenyed":2615,"Ġlangkah":2616,"anding":2617,"Ġbom":2618,"Ġkun":2619,"Ġkim":2620,"Ġhantu":2621,"Ġkemungkin":2622,"Ġmelarikan":2623,"Ġgelap":2624,"eja":2625,"ern":2626,"Ġla":2627,"Ġmempert":2628,"Ġpantas":2629,"Ġmax":2630,"nyata":2631,"Ġpelacur":2632,"Ġje":2633,"Ġbersumpah":2634,"Ġceritakan":2635,"Ġkebenaran":2636,"Ġir":2637,"Ġnas":2638,"ampuan":2639,"Ġkamera":2640,"Ġkaya":2641,"Ġmemegang":2642,"Ġmemotong":2643,"ihan":2644,"araan":2645,"Ġkabur":2646,"Ġentahlah":2647,"Ġx":2648,"iling":2649,"Ġare":2650,"baiki":2651,"Ġikuti":2652,"Ġprajurit":2653,"Ġkon":2654,"aiku":2655,"Ġharapan":2656,"ite":2657,"Ġlapar":2658,"Ġhutan":2659,"ily":2660,"anjutnya":2661,"Ġtumbuh":2662,"okan":2663,"Ġmemaham":2664,"Ġkenyata":2665,"Ġmembunuhku":2666,"Ġtembakan":2667,"Ġkond":2668,"Ġbuah":2669,"Ġsuami":2670,"Ġsim":2671,"se":2672,"Ġall":2673,"Ġpemerintah":2674,"io":2675,"edia":2676,"Ġselanjutnya":2677,"Ġmilikku":2678,"Ġor":2679,"Ġternyata":2680,"Ġpedang":2681,"arinya":2682,"Ġpang":2683,"Ġbunga":2684,"Ġmisi":2685,"Ġbeli":2686,"Ġmembantumu":2687,"Ġkulihat":2688,"Ġberasal":2689,"Ġsituasi":2690,"Ġmengant":2691,"Ġmengaku":2692,"Ġutara":2693,"th":2694,"Ġkus":2695,"imak":2696,"Ġbersenang":2697,"Ġpu":2698,"Ġangkat":2699,"Ġlib":2700,"Ġpis":2701,"Ġmiliki":2702,"Ġged":2703,"ann":2704,"Ġbernama":2705,"anapun":2706,"andangan":2707,"mer":2708,"Ġdikatakan":2709,"Ġmemasuk":2710,"ologi":2711,"Ġgem":2712,"akatan":2713,"sat":2714,"Ġbutuhkan":2715,"onel":2716,"Ġros":2717,"Ġmama":2718,"Ġkemampuan":2719,"ujan":2720,"Ġlaporan":2721,"Ġbahaya":2722,"uai":2723,"Ġmemint":2724,"Ġsuk":2725,"Ġpertandingan":2726,"atanya":2727,"Ġmeled":2728,"Ġmon":2729,"Ġtruk":2730,"Ġdiluar":2731,"Ġtekan":2732,"Ġpaul":2733,"alnya":2734,"Ġmengingat":2735,"me":2736,"ys":2737,"Ġpusat":2738,"Ġketakutan":2739,"Ġrem":2740,"Ġoff":2741,"Ġalat":2742,"lakukan":2743,"Ġbohong":2744,"inan":2745,"Ġspesi":2746,"ka":2747,"Ġtanya":2748,"Ġkemarilah":2749,"Ġberguna":2750,"Ġmag":2751,"Ġcob":2752,"Ġlahir":2753,"Ġmengemb":2754,"Ġjari":2755,"Ġkamp":2756,"Ġhy":2757,"itan":2758,"imakasih":2759,"Ġselatan":2760,"Ġpop":2761,"Ġsebagian":2762,"Ġvampir":2763,"Ġkemungkinan":2764,"Ġdidalam":2765,"Ġsepuluh":2766,"enya":2767,"Ġmenyingk":2768,"Ġmenemu":2769,"ihak":2770,"Ġtujuh":2771,"ade":2772,"Ġluk":2773,"Ġampun":2774,"Ġkesepakatan":2775,"atis":2776,"Ġtitik":2777,"Ġsing":2778,"Ġhanyalah":2779,"Ġmendengarnya":2780,"Ġmenghad":2781,"ungannya":2782,"Ġhidupmu":2783,"inding":2784,"Ġumum":2785,"uni":2786,"Ġminuman":2787,"Ġpantat":2788,"senang":2789,"Ġyour":2790,"Ġdewasa":2791,"inal":2792,"Ġmayat":2793,"Ġlelah":2794,"yar":2795,"Ġcas":2796,"Ġhujan":2797,"Ġcharlie":2798,"Ġlayak":2799,"Ġkedengar":2800,"Ġ0":2801,"Ġrak":2802,"Ġbertanggung":2803,"Ġnatal":2804,"Ġangin":2805,"Ġbermaksud":2806,"Ġkeparat":2807,"Ġkomputer":2808,"co":2809,"Ġasing":2810,"Ġmenelpon":2811,"Ġgedung":2812,"Ġimp":2813,"Ġmenurutku":2814,"embunyikan":2815,"erhana":2816,"Ġsepatu":2817,"Ġnormal":2818,"Ġmaju":2819,"Ġmalu":2820,"Ġterdengar":2821,"Ġmengaw":2822,"elit":2823,"iat":2824,"Ġmelemp":2825,"Ġmemberimu":2826,"Ġmenyam":2827,"Ġmenahan":2828,"Ġkedengarannya":2829,"Ġkalinya":2830,"Ġkucing":2831,"ca":2832,"Ġbangga":2833,"Ġkejadian":2834,"Ġmot":2835,"Ġmark":2836,"Ġdean":2837,"Ġdavid":2838,"Ġpintunya":2839,"iptakan":2840,"Ġsobat":2841,"Ġseni":2842,"Ġmac":2843,"Ġnick":2844,"atiba":2845,"Ġtarik":2846,"Ġout":2847,"oleh":2848,"Ġmacam":2849,"abkan":2850,"Ġjawaban":2851,"Ġpotong":2852,"Ġtibatiba":2853,"Ġjiwa":2854,"Ġtv":2855,"Ġnyaman":2856,"Ġbersih":2857,"Ġsin":2858,"ormatan":2859,"Ġgeorge":2860,"ayam":2861,"Ġpelaj":2862,"Ġahli":2863,"Ġkelihatannya":2864,"iot":2865,"Ġmenghubungi":2866,"Ġmod":2867,"Ġgaris":2868,"Ġooh":2869,"Ġkacau":2870,"urnya":2871,"Ġterbur":2872,"Ġallah":2873,"hi":2874,"Ġhewan":2875,"main":2876,"Ġtes":2877,"Ġtemanmu":2878,"Ġkeputusan":2879,"apas":2880,"Ġjoe":2881,"ayangkan":2882,"Ġbak":2883,"Ġhubungi":2884,"Ġbalik":2885,"ektur":2886,"Ġkrist":2887,"Ġpeluru":2888,"Ġten":2889,"Ġkotoran":2890,"Ġtangkap":2891,"Ġkeraja":2892,"Ġberangkat":2893,"Ġaturan":2894,"Ġtuk":2895,"Ġmenari":2896,"Ġkatak":2897,"Ġsungai":2898,"Ġhid":2899,"Ġkelihatan":2900,"Ġterbesar":2901,"ubungan":2902,"Ġdad":2903,"Ġmemberitahumu":2904,"Ġpantai":2905,"Ġkok":2906,"urat":2907,"Ġcon":2908,"Ġterserah":2909,"Ġtindakan":2910,"Ġjon":2911,"Ġlex":2912,"Ġpersetan":2913,"Ġmemastikan":2914,"Ġluka":2915,"Ġdewa":2916,"atap":2917,"Ġterkenal":2918,"fa":2919,"Ġmenyimpan":2920,"apor":2921,"Ġlatihan":2922,"Ġkeingin":2923,"Ġbro":2924,"akt":2925,"Ġtop":2926,"indak":2927,"Ġiz":2928,"Ġlangit":2929,"asinya":2930,"Ġrusak":2931,"Ġgre":2932,"Ġpart":2933,"Ġkotor":2934,"andang":2935,"Ġkuber":2936,"Ġdinding":2937,"Ġhabis":2938,"Ġurusan":2939,"Ġkadangk":2940,"endam":2941,"Ġuangnya":2942,"Ġwalau":2943,"Ġbersenangsenang":2944,"Ġvir":2945,"Ġcaranya":2946,"Ġmew":2947,"Ġtidakkah":2948,"old":2949,"Ġdalamnya":2950,"Ġpendapat":2951,"Ġmengatur":2952,"Ġsecepat":2953,"inggir":2954,"asional":2955,"Ġwah":2956,"Ġmenolak":2957,"Ġhancur":2958,"Ġratu":2959,"Ġsesuai":2960,"Ġilmu":2961,"Ġbersamamu":2962,"Ġkadangkadang":2963,"Ġmilikmu":2964,"Ġtamu":2965,"Ġsemes":2966,"alis":2967,"Ġjendela":2968,"Ġcinc":2969,"Ġjumlah":2970,"Ġtersisa":2971,"onyol":2972,"ge":2973,"Ġseekor":2974,"Ġadil":2975,"Ġpengacara":2976,"Ġberharga":2977,"Ġtengg":2978,"Ġpeg":2979,"Ġpegang":2980,"Ġjas":2981,"Ġpros":2982,"Ġdibunuh":2983,"Ġdarimu":2984,"Ġtulang":2985,"Ġhen":2986,"Ġwas":2987,"ayakan":2988,"Ġjenderal":2989,"ner":2990,"Ġkent":2991,"Ġmike":2992,"apura":2993,"Ġpastikan":2994,"Ġradio":2995,"ph":2996,"Ġberhubungan":2997,"Ġibunya":2998,"Ġtab":2999,"Ġpember":3000,"Ġmembers":3001,"Ġmengem":3002,"Ġlingk":3003,"umah":3004,"iaya":3005,"Ġmencapai":3006,"Ġteh":3007,"Ġlampu":3008,"11":3009,"Ġpenyel":3010,"Ġperhatikan":3011,"Ġlar":3012,"Ġpil":3013,"eriak":3014,"Ġyesus":3015,"eck":3016,"fs":3017,"Ġmembuk":3018,"Ġpasangan":3019,"khian":3020,"Ġperj":3021,"indahkan":3022,"Ġmenjalankan":3023,"Ġbertindak":3024,"mi":3025,"Ġbahan":3026,"Ġkonyol":3027,"alukan":3028,"Ġjep":3029,"ogram":3030,"awar":3031,"Ġsederhana":3032,"Ġjess":3033,"Ġpenerb":3034,"Ġac":3035,"aring":3036,"Ġmembel":3037,"Ġmenemui":3038,"Ġne":3039,"umkan":3040,"Ġharga":3041,"nan":3042,"Ġmengambilnya":3043,"Ġterimakasih":3044,"Ġbaju":3045,"Ġta":3046,"Ġba":3047,"Ġmenikmati":3048,"Ġsar":3049,"Ġmemahami":3050,"Ġmemec":3051,"ubahan":3052,"Ġayam":3053,"lin":3054,"lihat":3055,"masuk":3056,"Ġusah":3057,"Ġlove":3058,"engan":3059,"Ġmelepaskan":3060,"Ġketiga":3061,"Ġrencan":3062,"Ġtun":3063,"Ġdibuat":3064,"Ġbersamaku":3065,"Ġbye":3066,"Ġcint":3067,"Ġkatanya":3068,"argai":3069,"Ġmaukah":3070,"endah":3071,"ewas":3072,"Ġkomand":3073,"Ġjane":3074,"Ġdij":3075,"Ġmenghubung":3076,"Ġkerajaan":3077,"Ġltu":3078,"Ġberteriak":3079,"arget":3080,"Ġcincin":3081,"Ġjerman":3082,"jub":3083,"Ġsub":3084,"Ġperubahan":3085,"atif":3086,"Ġsepertimu":3087,"Ġgigi":3088,"Ġmenceritakan":3089,"irip":3090,"ugh":3091,"Ġbuang":3092,"Ġkrim":3093,"Ġred":3094,"Ġharry":3095,"net":3096,"Ġmengurus":3097,"Ġmerek":3098,"Ġdetektif":3099,"Ġbercinta":3100,"Ġkursi":3101,"yat":3102,"Ġpi":3103,"Ġkelompok":3104,"afas":3105,"Ġtewas":3106,"gak":3107,"Ġtulis":3108,"Ġkeluarkan":3109,"Ġkehormatan":3110,"Ġbiru":3111,"ame":3112,"Ġmengag":3113,"Ġhubungannya":3114,"Ġistriku":3115,"ien":3116,"ody":3117,"amin":3118,"Ġpengadilan":3119,"Ġroh":3120,"ihir":3121,"Ġ200":3122,"Ġbentuk":3123,"Ġkue":3124,"itung":3125,"Ġnegeri":3126,"Ġher":3127,"Ġsatunya":3128,"umpulkan":3129,"aur":3130,"ergi":3131,"Ġcan":3132,"urkan":3133,"urapura":3134,"Ġmenyembunyikan":3135,"Ġsumb":3136,"Ġamb":3137,"Ġtenanglah":3138,"Ġdul":3139,"isik":3140,"Ġpenjahat":3141,"Ġkode":3142,"Ġkisah":3143,"ulik":3144,"Ġvan":3145,"Ġsemalam":3146,"Ġop":3147,"Ġtingkat":3148,"Ġterjebak":3149,"uth":3150,"Ġ18":3151,"Ġberlari":3152,"emput":3153,"Ġbayangkan":3154,"Ġjag":3155,"zz":3156,"Ġfbi":3157,"dir":3158,"Ġuntuknya":3159,"Ġps":3160,"Ġoliv":3161,"ho":3162,"Ġpengaw":3163,"Ġcium":3164,"Ġpulau":3165,"Ġbot":3166,"Ġrock":3167,"Ġsersan":3168,"Ġmengira":3169,"Ġanakmu":3170,"oris":3171,"Ġbertarung":3172,"Ġ11":3173,"Ġmit":3174,"ki":3175,"Ġklub":3176,"Ġnggak":3177,"Ġbut":3178,"Ġpetunjuk":3179,"asaran":3180,"tah":3181,"rasi":3182,"Ġgug":3183,"Ġawas":3184,"Ġpisau":3185,"min":3186,"elan":3187,"Ġlist":3188,"ekan":3189,"Ġchuck":3190,"jubkan":3191,"Ġdelapan":3192,"Ġlt":3193,"Ġperasa":3194,"Ġberjuang":3195,"ulus":3196,"Ġstev":3197,"Ġketemu":3198,"Ġwarna":3199,"aru":3200,"Ġtekn":3201,"Ġkeper":3202,"Ġpersis":3203,"lan":3204,"Ġtermasuk":3205,"ukung":3206,"Ġunit":3207,"Ġjepang":3208,"Ġpemain":3209,"Ġmerusak":3210,"Ġmembawamu":3211,"Ġik":3212,"Ġmemberiku":3213,"Ġsedih":3214,"Ġiblis":3215,"Ġmenakjubkan":3216,"Ġpalsu":3217,"Ġharuskah":3218,"Ġlapangan":3219,"Ġlemah":3220,"ret":3221,"Ġgunung":3222,"Ġapartemen":3223,"etakkan":3224,"way":3225,"Ġkencan":3226,"Ġhatiku":3227,"Ġkatakata":3228,"Ġsarah":3229,"Ġbagimu":3230,"Ġbarat":3231,"awarkan":3232,"Ġhidupnya":3233,"elas":3234,"Ġmelompat":3235,"angnya":3236,"Ġtanganku":3237,"Ġumur":3238,"Ġtarget":3239,"Ġmenangani":3240,"Ġmasuklah":3241,"Ġtiket":3242,"Ġsantai":3243,"Ġ25":3244,"Ġmor":3245,"Ġboy":3246,"Ġkepadanya":3247,"Ġmengacau":3248,"vin":3249,"Ġseminggu":3250,"Ġgal":3251,"Ġpihak":3252,"Ġseng":3253,"ingat":3254,"Ġrah":3255,"mat":3256,"tas":3257,"ipu":3258,"anian":3259,"Ġcamp":3260,"ambah":3261,"Ġpemimpin":3262,"Ġaf":3263,"Ġvide":3264,"Ġkepadaku":3265,"Ġmenganggap":3266,"untahun":3267,"Ġmaksudnya":3268,"kau":3269,"Ġtimur":3270,"ainkan":3271,"Ġberterima":3272,"Ġmenyedihkan":3273,"Ġmary":3274,"Ġpenerbangan":3275,"Ġsetan":3276,"Ġmembantuku":3277,"Ġmenyakiti":3278,"Ġmemberinya":3279,"Ġmons":3280,"Ġganti":3281,"ica":3282,"Ġpangeran":3283,"ral":3284,"Ġberbuat":3285,"Ġdanny":3286,"Ġterbunuh":3287,"qu":3288,"Ġmenghadapi":3289,"Ġmiliter":3290,"mana":3291,"Ġbaw":3292,"ahuan":3293,"Ġmemerlukan":3294,"Ġletakkan":3295,"tra":3296,"Ġtukang":3297,"Ġperminta":3298,"Ġterc":3299,"Ġmmm":3300,"Ġberf":3301,"Ġbersembunyi":3302,"Ġdendam":3303,"Ġmenungg":3304,"Ġled":3305,"Ġterbakar":3306,"Ġsaran":3307,"Ġbabi":3308,"Ġow":3309,"Ġsuar":3310,"Ġkepadamu":3311,"Ġmengec":3312,"der":3313,"Ġpasi":3314,"Ġmenaruh":3315,"Ġmist":3316,"Ġmey":3317,"injam":3318,"Ġchl":3319,"Ġcobalah":3320,"ft":3321,"fer":3322,"Ġkir":3323,"Ġint":3324,"Ġbertah":3325,"unyi":3326,"bffff":3327,"Ġpons":3328,"Ġmemimpin":3329,"Ġmenyebabkan":3330,"Ġminggir":3331,"Ġry":3332,"Ġpengec":3333,"di":3334,"Ġmenderita":3335,"Ġbayar":3336,"Ġjelek":3337,"Ġmengeluarkan":3338,"Ġsan":3339,"ato":3340,"ally":3341,"Ġkac":3342,"Ġmelapor":3343,"ney":3344,"endang":3345,"Ġmemberitahuku":3346,"Ġdibawah":3347,"Ġcerd":3348,"Ġpelan":3349,"Ġponsel":3350,"Ġidiot":3351,"Ġmirip":3352,"Ġsisa":3353,"Ġlanjutkan":3354,"Ġmemakan":3355,"Ġsch":3356,"acun":3357,"okus":3358,"Ġmembersihkan":3359,"Ġmemenangkan":3360,"Ġpuluh":3361,"Ġkunc":3362,"Ġty":3363,"Ġlee":3364,"orit":3365,"Ġsaudaraku":3366,"Ġjust":3367,"Ġpenyihir":3368,"pr":3369,"Ġgot":3370,"Ġcelana":3371,"Ġgereja":3372,"Ġpelayan":3373,"Ġhalaman":3374,"Ġsebut":3375,"tidak":3376,"Ġsl":3377,"Ġcok":3378,"Ġberhat":3379,"Ġboc":3380,"ampok":3381,"Ġmiss":3382,"ahabat":3383,"Ġduduklah":3384,"Ġpertunjukan":3385,"Ġasli":3386,"Ġbetul":3387,"Ġlelaki":3388,"Ġpir":3389,"Ġsehat":3390,"Ġadikku":3391,"bur":3392,"Ġmobilnya":3393,"Ġchloe":3394,"ingung":3395,"Ġbed":3396,"Ġbig":3397,"Ġmonster":3398,"Ġrendah":3399,"enuhi":3400,"Ġmemilik":3401,"Ġjej":3402,"Ġkejutan":3403,"Ġgerb":3404,"Ġkagak":3405,"apus":3406,"Ġmengajar":3407,"Ġmaster":3408,"Ġtol":3409,"Ġanggur":3410,"Ġreg":3411,"Ġletnan":3412,"inyal":3413,"Ġapaapaan":3414,"Ġvic":3415,"Ġsud":3416,"Ġche":3417,"Ġkuper":3418,"Ġbibi":3419,"intahkan":3420,"Ġtanggal":3421,"uhkan":3422,"Ġdesa":3423,"umen":3424,"Ġpelangg":3425,"Ġmatamu":3426,"Ġsant":3427,"Ġhadir":3428,"ucon":3429,"Ġqu":3430,"Ġbaca":3431,"Ġrumahku":3432,"Ġ40":3433,"idikan":3434,"Ġterasa":3435,"Ġtiap":3436,"Ġpendek":3437,"Ġsurga":3438,"Ġpertemp":3439,"Ġkebanyakan":3440,"alikan":3441,"ave":3442,"10":3443,"ayang":3444,"Ġmengur":3445,"Ġwhat":3446,"Ġhenry":3447,"Ġketahui":3448,"lahan":3449,"Ġperahu":3450,"Ġmembakar":3451,"Ġlelucon":3452,"Ġmengirimkan":3453,"emas":3454,"Ġkertas":3455,"Ġbertahuntahun":3456,"Ġpip":3457,"Ġmenanyakan":3458,"gh":3459,"Ġtakdir":3460,"Ġscott":3461,"Ġmendorong":3462,"Ġkolonel":3463,"Ġkend":3464,"Ġdiv":3465,"Ġgas":3466,"eher":3467,"alas":3468,"eliling":3469,"Ġway":3470,"Ġlokasi":3471,"Ġky":3472,"Ġfred":3473,"Ġmengucapkan":3474,"ery":3475,"Ġdiatas":3476,"epatan":3477,"Ġpenyakit":3478,"Ġpertempuran":3479,"Ġdarurat":3480,"acak":3481,"Ġcarl":3482,"Ġlou":3483,"Ġrup":3484,"Ġkeberuntungan":3485,"Ġdarimana":3486,"Ġmatt":3487,"uman":3488,"osan":3489,"osh":3490,"Ġbangk":3491,"Ġmenghargai":3492,"Ġmenciptakan":3493,"Ġpapa":3494,"olusi":3495,"Ġkebet":3496,"ille":3497,"endalikan":3498,"Ġanaknya":3499,"inasi":3500,"Ġjimmy":3501,"Ġsimpan":3502,"Ġbek":3503,"Ġlog":3504,"Ġvideo":3505,"atus":3506,"Ġfin":3507,"lik":3508,"ou":3509,"Ġprogram":3510,"Ġjames":3511,"Ġrusia":3512,"ami":3513,"Ġlistrik":3514,"Ġjul":3515,"Ġtikus":3516,"Ġhamil":3517,"Ġmasing":3518,"Ġkebetulan":3519,"Ġmenyuk":3520,"Ġlol":3521,"ji":3522,"Ġtuantuan":3523,"arapkan":3524,"Ġmenakutkan":3525,"Ġmengk":3526,"Ġkesulit":3527,"Ġcal":3528,"anggar":3529,"yarakat":3530,"ity":3531,"ky":3532,"Ġbegitulah":3533,"Ġstasi":3534,"Ġrus":3535,"Ġsore":3536,"apak":3537,"Ġmenatap":3538,"Ġtampan":3539,"Ġjalang":3540,"Ġperut":3541,"Ġleher":3542,"Ġcont":3543,"Ġkomun":3544,"Ġrich":3545,"tip":3546,"Ġleb":3547,"ukah":3548,"Ġbakar":3549,"enda":3550,"Ġtemui":3551,"Ġsinyal":3552,"Ġberes":3553,"Ġseorangpun":3554,"Ġmemperbaiki":3555,"ejut":3556,"Ġhow":3557,"Ġget":3558,"Ġtaman":3559,"Ġribu":3560,"Ġ14":3561,"Ġkesulitan":3562,"Ġkasar":3563,"Ġmengantar":3564,"Ġmasyarakat":3565,"Ġjalur":3566,"Ġtand":3567,"Ġsemangat":3568,"Ġsara":3569,"lar":3570,"Ġhormat":3571,"ost":3572,"Ġwilayah":3573,"Ġgunanya":3574,"Ġbiaya":3575,"Ġmeletakkan":3576,"Ġray":3577,"ongan":3578,"Ġbersamanya":3579,"Ġtergantung":3580,"Ġstasiun":3581,"Ġell":3582,"Ġmendekat":3583,"Ġseolah":3584,"Ġfo":3585,"Ġdap":3586,"Ġlni":3587,"Ġseksi":3588,"Ġhij":3589,"utut":3590,"Ġcek":3591,"Ġstop":3592,"Ġbobby":3593,"ino":3594,"Ġberper":3595,"alia":3596,"edar":3597,"ull":3598,"Ġcepatlah":3599,"Ġkekasih":3600,"ebasan":3601,"effff":3602,"za":3603,"Ġberdoa":3604,"ungsi":3605,"Ġterkejut":3606,"erl":3607,"Ġfir":3608,"teri":3609,"Ġsupaya":3610,"Ġsumber":3611,"Ġgood":3612,"Ġwarga":3613,"eter":3614,"ormati":3615,"Ġrasakan":3616,"Ġtomb":3617,"Ġmengingatkan":3618,"Ġsejati":3619,"Ġpelajaran":3620,"Ġhijau":3621,"Ġtump":3622,"ember":3623,"Ġaah":3624,"Ġbersikap":3625,"dia":3626,"Ġu":3627,"Ġmenent":3628,"oduk":3629,"Ġkondisi":3630,"ondon":3631,"ester":3632,"Ġsepenuh":3633,"Ġmenyalah":3634,"Ġcew":3635,"akaran":3636,"uas":3637,"Ġsihir":3638,"Ġfokus":3639,"Ġguys":3640,"aa":3641,"aaf":3642,"Ġsay":3643,"barang":3644,"Ġsn":3645,"orban":3646,"Ġkeluargaku":3647,"Ġmembuktikan":3648,"Ġmenghind":3649,"Ġsuruh":3650,"Ġleg":3651,"Ġlondon":3652,"Ġcur":3653,"intainya":3654,"Ġsetahun":3655,"Ġtangga":3656,"Ġperp":3657,"les":3658,"Ġwalaupun":3659,"Ġsudut":3660,"Ġmengganti":3661,"ebaskan":3662,"Ġrekaman":3663,"Ġpermintaan":3664,"Ġkenyataan":3665,"Ġ16":3666,"Ġditerima":3667,"Ġsemesta":3668,"Ġsalam":3669,"Ġfak":3670,"Ġlepas":3671,"alamu":3672,"Ġmerubah":3673,"Ġkepalanya":3674,"eth":3675,"Ġmenyebutnya":3676,"Ġsuci":3677,"Ġtar":3678,"aturan":3679,"itif":3680,"Ġnaga":3681,"Ġmengajak":3682,"Ġmenawarkan":3683,"Ġmengangkat":3684,"Ġdikenal":3685,"Ġmeledak":3686,"Ġenergi":3687,"anjian":3688,"ence":3689,"sel":3690,"Ġsaksi":3691,"Ġhangat":3692,"Ġval":3693,"ady":3694,"ulah":3695,"Ġwat":3696,"Ġmelindung":3697,"ling":3698,"Ġpertahan":3699,"Ġparah":3700,"Ġbarangbarang":3701,"aikat":3702,"Ġkemenangan":3703,"Ġkudengar":3704,"Ġcap":3705,"Ġkecepatan":3706,"Ġtahanan":3707,"Ġwith":3708,"Ġperbuat":3709,"Ġberdarah":3710,"Ġjarak":3711,"Ġprofes":3712,"pir":3713,"Ġlana":3714,"Ġcina":3715,"Ġcerdas":3716,"Ġfav":3717,"ene":3718,"gig":3719,"Ġrick":3720,"Ġmengab":3721,"Ġistim":3722,"Ġdiberikan":3723,"Ġelena":3724,"Ġsun":3725,"Ġduk":3726,"Ġinv":3727,"Ġbatas":3728,"ahuinya":3729,"Ġpemilik":3730,"Ġbadai":3731,"Ġbertaruh":3732,"Ġmeyakin":3733,"Ġsentuh":3734,"ukuran":3735,"Ġterang":3736,"Ġtaruh":3737,"Ġmenemb":3738,"Ġmenjemput":3739,"Ġmemilikinya":3740,"Ġmengak":3741,"Ġmerokok":3742,"Ġrach":3743,"Ġteling":3744,"Ġpenamp":3745,"Ġpasien":3746,"unan":3747,"Ġgig":3748,"Ġkomandan":3749,"Ġberbagi":3750,"Ġmalaikat":3751,"Ġistrinya":3752,"Ġpering":3753,"Ġperjanjian":3754,"Ġdiant":3755,"arm":3756,"'re":3757,"Ġmembayangkan":3758,"Ġbok":3759,"Ġpencuri":3760,"Ġmengunj":3761,"Ġanggap":3762,"ham":3763,"Ġmenyet":3764,"Ġsamping":3765,"Ġvictor":3766,"Ġturunkan":3767,"yak":3768,"uti":3769,"Ġsalahku":3770,"Ġmantan":3771,"ll":3772,"Ġperi":3773,"aire":3774,"Ġgay":3775,"uburu":3776,"Ġchris":3777,"Ġtangannya":3778,"Ġorgan":3779,"Ġraj":3780,"udang":3781,"Ġmencintainya":3782,"Ġtuhanku":3783,"Ġdikirim":3784,"Ġsahabat":3785,"Ġtur":3786,"Ġngomong":3787,"Ġmengetahuinya":3788,"Ġkerj":3789,"Ġketua":3790,"Ġpelatih":3791,"Ġtelur":3792,"embatan":3793,"Ġmenyus":3794,"Ġdeb":3795,"ukulan":3796,"uji":3797,"ida":3798,"Ġperal":3799,"Ġbaby":3800,"iakan":3801,"Ġgaya":3802,"Ġver":3803,"lakan":3804,"Ġkena":3805,"isap":3806,"Ġkarya":3807,"Ġkepalamu":3808,"unduk":3809,"Ġknow":3810,"Ġted":3811,"elakang":3812,"Ġsid":3813,"Ġteb":3814,"awaran":3815,"ebihan":3816,"Ġsheri":3817,"Ġberenang":3818,"Ġroti":3819,"Ġ24":3820,"Ġpab":3821,"Ġmengad":3822,"Ġ13":3823,"Ġmulutmu":3824,"entu":3825,"ikian":3826,"Ġberny":3827,"Ġtony":3828,"etahui":3829,"Ġtersangka":3830,"masing":3831,"Ġmelanggar":3832,"Ġteori":3833,"Ġfucking":3834,"olis":3835,"Ġbagaimanapun":3836,"elapan":3837,"egas":3838,"ein":3839,"Ġkeinginan":3840,"Ġdaniel":3841,"ukaan":3842,"Ġnark":3843,"Ġtekanan":3844,"entikannya":3845,"ield":3846,"Ġistimewa":3847,"ancam":3848,"Ġhand":3849,"Ġhidung":3850,"Ġclaire":3851,"Ġmengemudi":3852,"Ġhakim":3853,"ola":3854,"Ġkuncinya":3855,"Ġperbeda":3856,"Ġbocah":3857,"ise":3858,"umpul":3859,"Ġbukannya":3860,"Ġav":3861,"Ġmasingmasing":3862,"etahuan":3863,"Ġfavorit":3864,"ass":3865,"idur":3866,"Ġcor":3867,"Ġistrimu":3868,"Ġjejak":3869,"Ġusia":3870,"asilkan":3871,"Ġef":3872,"amaian":3873,"Ġmalah":3874,"Ġjembatan":3875,"Ġdong":3876,"Ġkuliah":3877,"Ġprofesor":3878,"Ġperalatan":3879,"usuk":3880,"utama":3881,"atar":3882,"Ġdiambil":3883,"Ġsebanyak":3884,"Ġmenghentikannya":3885,"Ġpengecut":3886,"Ġsepenuhnya":3887,"Ġperancis":3888,"Ġmurid":3889,"Ġmahal":3890,"Ġdivisi":3891,"Ġtempatnya":3892,"indungan":3893,"Ġmenjatuh":3894,"Ġmengikut":3895,"Ġtolonglah":3896,"Ġrekan":3897,"Ġliar":3898,"Ġmanamana":3899,"Ġparis":3900,"enyum":3901,"Ġmencarinya":3902,"Ġex":3903,"hur":3904,"Ġditangkap":3905,"andat":3906,"engaruh":3907,"Ġmemalukan":3908,"iks":3909,"ego":3910,"aksikan":3911,"ayani":3912,"Ġharg":3913,"gar":3914,"Ġbant":3915,"Ġmendukung":3916,"Ġputriku":3917,"Ġ17":3918,"Ġklien":3919,"Ġmengawasi":3920,"andai":3921,"Ġmengagumkan":3922,"amar":3923,"untut":3924,"Ġwo":3925,"Ġalih":3926,"Ġsembilan":3927,"Ġrachel":3928,"Ġindia":3929,"Ġmelihatku":3930,"Ġselesaikan":3931,"Ġmemperh":3932,"Ġujian":3933,"Ġkayu":3934,"Ġpot":3935,"Ġdisel":3936,"Ġjalanan":3937,"Ġbernyanyi":3938,"Ġjake":3939,"inginkan":3940,"fikasi":3941,"iti":3942,"Ġnilai":3943,"Ġberpurapura":3944,"Ġtongk":3945,"wal":3946,"atu":3947,"oni":3948,"Ġproy":3949,"Ġselamatkan":3950,"Ġkepal":3951,"Ġmencur":3952,"Ġkeberanian":3953,"Ġpus":3954,"Ġanc":3955,"Ġmengin":3956,"Ġterutama":3957,"Ġment":3958,"Ġisi":3959,"Ġmengumpulkan":3960,"Ġmempel":3961,"Ġmemperk":3962,"Ġpay":3963,"ekati":3964,"Ġsayangnya":3965,"rick":3966,"Ġadam":3967,"Ġperlindungan":3968,"Ġrumahnya":3969,"Ġbermimpi":3970,"Ġlembut":3971,"Ġbelas":3972,"Ġtersenyum":3973,"Ġmenyingkir":3974,"olf":3975,"Ġkejam":3976,"gadis":3977,"Ġjelaskan":3978,"Ġbapa":3979,"uduk":3980,"Ġterkadang":3981,"Ġtemantem":3982,"akaian":3983,"Ġbuta":3984,"Ġmelanjutkan":3985,"Ġkerus":3986,"Ġlind":3987,"gie":3988,"anja":3989,"Ġly":3990,"rat":3991,"amping":3992,"Ġfe":3993,"abisan":3994,"Ġlambat":3995,"iss":3996,"tic":3997,"Ġpula":3998,"die":3999,"Ġlulus":4000,"Ġtertangkap":4001,"Ġpekan":4002,"Ġmencob":4003,"Ġmenyerahkan":4004,"Ġgerakan":4005,"Ġsengaja":4006,"omi":4007,"Ġbicar":4008,"app":4009,"ivers":4010,"aan":4011,"Ġtaksi":4012,"Ġnyawa":4013,"Ġcewek":4014,"Ġberputar":4015,"Ġasal":4016,"Ġbolehkah":4017,"Ġtubuhnya":4018,"uda":4019,"Ġdev":4020,"egan":4021,"Ġthis":4022,"Ġnakal":4023,"angsung":4024,"Ġpukulan":4025,"Ġshh":4026,"Ġdata":4027,"use":4028,"Ġrestor":4029,"Ġberbalik":4030,"Ġgratis":4031,"Ġdiperlukan":4032,"Ġteroris":4033,"Ġphil":4034,"out":4035,"iar":4036,"oper":4037,"Ġmemberikannya":4038,"gigit":4039,"Ġnasib":4040,"Ġmengundang":4041,"Ġpertar":4042,"Ġdibanding":4043,"Ġkadang":4044,"utuk":4045,"Ġdipercaya":4046,"Ġmenyebalkan":4047,"Ġrel":4048,"Ġmenyimp":4049,"Ġputra":4050,"Ġmemaaf":4051,"Ġmenangkapnya":4052,"Ġkeduanya":4053,"Ġtw":4054,"Ġshe":4055,"Ġrol":4056,"Ġemily":4057,"Ġdemikian":4058,"nc":4059,"Ġwilliam":4060,"Ġdown":4061,"imbangkan":4062,"Ġmematikan":4063,"Ġpengalaman":4064,"Ġpendeta":4065,"Ġmiskin":4066,"ater":4067,"unggung":4068,"Ġpengant":4069,"emar":4070,"Ġangka":4071,"Ġson":4072,"Ġimpian":4073,"Ġmotor":4074,"Ġsarapan":4075,"Ġdarinya":4076,"wood":4077,"enalkan":4078,"Ġsepup":4079,"Ġpatah":4080,"itanya":4081,"anyatanya":4082,"Ġsukses":4083,"Ġtebak":4084,"Ġkeuntungan":4085,"Ġmengenakan":4086,"Ġmerawat":4087,"let":4088,"Ġdu":4089,"Ġlurus":4090,"Ġbilly":4091,"elamatan":4092,"Ġlemp":4093,"Ġmatikan":4094,"Ġledakan":4095,"Ġpub":4096,"Ġditembak":4097,"Ġrakyat":4098,"Ġmencobanya":4099,"Ġpam":4100,"Ġmemainkan":4101,"aib":4102,"Ġkebakaran":4103,"Ġkembalikan":4104,"encanakan":4105,"Ġdepartemen":4106,"Ġkacang":4107,"Ġseumur":4108,"Ġmeman":4109,"Ġpertarungan":4110,"Ġbingung":4111,"Ġpengetahuan":4112,"kus":4113,"Ġmisteri":4114,"Ġbesi":4115,"Ġarti":4116,"Ġmencintaiku":4117,"anamana":4118,"ender":4119,"Ġden":4120,"Ġmembawaku":4121,"ibur":4122,"Ġpenelit":4123,"oi":4124,"asannya":4125,"Ġra":4126,"Ġkaren":4127,"Ġhukuman":4128,"Ġgaun":4129,"Ġproyek":4130,"amkan":4131,"Ġbangunan":4132,"Ġlingkungan":4133,"Ġalami":4134,"Ġkatakanlah":4135,"Ġmedis":4136,"yakin":4137,"Ġkendali":4138,"itch":4139,"Ġberlatih":4140,"Ġcac":4141,"Ġtertentu":4142,"itasi":4143,"Ġsens":4144,"imana":4145,"aii":4146,"Ġtetaplah":4147,"Ġmol":4148,"Ġmenurun":4149,"Ġbertanyatanya":4150,"Ġkembal":4151,"Ġkepercaya":4152,"ez":4153,"Ġterburuk":4154,"bon":4155,"Ġberpakaian":4156,"Ġsehari":4157,"Ġgadisgadis":4158,"Ġseny":4159,"Ġizin":4160,"Ġlolos":4161,"Ġakulah":4162,"oss":4163,"uch":4164,"Ġkegelapan":4165,"Ġgerbang":4166,"Ġatap":4167,"Ġmenggunakannya":4168,"Ġresmi":4169,"andu":4170,"Ġsabar":4171,"Ġpunggung":4172,"Ġingatan":4173,"Ġprofesi":4174,"ahannya":4175,"Ġmengal":4176,"Ġblack":4177,"Ġkong":4178,"Ġmenyayang":4179,"Ġtali":4180,"ilet":4181,"Ġbantuanmu":4182,"Ġtenggelam":4183,"Ġmelepas":4184,"inda":4185,"asarkan":4186,"Ġmmh":4187,"Ġmenjij":4188,"Ġkepalaku":4189,"Ġkeker":4190,"ingatkan":4191,"Ġkedalam":4192,"urusan":4193,"Ġperbedaan":4194,"Ġ500":4195,"atasi":4196,"Ġmembalas":4197,"ahagia":4198,"Ġwajahnya":4199,"Ġsegar":4200,"Ġkeaj":4201,"Ġni":4202,"Ġancaman":4203,"Ġraks":4204,"ubung":4205,"Ġmelayani":4206,"Ġdirektur":4207,"Ġmasukkan":4208,"enjata":4209,"Ġkuno":4210,"21":4211,"aiban":4212,"Ġkontak":4213,"Ġrut":4214,"Ġtep":4215,"Ġtoilet":4216,"jak":4217,"lat":4218,"ster":4219,"Ġrobert":4220,"Ġberteman":4221,"Ġone":4222,"Ġangel":4223,"rist":4224,"Ġij":4225,"Ġgugup":4226,"Ġperingatan":4227,"Ġmi":4228,"Ġhan":4229,"Ġdana":4230,"Ġkeluargamu":4231,"Ġsekarat":4232,"Ġpecundang":4233,"Ġbokong":4234,"Ġtanggung":4235,"Ġmengerjakan":4236,"Ġberlangsung":4237,"Ġujung":4238,"Ġsopan":4239,"Ġfakta":4240,"Ġberant":4241,"Ġberuang":4242,"ance":4243,"Ġtommy":4244,"Ġmemaksa":4245,"Ġgoth":4246,"Ġbudak":4247,"Ġangkatan":4248,"Ġlengk":4249,"Ġemosi":4250,"Ġsuamiku":4251,"Ġtambahan":4252,"Ġciuman":4253,"Ġtolol":4254,"eak":4255,"Ġkebebasan":4256,"Ġund":4257,"Ġtanyakan":4258,"Ġkekacau":4259,"Ġlawan":4260,"Ġsamasama":4261,"Ġditempat":4262,"Ġprot":4263,"Ġistana":4264,"Ġpeta":4265,"Ġribuan":4266,"Ġbotol":4267,"Ġcow":4268,"tiv":4269,"amata":4270,"eluar":4271,"Ġmenghasilkan":4272,"30":4273,"ikkan":4274,"Ġraksasa":4275,"Ġcom":4276,"oda":4277,"Ġkerjakan":4278,"Ġjatuhkan":4279,"pula":4280,"Ġkeajaiban":4281,"Ġdaya":4282,"Ġaduh":4283,"Ġsingk":4284,"agukan":4285,"Ġmengisi":4286,"ewakan":4287,"meng":4288,"ron":4289,"Ġmarc":4290,"Ġmengakui":4291,"Ġlil":4292,"Ġkebohong":4293,"Ġkehabisan":4294,"Ġalamat":4295,"Ġbadan":4296,"Ġmenerim":4297,"Ġmembenci":4298,"Ġberbaring":4299,"Ġfed":4300,"Ġyahudi":4301,"Ġjadilah":4302,"Ġduluan":4303,"Ġanna":4304,"Ġcab":4305,"Ġkebaikan":4306,"awanc":4307,"'.":4308,"erti":4309,"ait":4310,"entur":4311,"Ġmeter":4312,"indung":4313,"Ġangkasa":4314,"siapkan":4315,"Ġjuara":4316,"Ġkakakku":4317,"Ġet":4318,"Ġbersedia":4319,"Ġmenggangg":4320,"tan":4321,"Ġorangnya":4322,"ajari":4323,"Ġkuberitahu":4324,"Ġna":4325,"Ġmatanya":4326,"Ġcarol":4327,"Ġnarkoba":4328,"war":4329,"Ġlong":4330,"Ġatasnya":4331,"Ġpenyeb":4332,"80":4333,"Ġnot":4334,"ever":4335,"Ġmenjag":4336,"Ġdibawa":4337,"Ġpenya":4338,"Ġboss":4339,"Ġunivers":4340,"Ġmalang":4341,"16":4342,"elle":4343,"Ġmrs":4344,"esarkan":4345,"Ġdude":4346,"Ġsteve":4347,"Ġrestoran":4348,"Ġmataku":4349,"ria":4350,"isasi":4351,"ington":4352,"Ġris":4353,"Ġlagipula":4354,"Ġmustah":4355,"Ġmemasuki":4356,"Ġkekacauan":4357,"Ġberencana":4358,"Ġmendarat":4359,"awanan":4360,"Ġsusu":4361,"hiri":4362,"Ġki":4363,"Ġsalju":4364,"Ġmerindukanmu":4365,"istirahat":4366,"Ġtongkat":4367,"Ġberlebihan":4368,"Ġdamai":4369,"Ġdiantara":4370,"Ġmustahil":4371,"emat":4372,"Ġident":4373,"Ġmenet":4374,"Ġperlahan":4375,"Ġmembenc":4376,"Ġkasihan":4377,"Ġkil":4378,"Ġpandangan":4379,"Ġjan":4380,"ulasi":4381,"Ġrumit":4382,"unda":4383,"Ġjin":4384,"Ġcome":4385,"Ġbik":4386,"Ġping":4387,"Ġmemperlakukan":4388,"Ġtelanjang":4389,"fir":4390,"orak":4391,"Ġgab":4392,"angannya":4393,"ows":4394,"Ġnasional":4395,"Ġpete":4396,"Ġmayor":4397,"Ġmenginginkannya":4398,"put":4399,"Ġple":4400,"Ġmengarah":4401,"embira":4402,"Ġmempercayai":4403,"Ġkeju":4404,"ago":4405,"Ġkesenangan":4406,"Ġsenapan":4407,"ty":4408,"ora":4409,"Ġmembosan":4410,"Ġmendekati":4411,"Ġdiamlah":4412,"Ġproses":4413,"Ġboneka":4414,"Ġdipec":4415,"anyikan":4416,"Ġjohnny":4417,"Ġlois":4418,"Ġmill":4419,"Ġberumur":4420,"Ġmars":4421,"Ġukuran":4422,"Ġpasar":4423,"Ġdibutuhkan":4424,"Ġpabrik":4425,"tup":4426,"Ġperis":4427,"Ġmemanggilku":4428,"Ġular":4429,"Ġpanik":4430,"Ġmemenuhi":4431,"iksaan":4432,"obatan":4433,"Ġkontrak":4434,"Ġmengus":4435,"Ġserig":4436,"Ġwajahmu":4437,"Ġadanya":4438,"Ġstan":4439,"Ġblok":4440,"Ġmeyakinkan":4441,"Ġcua":4442,"elahi":4443,"Ġcontoh":4444,"Ġdapur":4445,"Ġmembosankan":4446,"Ġpri":4447,"Ġmenghitung":4448,"Ġkontrol":4449,"erjakan":4450,"Ġbasah":4451,"opa":4452,"Ġperaturan":4453,"Ġmengharapkan":4454,"bert":4455,"Ġmemecahkan":4456,"Ġusaha":4457,"ulikan":4458,"gian":4459,"ancar":4460,"Ġmelacak":4461,"Ġreal":4462,"Ġmengejutkan":4463,"uld":4464,"Ġmemat":4465,"Ġpsik":4466,"Ġmanaj":4467,"erj":4468,"iasa":4469,"ye":4470,"Ġsapi":4471,"Ġlal":4472,"Ġjak":4473,"egah":4474,"Ġsisanya":4475,"Ġmelemparkan":4476,"ings":4477,"Ġberkumpul":4478,"Ġkatamu":4479,"Ġterhormat":4480,"Ġbosan":4481,"Ġpercoba":4482,"Ġeli":4483,"Ġsayap":4484,"Ġbarb":4485,"Ġtopi":4486,"Ġminyak":4487,"inci":4488,"Ġsecepatnya":4489,"anggang":4490,"Ġberkelahi":4491,"Ġmelewatkan":4492,"ville":4493,"Ġtungg":4494,"Ġditutup":4495,"Ġliburan":4496,"Ġbernapas":4497,"Ġsiapkan":4498,"Ġmengenalnya":4499,"Ġos":4500,"ose":4501,"Ġmenjalani":4502,"agam":4503,"Ġpasang":4504,"yo":4505,"Ġdewan":4506,"ale":4507,"Ġrev":4508,"abil":4509,"Ġkeseh":4510,"Ġdoc":4511,"efan":4512,"erai":4513,"sip":4514,"Ġdiketahui":4515,"Ġbekas":4516,"Ġgor":4517,"Ġpermen":4518,"que":4519,"Ġsent":4520,"Ġmengancam":4521,"Ġgame":4522,"Ġmengembalikan":4523,"Ġmenyakitkan":4524,"asang":4525,"Ġlemari":4526,"ular":4527,"Ġsheriff":4528,"Ġbapak":4529,"Ġpembicara":4530,"Ġpenelitian":4531,"Ġmenemuimu":4532,"Ġserigala":4533,"Ġtrim":4534,",.":4535,"igh":4536,"Ġrobot":4537,"aparan":4538,"isten":4539,"Ġpembohong":4540,"ive":4541,"Ġmenyaksikan":4542,"Ġkate":4543,"Ġpertahanan":4544,"Ġpemburu":4545,"Ġarthur":4546,"Ġrupanya":4547,"ukanya":4548,"Ġsayangku":4549,"Ġpolitik":4550,"Ġdave":4551,"Ġmelempar":4552,"iapkan":4553,"Ġgudang":4554,"Ġtombol":4555,"Ġberistirahat":4556,"epan":4557,"Ġmemasak":4558,"Ġbalas":4559,"ea":4560,"Ġbakat":4561,"Ġmengendalikan":4562,"Ġkekerasan":4563,"'ll":4564,"Ġdisk":4565,"Ġterkena":4566,"Ġrokok":4567,"aksana":4568,"Ġmembac":4569,"Ġfant":4570,"Ġsinar":4571,"19":4572,"Ġawak":4573,"Ġmenghormati":4574,"Ġpemenang":4575,"Ġbangsat":4576,"truk":4577,"Ġvirus":4578,"Ġcad":4579,"upun":4580,"andung":4581,"Ġsejen":4582,"Ġtyler":4583,"Ġtal":4584,"arahan":4585,"Ġteruskan":4586,"Ġpasir":4587,"Ġspesial":4588,"Ġmengunjungi":4589,"Ġkembalilah":4590,"Ġkenangan":4591,"Ġrumahmu":4592,"Ġtepatnya":4593,"Ġalien":4594,"Ġmont":4595,"Ġpengkhian":4596,"Ġkesehatan":4597,"Ġhom":4598,"Ġabad":4599,"ke":4600,"atalkan":4601,"Ġsesungguh":4602,"Ġprofesional":4603,"Ġmenteri":4604,"Ġracun":4605,"Ġproduk":4606,"Ġlinc":4607,"Ġarea":4608,"inar":4609,"ayaan":4610,"Ġhatimu":4611,"intai":4612,"Ġstefan":4613,"kita":4614,"Ġmenendang":4615,"Ġadikmu":4616,"aliknya":4617,"Ġday":4618,"Ġtrik":4619,"Ġuntung":4620,"Ġchrist":4621,"Ġkebohongan":4622,"do":4623,"Ġtertidur":4624,"Ġmelaporkan":4625,"Ġberhutang":4626,"Ġberburu":4627,"Ġjawabannya":4628,"Ġsesungguhnya":4629,"tapi":4630,"Ġharta":4631,"Ġpercobaan":4632,"Ġland":4633,"Ġdahulu":4634,"Ġmatamata":4635,"Ġmengacaukan":4636,"Ġkepercayaan":4637,"Ġjud":4638,"Ġserikat":4639,"Ġsenyum":4640,"Ġdibayar":4641,"Ġtuanku":4642,"Ġberlalu":4643,"Ġmengend":4644,"Ġvi":4645,"Ġkeluarganya":4646,"Ġmenyukaimu":4647,"iswa":4648,"daya":4649,"Ġmenggali":4650,"Ġambilkan":4651,"Ġgir":4652,"Ġgon":4653,"ei":4654,"Ġbent":4655,"arai":4656,"Ġkakiku":4657,"Ġdri":4658,"asia":4659,"edit":4660,"Ġdibelakang":4661,"Ġmenab":4662,"Ġberlian":4663,"Ġkoran":4664,"Ġmerasakannya":4665,"Ġau":4666,"ajak":4667,"Ġmodel":4668,"Ġbandara":4669,"idiki":4670,"Ġjones":4671,"Ġberurusan":4672,"Ġreb":4673,"Ġterkunci":4674,",,.":4675,"Ġrichard":4676,"bu":4677,"Ġolah":4678,"intas":4679,"Ġkolam":4680,"Ġkaca":4681,"Ġcond":4682,"Ġkelaparan":4683,"Ġmendatang":4684,"Ġberantakan":4685,"Ġcharles":4686,"Ġsikap":4687,"emahan":4688,"adab":4689,"Ġketat":4690,"ancing":4691,"Ġgang":4692,"Ġmurah":4693,"Ġmengajukan":4694,"Ġyun":4695,"Ġkevin":4696,"Ġsebaliknya":4697,"Ġsatupun":4698,"asikan":4699,"Ġberdasarkan":4700,"Ġkerusakan":4701,"Ġlike":4702,"Ġcia":4703,"Ġpengantin":4704,"ikel":4705,"oke":4706,"Ġeropa":4707,"Ġteknologi":4708,"esat":4709,"Ġdorong":4710,"Ġsingkat":4711,"Ġsenjat":4712,"Ġjuni":4713,"uruan":4714,"edi":4715,"Ġmenjatuhkan":4716,"Ġkaulah":4717,"Ġintinya":4718,"erasi":4719,"Ġkemati":4720,"emy":4721,"Ġdirumah":4722,"adalah":4723,"ihari":4724,"Ġdisitu":4725,"onyet":4726,"Ġlokal":4727,"Ġdom":4728,"amaku":4729,"Ġlis":4730,"Ġkesepian":4731,"Ġbicaralah":4732,"Ġtag":4733,"Ġberusia":4734,"Ġsekedar":4735,"Ġgilir":4736,"Ġplease":4737,"Ġkebahagia":4738,"Ġandy":4739,"Ġsaluran":4740,"Ġmengajarkan":4741,"Ġri":4742,"Ġpensi":4743,"umpang":4744,"Ġpotongan":4745,"Ġidentitas":4746,"Ġkalo":4747,"rika":4748,"Ġantar":4749,"Ġkakakmu":4750,"Ġmartin":4751,"asimu":4752,"Ġpernahkah":4753,"Ġannie":4754,"Ġberhent":4755,"Ġdipecat":4756,"ps":4757,"Ġmeninggalkannya":4758,"Ġmeminjam":4759,"inum":4760,"Ġstand":4761,"Ġkekuasaan":4762,"Ġmemperhatikan":4763,"bat":4764,"Ġkering":4765,"Ġmembebaskan":4766,"endak":4767,"owongan":4768,"ombang":4769,"Ġratusan":4770,"Ġberhatihati":4771,"osis":4772,"Ġjeff":4773,"Ġpenis":4774,"Ġtertutup":4775,"Ġawalnya":4776,"ette":4777,"Ġaja":4778,"Ġjaket":4779,"Ġmemaks":4780,"ile":4781,"omba":4782,"Ġsumpah":4783,"ower":4784,"utuhkannya":4785,"Ġwho":4786,"ompet":4787,"iman":4788,"Ġhave":4789,"Ġserahkan":4790,"Ġ60":4791,"Ġdek":4792,"Ġaktif":4793,"Ġcuaca":4794,"Ġparkir":4795,"Ġnafas":4796,"inggung":4797,"ajat":4798,"ahankan":4799,"Ġmemikirkannya":4800,"Ġperasaanmu":4801,"Ġsusah":4802,"rad":4803,"ittle":4804,"ook":4805,"Ġkakimu":4806,"Ġtaruhan":4807,"Ġpemak":4808,"Ġmainan":4809,"Ġpd":4810,"emangat":4811,"Ġlompat":4812,"tig":4813,"Ġgimana":4814,"olog":4815,"Ġpenjel":4816,"Ġmenyemb":4817,"rig":4818,"Ġkubantu":4819,"Ġmembiarkannya":4820,"Ġberhentilah":4821,"Ġkuatir":4822,"Ġpoin":4823,"Ġpenyebab":4824,"Ġmonyet":4825,"unyikan":4826,"Ġamanda":4827,"Ġja":4828,"isar":4829,"Ġpenasaran":4830,"Ġuhh":4831,"Ġnapas":4832,"ibatkan":4833,"Ġdatanglah":4834,"ĠĠĠ":4835,"Ġmencarimu":4836,"Ġlengan":4837,"Ġjus":4838,"Ġca":4839,"Ġvinc":4840,"Ġash":4841,"Ġmemangnya":4842,"andatangani":4843,"adinya":4844,"Ġep":4845,"Ġberhak":4846,"Ġmenghindari":4847,"aat":4848,"Ġsol":4849,"Ġpag":4850,"antis":4851,"asalah":4852,"Ġjuli":4853,"Ġover":4854,"Ġsenator":4855,"Ġpenderita":4856,"Ġsak":4857,"Ġmembutuhkannya":4858,"Ġpemberont":4859,"erd":4860,"Ġdamon":4861,"Ġtenaga":4862,"opter":4863,"Ġthom":4864,"Ġmaria":4865,"rid":4866,"Ġdiseb":4867,"Ġpekerjaanku":4868,"Ġrad":4869,"Ġgeng":4870,"indu":4871,"Ġkutukan":4872,"res":4873,"mel":4874,"Ġgemuk":4875,"Ġberku":4876,"Ġharv":4877,"Ġkarir":4878,"Ġlum":4879,"Ġmemesan":4880,"Ġmenguas":4881,"rut":4882,"Ġmenghal":4883,"Ġip":4884,"arankan":4885,"Ġkakinya":4886,"ram":4887,"Ġsiswa":4888,"Ġwon":4889,"Ġkebun":4890,"Ġjaringan":4891,"Ġmenyalahkan":4892,"Ġmenggigit":4893,"Ġadakah":4894,"jual":4895,"Ġuc":4896,"Ġakses":4897,"Ġmendengarku":4898,"atasan":4899,"Ġmemel":4900,"Ġmengkhian":4901,"sy":4902,"Ġsean":4903,"Ġtentangmu":4904,"Ġthere":4905,"Ġjiw":4906,"Ġterburuburu":4907,"sen":4908,"Ġbernafas":4909,"Ġmenyingkirkan":4910,"Ġsuku":4911,"Ġsans":4912,"Ġbaginya":4913,"Ġmembantunya":4914,"ella":4915,"Ġkristus":4916,"Ġmerekam":4917,"Ġlengkap":4918,"pl":4919,"Ġbell":4920,"Ġnow":4921,"kuat":4922,"tron":4923,"Ġtrims":4924,"Ġmengecewakan":4925,"raga":4926,"antinya":4927,"Ġstar":4928,"Ġmengungk":4929,"Ġdilihat":4930,"Ġsingkirkan":4931,"Ġbid":4932,"Ġeddie":4933,"Ġberan":4934,"Ġron":4935,"Ġohh":4936,"Ġmobilku":4937,"ansa":4938,"Ġlid":4939,"Ġaud":4940,"auan":4941,"Ġhamb":4942,"Ġkendaraan":4943,"Ġmenerimanya":4944,"Ġsejuj":4945,"Ġfile":4946,"Ġlas":4947,"Ġtersesat":4948,"Ġlukisan":4949,"Ġles":4950,"uthor":4951,"itz":4952,"Ġtanaman":4953,"Ġbayangan":4954,"Ġlapor":4955,"Ġmempr":4956,"Ġjenius":4957,"Ġinsp":4958,"Ġmempelajari":4959,"Ġsambil":4960,"Ġtot":4961,"Ġpor":4962,"Ġras":4963,"engkar":4964,"Ġtipe":4965,"Ġharganya":4966,"Ġ300":4967,"Ġluthor":4968,"isinya":4969,"ward":4970,"Ġgua":4971,"Ġsebulan":4972,"Ġfs":4973,"Ġengk":4974,"Ġbersulang":4975,"hy":4976,"Ġbub":4977,"ibu":4978,"over":4979,"Ġultra":4980,"asnya":4981,"Ġpastinya":4982,"Ġsetia":4983,"Ġmembahas":4984,"Ġgul":4985,"fff":4986,"pel":4987,"Ġpayah":4988,"Ġdanau":4989,"Ġfisik":4990,"Ġpikiranmu":4991,"Ġtir":4992,"ser":4993,"empur":4994,"entury":4995,"ci":4996,"Ġmenyatakan":4997,"ancang":4998,"Ġnyaw":4999,"Ġjutaan":5000,"Ġsosi":5001,"Ġmelangkah":5002,"Ġdokumen":5003,"Ġsma":5004,"Ġturn":5005,"Ġmenguasai":5006,"ingkah":5007,"angguan":5008,"Ġsejujurnya":5009,"Ġbertengkar":5010,"embang":5011,"ation":5012,"akuan":5013,"Ġpembicaraan":5014,"ion":5015,"Ġsul":5016,"Ġnn":5017,"Ġpenulis":5018,"Ġrapat":5019,"Ġdisek":5020,"Ġterpisah":5021,"amm":5022,"Ġlau":5023,"Ġkeluarlah":5024,"Ġterbiasa":5025,"Ġbold":5026,"Ġpenduduk":5027,"Ġmengajari":5028,"Ġsanta":5029,"Ġseolaholah":5030,"Ġsaham":5031,"Ġsex":5032,"Ġhor":5033,"Ġmembiarkanmu":5034,"faatkan":5035,"kar":5036,"Ġprom":5037,"Ġpilot":5038,"tak":5039,"Ġmenara":5040,"ikopter":5041,"Ġlittle":5042,"Ġbersenjata":5043,"Ġthank":5044,"Ġkeberada":5045,"Ġbukit":5046,"Ġhasilnya":5047,"50":5048,"siap":5049,"Ġgelombang":5050,"imbang":5051,"1011":5052,"Ġcowok":5053,"firm":5054,"Ġcondens":5055,"Ġjadwal":5056,"fat":5057,"off":5058,"Ġsimb":5059,"Ġhum":5060,"ngill":5061,"Ġthomas":5062,"edfs":5063,"Ġkaisar":5064,"fffngill":5065,"Ġcondensedfs":5066,"angkir":5067,"Ġpensiun":5068,"Ġengkau":5069,"Ġking":5070,"unjung":5071,"Ġkabel":5072,"Ġintern":5073,"Ġberperang":5074,"obek":5075,"Ġmorgan":5076,"Ġtant":5077,"atangan":5078,"erson":5079,"Ġtelinga":5080,"oid":5081,"wak":5082,"Ġamat":5083,"Ġpapan":5084,"Ġwor":5085,"Ġpemakaman":5086,"etik":5087,"Ġgothic":5088,"Ġmenakut":5089,"Ġgub":5090,"Ġgod":5091,"ihatilah":5092,"Ġhelikopter":5093,"Ġmanajer":5094,"Ġmuka":5095,"adisi":5096,"Ġheran":5097,"Ġragu":5098,"Ġgangguan":5099,"Ġwakil":5100,"Ġjalankan":5101,"Ġmei":5102,"Ġkenyataannya":5103,"Ġtertembak":5104,"Ġmenyebutkan":5105,"Ġsaudaramu":5106,"Ġpenggemar":5107,"ncentury":5108,"Ġsd":5109,"obi":5110,"Ġmenjijikkan":5111,"akuti":5112,"Ġilmuwan":5113,"ford":5114,"Ġstre":5115,"Ġpacarmu":5116,"Ġterowongan":5117,"awatan":5118,"Ġasisten":5119,"Ġpekerjaanmu":5120,"te":5121,"Ġmenculik":5122,"Ġpenyelidikan":5123,"Ġmunt":5124,"Ġlanjut":5125,"imen":5126,"Ġright":5127,"emburu":5128,"ikiran":5129,"Ġtime":5130,"Ġderajat":5131,"uler":5132,"inggalkan":5133,"Ġmik":5134,"asti":5135,"anye":5136,"Ġkantong":5137,"resi":5138,"Ġhas":5139,"Ġmerencanakan":5140,"Ġkeselamatan":5141,"ingkatkan":5142,"Ġbul":5143,"uki":5144,"Ġnuk":5145,"Ġmenghapus":5146,"Ġcaramu":5147,"Ġolivia":5148,"Ġmenunggumu":5149,"Ġcoklat":5150,"bo":5151,"ujud":5152,"umpulan":5153,"Ġjason":5154,"Ġbencana":5155,"Ġorangtu":5156,"Ġpernyata":5157,"ren":5158,"Ġhir":5159,"Ġbersemangat":5160,"sie":5161,"Ġmenipu":5162,"Ġrindu":5163,"Ġrumput":5164,"Ġafrika":5165,"tion":5166,"Ġhalus":5167,"Ġpencarian":5168,"Ġmengenali":5169,"Ġmenyamb":5170,"ril":5171,"Ġtor":5172,"Ġton":5173,"Ġwawanc":5174,"uce":5175,"Ġbangsa":5176,"Ġkriminal":5177,"Ġtambang":5178,"Ġmadu":5179,"Ġtawaran":5180,"low":5181,"Ġmahas":5182,"Ġtam":5183,"Ġperawat":5184,"Ġmenyiapkan":5185,"Ġpelanggan":5186,"rew":5187,"Ġekor":5188,"onan":5189,"Ġpid":5190,"Ġberdansa":5191,"Ġpermukaan":5192,"Ġmemintaku":5193,"Ġlisa":5194,"Ġgreat":5195,"Ġlidah":5196,"Ġkebahagiaan":5197,"rib":5198,"Ġkeadilan":5199,"Ġtetangga":5200,"Ġmulder":5201,"Ġasap":5202,"Ġuniversitas":5203,"Ġbersinar":5204,"Ġjesse":5205,"Ġgonna":5206,"ander":5207,"Ġkecewa":5208,"Ġkompet":5209,"Ġform":5210,"Ġdiberi":5211,"Ġcampur":5212,"Ġcy":5213,"antikan":5214,"Ġwhoo":5215,"Ġkredit":5216,"pirasi":5217,"akunya":5218,"Ġberutang":5219,"Ġmerampok":5220,"anjikan":5221,"Ġromantis":5222,"Ġharapkan":5223,"Ġmemperingatkan":5224,"Ġcuc":5225,"ese":5226,"Ġwash":5227,"Ġsiasia":5228,"Ġalasannya":5229,"Ġkorea":5230,"Ġmenekan":5231,"Ġln":5232,"Ġ21":5233,"pelan":5234,"asana":5235,"Ġmengatasi":5236,"Ġberkembang":5237,"Ġjalanjalan":5238,"Ġroma":5239,"Ġwis":5240,"Ġajaib":5241,"Ġmmhmm":5242,"Ġtk":5243,"Ġmengadakan":5244,"Ġpac":5245,"akainya":5246,"Ġmeski":5247,"Ġaus":5248,"Ġsamb":5249,"ening":5250,"anyol":5251,"audara":5252,"ukar":5253,"Ġperw":5254,"Ġsudahlah":5255,"Ġklaus":5256,"Ġwaktumu":5257,"Ġmainmain":5258,"eet":5259,"Ġmimp":5260,"Ġmenyewa":5261,"Ġberfungsi":5262,"elompok":5263,"Ġhip":5264,"Ġmemindahkan":5265,"day":5266,"Ġsepeda":5267,"Ġnikmati":5268,"Ġjes":5269,"ico":5270,"Ġsyukur":5271,"Ġjay":5272,"Ġbersihkan":5273,"Ġbertahanlah":5274,"Ġmcc":5275,"Ġtemannya":5276,"Ġahh":5277,"Ġremaja":5278,"Ġpunc":5279,"Ġhancurkan":5280,"Ġroda":5281,"Ġlumayan":5282,"Ġjosh":5283,"Ġkesal":5284,"Ġceritanya":5285,"Ġberlaku":5286,"Ġroger":5287,"Ġjeremy":5288,"Ġsembuh":5289,"Ġbawakan":5290,"Ġmampir":5291,"inju":5292,"Ġcemburu":5293,"Ġgur":5294,"Ġmenyanyi":5295,"Ġbenarkan":5296,"Ġemma":5297,"Ġryan":5298,"Ġfederal":5299,"Ġolahraga":5300,"Ġpiz":5301,"Ġperawatan":5302,"Ġfu":5303,"inggalan":5304,"Ġkese":5305,"Ġseragam":5306,"Ġmake":5307,"ory":5308,"Ġfot":5309,"Ġsepotong":5310,"Ġmemintamu":5311,"Ġpanggung":5312,"Ġkelinci":5313,"ustri":5314,"Ġpingsan":5315,"erg":5316,"iru":5317,"Ġmasalahmu":5318,"Ġpelanpelan":5319,"Ġmenyimpannya":5320,"urunan":5321,"Ġgirl":5322,"amer":5323,"Ġlag":5324,"Ġpembuat":5325,"lir":5326,"sungguh":5327,"Ġpingg":5328,"angkut":5329,"Ġtradisi":5330,"Ġspanyol":5331,"Ġulangi":5332,"Ġbakal":5333,"utu":5334,"Ġnol":5335,"Ġpemuda":5336,"Ġmenutupi":5337,"Ġmenggel":5338,"fr":5339,"Ġsip":5340,"Ġmenamp":5341,"Ġgaj":5342,"uangkan":5343,"yaku":5344,"Ġberkencan":5345,"Ġbangkit":5346,"fe":5347,"Ġ22":5348,"Ġmembawakan":5349,"Ġmembelinya":5350,"agaim":5351,"Ġmeluk":5352,"Ġtertulis":5353,"Ġsenjatamu":5354,"ilaku":5355,"iring":5356,"Ġeric":5357,"Ġmenuntut":5358,"Ġcemas":5359,"Ġpenutup":5360,"ungkinkan":5361,"Ġbaris":5362,"amaan":5363,"Ġkru":5364,"orth":5365,"Ġpaket":5366,"ontrol":5367,"Ġwhite":5368,"Ġcarter":5369,"Ġteg":5370,"Ġdansa":5371,"Ġmengatas":5372,"Ġmemperbaik":5373,"Ġdollar":5374,"bah":5375,"Ġleng":5376,"Ġmemakainya":5377,"Ġarm":5378,"Ġsimon":5379,"saya":5380,"Ġperbatasan":5381,"Ġmenembaknya":5382,"Ġkop":5383,"ath":5384,"Ġlump":5385,"Ġbibir":5386,"Ġmengakhiri":5387,"Ġdg":5388,"ush":5389,"Ġnice":5390,"Ġmenghajar":5391,"Ġindustri":5392,"Ġmakasih":5393,"aranya":5394,"Ġcermin":5395,"Ġgreen":5396,"Ġego":5397,"Ġmemohon":5398,"Ġcount":5399,"Ġmemancing":5400,"ungkan":5401,"Ġpengu":5402,"herine":5403,"Ġhong":5404,"Ġmerayakan":5405,"Ġwoo":5406,"Ġ,?":5407,"Ġbeban":5408,"Ġif":5409,"Ġdihukum":5410,"Ġkang":5411,"itor":5412,"Ġlev":5413,"daf":5414,"ikirkan":5415,"Ġ23":5416,"memb":5417,"ering":5418,"Ġmendes":5419,"waj":5420,"antang":5421,"Ġpenumpang":5422,"Ġoliver":5423,"firmasi":5424,"Ġkaw":5425,"Ġmengesan":5426,"Ġmenikahi":5427,"ograf":5428,"akter":5429,"Ġbec":5430,"Ġlord":5431,"Ġkutahu":5432,"Ġmembicarakannya":5433,"tie":5434,"Ġberlutut":5435,"Ġkunj":5436,"Ġpaus":5437,"Ġpelatihan":5438,"Ġinspektur":5439,"tis":5440,"Ġperamp":5441,"Ġmendengarmu":5442,"Ġpacarku":5443,"Ġmenyakitimu":5444,"Ġkimia":5445,"Ġmemasukkan":5446,"Ġpartai":5447,"hidup":5448,"awi":5449,"daftar":5450,"Ġcall":5451,"Ġnov":5452,"Ġwhen":5453,"Ġpersen":5454,"Ġkupikirkan":5455,"Ġsor":5456,"askannya":5457,"egal":5458,"Ġsuamimu":5459,"Ġluas":5460,"ran":5461,"Ġany":5462,"Ġterkesan":5463,"Ġmembacanya":5464,"eph":5465,"Ġkebut":5466,"Ġbeth":5467,"landia":5468,"Ġnih":5469,"Ġpatrick":5470,"Ġnuklir":5471,"erit":5472,"ole":5473,"Ġmencegah":5474,"Ġbarry":5475,"Ġresiko":5476,"por":5477,"Ġlayan":5478,"Ġtanp":5479,"Ġdada":5480,"Ġbend":5481,"Ġberkat":5482,"Ġsepak":5483,"Ġakhirakhir":5484,"Ġkuberikan":5485,"istan":5486,"Ġlegenda":5487,"Ġaksi":5488,"Ġsom":5489,"Ġlucy":5490,"Ġmenyebar":5491,"Ġtunai":5492,"Ġcintai":5493,"urangan":5494,"imat":5495,"Ġmengatasinya":5496,"Ġtaj":5497,"Ġkencing":5498,"Ġkuning":5499,"Ġrencananya":5500,"ukkan":5501,"Ġmemutar":5502,"Ġefek":5503,"Ġmemperbaikinya":5504,"mo":5505,"Ġbruce":5506,"Ġeun":5507,"fl":5508,"osok":5509,"Ġalarm":5510,"Ġjauhkan":5511,"Ġpuas":5512,"Ġfinn":5513,"bs":5514,"Ġcuri":5515,"arab":5516,"Ġabu":5517,"Ġmurni":5518,"mon":5519,"Ġucapkan":5520,"Ġhank":5521,"Ġhutang":5522,"Ġgrav":5523,"Ġsembunyi":5524,"Ġmembutuhkanmu":5525,"Ġsangg":5526,"Ġjun":5527,"Ġru":5528,"Ġhadapi":5529,"Ġmenemuinya":5530,"Ġpublik":5531,"Ġmengesankan":5532,"Ġkaulakukan":5533,"Ġbij":5534,"'ve":5535,"tua":5536,"Ġkid":5537,"Ġkeyakin":5538,"Ġtrag":5539,"Ġpizza":5540,"Ġcut":5541,"Ġdiberitahu":5542,"Ġbersiaplah":5543,"Ġek":5544,"Ġmembah":5545,"Ġwant":5546,"Ġsuasana":5547,"Ġhatinya":5548,"Ġmengenalmu":5549,"Ġmenghubungimu":5550,"Ġpikiranku":5551,"Ġbeliau":5552,"Ġwashington":5553,"Ġcre":5554,"Ġgold":5555,"Ġfar":5556,"Ġkuil":5557,"Ġpelakunya":5558,"Ġputar":5559,"Ġtangani":5560,"Ġbercerita":5561,"Ġsuaminya":5562,"Ġholly":5563,"isme":5564,"Ġstreet":5565,"onc":5566,"Ġsebesar":5567,"Ġtersembunyi":5568,"ket":5569,"Ġtud":5570,"uknya":5571,"obrol":5572,"angkal":5573,"Ġberbagai":5574,"ief":5575,"Ġatur":5576,"Ġkemanamana":5577,"cher":5578,"Ġdebu":5579,"Ġucapan":5580,"uskan":5581,"alif":5582,"Ġshin":5583,"Ġsky":5584,"anakan":5585,"oln":5586,"jabat":5587,"anganinya":5588,"Ġmemeriks":5589,"Ġmenyuruhku":5590,"Ġmarkas":5591,"yal":5592,"Ġberkom":5593,"ech":5594,"Ġmemanggilnya":5595,"Ġkoper":5596,"Ġsabtu":5597,"row":5598,"Ġtangk":5599,"ampak":5600,"Ġdiserang":5601,"Ġmenyelidiki":5602,"Ġtampil":5603,"gy":5604,"Ġmengusir":5605,"Ġkebutuhan":5606,"akapan":5607,"Ġinst":5608,"inter":5609,"Ġbrian":5610,"ld":5611,"sin":5612,"Ġringan":5613,"Ġlayanan":5614,"alitas":5615,"Ġdianggap":5616,"Ġsatelit":5617,"Ġkhan":5618,"Ġmeninggalkanmu":5619,"Ġelek":5620,"Ġmeledakkan":5621,"Ġlindungi":5622,"Ġpandai":5623,"Ġmelah":5624,"Ġpengirim":5625,"Ġstabil":5626,"Ġemail":5627,"Ġmempertahankan":5628,"van":5629,"erangan":5630,"Ġjeb":5631,"esh":5632,"Ġmelukai":5633,"Ġkarakter":5634,"Ġmempengaruh":5635,"eksiko":5636,"Ġdasarnya":5637,"Ġmenentukan":5638,"Ġwawancara":5639,"Ġban":5640,"Ġgib":5641,"Ġmuntah":5642,"agon":5643,"Ġnaz":5644,"Ġmenyala":5645,"Ġmahasiswa":5646,"Ġhill":5647,"Ġmengkh":5648,"Ġmenghadap":5649,"Ġpulanglah":5650,"Ġbayaran":5651,"Ġteleponnya":5652,"Ġbalapan":5653,"Ġtuaku":5654,"Ġmenjualnya":5655,"Ġcadangan":5656,"pu":5657,"rie":5658,"Ġmemandang":5659,"Ġsekret":5660,"entrasi":5661,"aruhkan":5662,"eer":5663,"rop":5664,"Ġsah":5665,"Ġlaw":5666,"Ġjumat":5667,"Ġjarang":5668,"Ġmengub":5669,"Ġrab":5670,"Ġsifat":5671,"Ġsosial":5672,"Ġgubern":5673,"Ġksat":5674,"uruk":5675,"Ġmelatih":5676,"Ġtentunya":5677,"Ġberaninya":5678,"Ġasa":5679,"Ġsidik":5680,"Ġmerc":5681,"Ġganja":5682,"entifikasi":5683,"Ġmeksiko":5684,"Ġjackson":5685,"ahabatan":5686,"Ġbaunya":5687,"Ġsuh":5688,"Ġback":5689,"age":5690,"Ġstudi":5691,"Ġmemungkinkan":5692,"Ġsalahmu":5693,"Ġsenior":5694,"Ġpernyataan":5695,"Ġtang":5696,"Ġpin":5697,"isahkan":5698,"Ġkebij":5699,"Ġpemeriksaan":5700,"Ġhaw":5701,"ifer":5702,"Ġkit":5703,"Ġwood":5704,"Ġmembayarnya":5705,"olehkan":5706,"Ġpenjelasan":5707,"Ġperampokan":5708,"ĠĊ":5709,"Ġkesel":5710,"Ġmobilmu":5711,"Ġketidak":5712,"Ġterkutuk":5713,"Ġderek":5714,"Ġrahasi":5715,"Ġdompet":5716,"tiwa":5717,"Ġpersahabatan":5718,"Ġgelas":5719,"Ġsasaran":5720,"Ġmembentuk":5721,"Ġfncentury":5722,"Ġbusuk":5723,"Ġpengawal":5724,"Ġlincoln":5725,"Ġgothicfs":5726,"Ġgubernur":5727,"ies":5728,"Ġpemandangan":5729,"Ġjenny":5730,"waktu":5731,"agaimana":5732,"asuh":5733,"Ġprakt":5734,"Ġasuran":5735,"Ġhitungan":5736,"Ġevery":5737,"amamu":5738,"port":5739,"eras":5740,"Ġmeningkatkan":5741,"Ġgamb":5742,"Ġchic":5743,"Ġmenemukanmu":5744,"Ġpiring":5745,"enam":5746,"Ġrose":5747,"Ġsekretaris":5748,"zo":5749,"Ġbeck":5750,"Ġsekelompok":5751,"Ġcha":5752,"Ġlift":5753,"Ġsanggup":5754,"Ġpa":5755,"Ġmenandatangani":5756,"Ġbangs":5757,"lie":5758,"kup":5759,"Ġbaiknya":5760,"abisi":5761,"Ġwalik":5762,"Ġlook":5763,"Ġmemberitahukan":5764,"Ġpuncak":5765,"Ġhabiskan":5766,"Ġyaitu":5767,"Ġlady":5768,"Ġmuak":5769,"Ġplay":5770,"Ġmolly":5771,"to":5772,"Ġkung":5773,"Ġhard":5774,"oma":5775,"Ġpeluang":5776,"Ġpunyaku":5777,"Ġwajahku":5778,"diam":5779,"ix":5780,"indahan":5781,"Ġserta":5782,"Ġperkata":5783,"Ġmembelikan":5784,"Ġbertugas":5785,"Ġjendral":5786,"stein":5787,"Ġdibandingkan":5788,"ngomong":5789,"ado":5790,"epot":5791,"ahit":5792,"Ġlic":5793,"Ġcity":5794,"Ġpercakapan":5795,"Ġwalikota":5796,"rab":5797,"Ġkebi":5798,"Ġkris":5799,"Ġkompl":5800,"Ġdoug":5801,"Ġpetern":5802,"Ġlebah":5803,"Ġpenderitaan":5804,"lam":5805,"zat":5806,"Ġgray":5807,"Ġleon":5808,"Ġnikita":5809,"are":5810,"Ġhon":5811,"Ġrok":5812,"Ġamy":5813,"Ġkomunikasi":5814,"Ġsewa":5815,"Ġgend":5816,"Ġjual":5817,"Ġterlebih":5818,"ancuran":5819,"Ġgreg":5820,"Ġheart":5821,"Ġmempersiapkan":5822,"Ġtubuhmu":5823,"ornia":5824,"Ġksatria":5825,"fik":5826,"Ġcle":5827,"Ġmarsh":5828,"Ġjago":5829,"Ġthanks":5830,"Ġsimbol":5831,"Ġpokok":5832,"engkel":5833,"enjara":5834,"Ġbidang":5835,"Ġdosa":5836,"Ġberpisah":5837,"ous":5838,"Ġpej":5839,"Ġkedatangan":5840,"Ġmelewat":5841,"Ġdibangun":5842,"Ġpengharga":5843,"cr":5844,"ega":5845,"Ġmaya":5846,"Ġmelibatkan":5847,"osk":5848,"Ġtembok":5849,"engerti":5850,"Ġgula":5851,"iup":5852,"Ġmenggantung":5853,"Ġberhatihatilah":5854,"den":5855,"ting":5856,"Ġmick":5857,"emah":5858,"Ġnight":5859,"Ġsmith":5860,"Ġdukungan":5861,"Ġsipil":5862,"Ġawan":5863,"Ġfis":5864,"Ġstaf":5865,"Ġnyalakan":5866,"Ġwhit":5867,"Ġmemerintahkan":5868,"Ġmajalah":5869,"Ġmenyelesaikannya":5870,"Ġbh":5871,"ars":5872,"Ġalk":5873,"Ġserang":5874,"Ġditahan":5875,"Ġpetual":5876,"Ġedward":5877,"Ġinternet":5878,"lm":5879,"lim":5880,"Ġyep":5881,"Ġkart":5882,"Ġtiarap":5883,"jek":5884,"Ġsee":5885,"Ġlamp":5886,"Ġlayar":5887,"Ġseratus":5888,"Ġmarin":5889,"estasi":5890,"bit":5891,"buang":5892,"yl":5893,"Ġgord":5894,"izinkan":5895,"Ġsarang":5896,"Ġpink":5897,"Ġurusanmu":5898,"Ġngomongngomong":5899,"inap":5900,"Ġpeman":5901,"Ġjaminan":5902,"atorium":5903,"Ġsok":5904,"alih":5905,"Ġpenembak":5906,"Ġbayinya":5907,"airan":5908,"Ġdivision":5909,"Ġts":5910,"Ġputaran":5911,"elaskan":5912,"Ġrs":5913,"Ġlutut":5914,"Ġcalif":5915,"Ġmemasang":5916,"Ġhapp":5917,"Ġlezat":5918,"olisian":5919,"Ġlisbon":5920,"Ġump":5921,"Ġkah":5922,"Ġsinga":5923,"Ġlouis":5924,"Ġmengalir":5925,"Ġgembira":5926,"Ġchip":5927,"Ġditambah":5928,"akangan":5929,"Ġmenahannya":5930,"adapan":5931,"Ġhm":5932,"ili":5933,"Ġperdamaian":5934,"inn":5935,"Ġanti":5936,"Ġtubuhku":5937,"Ġmenjauhlah":5938,"ary":5939,"Ġpindahkan":5940,"ohol":5941,"Ġresep":5942,"Ġpengkhianat":5943,"Ġsyukurlah":5944,"Ġrap":5945,"Ġbersy":5946,"Ġtangguh":5947,"Ġpuisi":5948,"Ġpajak":5949,"Ġapel":5950,"Ġkerumah":5951,"Ġkuburan":5952,"Ġpertanyaannya":5953,"Ġterjatuh":5954,"nes":5955,"Ġpengaruh":5956,"Ġsiapakah":5957,"Ġdrive":5958,"Ġlight":5959,"Ġmengij":5960,"Ġpelindung":5961,"Ġberniat":5962,"Ġdicuri":5963,"Ġmahk":5964,"Ġsuster":5965,"Ġrub":5966,"Ġkarun":5967,"Ġketinggalan":5968,"Ġkepolisian":5969,"Ġmanapun":5970,"tifkan":5971,"Ġmempertimbangkan":5972,"Ġmenabrak":5973,"Ġchicago":5974,"lor":5975,"tim":5976,"Ġmemaafkan":5977,"Ġkebiasaan":5978,"Ġlat":5979,"Ġren":5980,"oman":5981,"Ġbrad":5982,"Ġzh":5983,"Ġdiperb":5984,"Ġdarahnya":5985,"Ġhaus":5986,"Ġmengalah":5987,"Ġganda":5988,"Ġkost":5989,"Ġdog":5990,"Ġkuambil":5991,"Ġsepasang":5992,"Ġambillah":5993,"Ġbenteng":5994,"Ġkob":5995,"Ġketerl":5996,"Ġsue":5997,"Ġvirg":5998,"Ġinves":5999,"Ġmarcus":6000,"ebar":6001,"Ġlautan":6002,"Ġkentang":6003,"Ġchina":6004,"ombong":6005,"Ġpipa":6006,"Ġmenyayangimu":6007,"Ġpenghargaan":6008,"Ġmeminum":6009,"ungguhan":6010,"Ġawasi":6011,"Ġpatung":6012,"Ġcalifornia":6013,"atal":6014,"Ġrekening":6015,"Ġperistiwa":6016,"gr":6017,"erman":6018,"Ġsabuk":6019,"Ġrod":6020,"esa":6021,"Ġatl":6022,"Ġkanker":6023,"olongan":6024,"Ġpetani":6025,"Ġmenghilangkan":6026,"Ġpelajari":6027,"Ġtay":6028,"Ġgol":6029,"Ġwart":6030,"Ġdipanggil":6031,"Ġmematahkan":6032,"Ġmengunci":6033,"oko":6034,"Ġmencuci":6035,"berg":6036,"osiasi":6037,"Ġmelindungimu":6038,"yah":6039,"Ġdilah":6040,"Ġtidaklah":6041,"Ġnel":6042,"Ġtugasmu":6043,"Ġyunani":6044,"itkan":6045,"Ġpengendali":6046,"enyap":6047,"umsi":6048,"Ġbertingkah":6049,"Ġsepertiku":6050,"Ġport":6051,"iksi":6052,"Ġrig":6053,"esaikan":6054,"Ġsenjatanya":6055,"Ġasuransi":6056,"atat":6057,"atuan":6058,"Ġbelok":6059,"ect":6060,"Ġdilakukannya":6061,"Ġsepupu":6062,"Ġrisiko":6063,"een":6064,"isahan":6065,"Ġmengger":6066,"aba":6067,"Ġsoph":6068,"asiapa":6069,"Ġkalung":6070,"Ġseksual":6071,"Ġtumpangan":6072,"aih":6073,"Ġdat":6074,"alagi":6075,"Ġdialah":6076,"Ġmelebih":6077,"Ġbelakangan":6078,"Ġdick":6079,"Ġlen":6080,"Ġjung":6081,"Ġhallo":6082,"aksanakan":6083,"opsi":6084,"Ġartikel":6085,"Ġlingkaran":6086,"Ġsenin":6087,"Ġbangunlah":6088,"Ġramah":6089,"ito":6090,"utasi":6091,"Ġbart":6092,"Ġuangku":6093,"Ġmenyelinap":6094,"Ġtugasku":6095,"Ġmengkhawatir":6096,"Ġmenghancur":6097,"Ġilegal":6098,"otte":6099,"Ġperduli":6100,"Ġluke":6101,"Ġtajam":6102,"kati":6103,"Ġdna":6104,"Ġmasak":6105,"Ġpeti":6106,"astik":6107,"Ġdilahirkan":6108,"Ġlamb":6109,"Ġterikat":6110,"Ġmenduga":6111,"Ġpenemuan":6112,"atanda":6113,"Ġberkeli":6114,"orbankan":6115,"Ġest":6116,"Ġperak":6117,"Ġmenyanyikan":6118,"nah":6119,"Ġorg":6120,"Ġmenunjuk":6121,"Ġsiapasiapa":6122,"Ġtiada":6123,"onald":6124,"Ġkampus":6125,"po":6126,"Ġkara":6127,"Ġwall":6128,"ulainya":6129,"Ġkeyakinan":6130,"nam":6131,"icu":6132,"Ġmencurig":6133,"Ġperangkat":6134,"Ġrenang":6135,"andalkan":6136,"Ġterhubung":6137,"Ġputuskan":6138,"Ġperpust":6139,"mond":6140,"lee":6141,"Ġmenyelamatkannya":6142,"Ġterbangun":6143,"Ġtae":6144,"Ġmengabaikan":6145,"Ġijin":6146,"Ġbikin":6147,"truksi":6148,"Ġsap":6149,"Ġjab":6150,"Ġkamb":6151,"Ġweb":6152,"ehan":6153,"Ġbertempur":6154,"Ġputrimu":6155,"Ġmarty":6156,"Ġcass":6157,"Ġkompetisi":6158,"Ġberkeliaran":6159,"Ġbug":6160,"Ġsnow":6161,"rey":6162,"Ġtt":6163,"Ġpemikiran":6164,"Ġsho":6165,"Ġkoin":6166,"Ġmemperkenalkan":6167,"Ġturut":6168,"amen":6169,"Ġhay":6170,"isnya":6171,"Ġdimakan":6172,"Ġsepakat":6173,"uruf":6174,"Ġreally":6175,"ier":6176,"mem":6177,"Ġsungguhan":6178,"Ġgrand":6179,"mereka":6180,"Ġmaggie":6181,"Ġmakin":6182,"Ġkandang":6183,"Ġbaja":6184,"Ġsempat":6185,"Ġchi":6186,"Ġjerry":6187,"Ġlintas":6188,"Ġmembatalkan":6189,"Ġterbuat":6190,"Ġhere":6191,"Ġkeahl":6192,"Ġpenari":6193,"Ġpenonton":6194,"Ġ90":6195,"Ġkematiannya":6196,"Ġmembahayakan":6197,"tanya":6198,"Ġkati":6199,"Ġpep":6200,"Ġkaum":6201,"Ġmembela":6202,"Ġmenjerit":6203,"Ġputraku":6204,"Ġconn":6205,"Ġtunggal":6206,"gen":6207,"ze":6208,"Ġugh":6209,"ely":6210,"ehat":6211,"andy":6212,"Ġlilin":6213,"nn":6214,"tik":6215,"akira":6216,"Ġsint":6217,"Ġpimpin":6218,"Ġthey":6219,"ferensi":6220,"Ġpelanggaran":6221,"Ġmenghalangi":6222,"abut":6223,"Ġsembunyikan":6224,"Ġsandera":6225,"Ġdulunya":6226,"Ġkeahlian":6227,"ck":6228,"Ġmenaik":6229,"Ġcent":6230,"Ġketurunan":6231,"Ġterbatas":6232,"Ġandrew":6233,"Ġmuh":6234,"Ġnan":6235,"egangan":6236,"Ġditak":6237,"Ġmatemat":6238,"Ġmemanggilmu":6239,"de":6240,"itter":6241,"Ġdijual":6242,"Ġlos":6243,"Ġvol":6244,"Ġgiliran":6245,"Ġtotal":6246,"Ġdy":6247,"Ġbanget":6248,"Ġgenerasi":6249,"Ġmenyetir":6250,"Ġmemanfaatkan":6251,"ehkan":6252,"Ġkirimkan":6253,"Ġmitch":6254,"Ġvictoria":6255,"Ġtkp":6256,"Ġari":6257,"apatkan":6258,"ujian":6259,"Ġmesti":6260,"Ġabby":6261,"Ġtagihan":6262,"ahal":6263,"Ġcho":6264,"Ġdipenjara":6265,"Ġliat":6266,"Ġbijaksana":6267,"Ġmir":6268,"ekerjakan":6269,"Ġsemi":6270,"Ġkesed":6271,"Ġbermasalah":6272,"astis":6273,"Ġizinkan":6274,"Ġwayne":6275,"Ġtandatanda":6276,"Ġwartawan":6277,"hat":6278,"asiku":6279,"Ġmengid":6280,"amatkan":6281,"Ġperan":6282,"Ġann":6283,"Ġrun":6284,"awakan":6285,"ister":6286,"Ġngga":6287,"Ġmenyentuhnya":6288,"Ġgalaksi":6289,"anam":6290,"Ġjalannya":6291,"Ġkecilku":6292,"Ġtelat":6293,"Ġjoey":6294,"Ġmenyamp":6295,"Ġfeel":6296,"Ġduga":6297,"Ġakankah":6298,"Ġmeragukan":6299,"Ġseberang":6300,"Ġbersel":6301,"Ġsampaikan":6302,"Ġtex":6303,"hop":6304,"iak":6305,"Ġdomba":6306,"Ġraya":6307,"Ġfer":6308,"Ġchief":6309,"Ġmemberikanmu":6310,"Ġputrinya":6311,"Ġlabor":6312,"Ġmempercayainya":6313,"Ġcintaku":6314,"Ġbulu":6315,"Ġ45":6316,"Ġnathan":6317,"ekuensi":6318,"Ġmengganggumu":6319,"sesi":6320,"Ġlot":6321,"bintang":6322,"Ġmerebut":6323,"Ġnonton":6324,"Ġfasil":6325,"Ġsekalian":6326,"Ġgrace":6327,"andainya":6328,"Ġ80":6329,"Ġpecah":6330,"Ġditulis":6331,"Ġarab":6332,"Ġtap":6333,"Ġjac":6334,"ujuan":6335,"Ġkyle":6336,"Ġperbuatan":6337,"Ġmengkhianati":6338,"Ġalkohol":6339,"Ġtari":6340,"Ġberisi":6341,"Ġapanya":6342,"Ġprancis":6343,"Ġyoung":6344,"Ġpekerjaannya":6345,"Ġmengeluh":6346,"Ġbedanya":6347,"Ġjebakan":6348,"ailah":6349,"arus":6350,"Ġapalagi":6351,"ambarkan":6352,"Ġtertinggi":6353,"Ġsitus":6354,"Ġque":6355,"Ġmewah":6356,"Ġmenyarankan":6357,"Ġpacarnya":6358,"Ġkaf":6359,"Ġmenghukum":6360,"saat":6361,"Ġkejar":6362,"Ġsyarat":6363,"Ġuhhuh":6364,"Ġmelahirkan":6365,"pet":6366,"emahkan":6367,"Ġchan":6368,"Ġbensin":6369,"Ġmete":6370,"Ġmedia":6371,"Ġbuddy":6372,"Ġmenyambut":6373,"Ġperpustakaan":6374,"Ġmemori":6375,"Ġterbaru":6376,"Ġbuatlah":6377,"Ġsmall":6378,"Ġsuaranya":6379,"Ġhuruf":6380,"Ġapaan":6381,"Ġpass":6382,"Ġbonnie":6383,"Ġpemberontak":6384,"Ġkutemukan":6385,"Ġmainkan":6386,"Ġperasaanku":6387,"Ġkostum":6388,"Ġmeray":6389,"ajuan":6390,"Ġmenyelamatkanmu":6391,"Ġmemeriksanya":6392,"Ġsum":6393,"Ġgurun":6394,"okol":6395,"Ġberkas":6396,"Ġmenolongmu":6397,"ammad":6398,"Ġtat":6399,"Ġhim":6400,"Ġterob":6401,"Ġranjang":6402,"Ġagama":6403,"Ġwaspada":6404,"Ġworld":6405,"Ġpidato":6406,"Ġmemulainya":6407,"Ġterm":6408,"Ġfall":6409,"Ġdisekitar":6410,"Ġmempengaruhi":6411,"ikah":6412,"Ġmerobek":6413,"entang":6414,"aci":6415,"edak":6416,"Ġkalimat":6417,"itual":6418,"Ġcomp":6419,"Ġseribu":6420,"Ġtank":6421,"ais":6422,"Ġjet":6423,"Ġkuinginkan":6424,"Ġbajak":6425,"Ġkamarku":6426,"Ġbac":6427,"Ġroy":6428,"Ġmenyalakan":6429,"incang":6430,"Ġkirakira":6431,"eluarkan":6432,"jam":6433,"Ġlaki":6434,"Ġgy":6435,"elahan":6436,"Ġpola":6437,"Ġbuatan":6438,"Ġmelupakannya":6439,"Ġsuhu":6440,"line":6441,"umlah":6442,"Ġthink":6443,"Ġcerah":6444,"Ġitalia":6445,"Ġmemberitahunya":6446,"Ġalice":6447,"Ġfasilitas":6448,"ully":6449,"Ġjean":6450,"Ġmarinir":6451,"Ġdiku":6452,"pergian":6453,"abi":6454,"ambahkan":6455,"Ġdilarang":6456,"Ġberlayar":6457,"Ġmengetuk":6458,"Ġteknik":6459,"vi":6460,"Ġnar":6461,"Ġdunham":6462,"Ġfrancis":6463,"Ġmemintanya":6464,"ualan":6465,"entingan":6466,"Ġchen":6467,"Ġwalker":6468,"Ġcaroline":6469,"Ġtuduhan":6470,"Ġpengiriman":6471,"pe":6472,"adam":6473,"Ġhigh":6474,"Ġmemperoleh":6475,"Ġgravitasi":6476,"Ġmuhammad":6477,"field":6478,"als":6479,"Ġheh":6480,"Ġabadi":6481,"Ġpercy":6482,"Ġmengendarai":6483,"Ġkeuangan":6484,"Ġdiamdiam":6485,"Ġtantangan":6486,"Ġlaboratorium":6487,"Ġls":6488,"Ġalp":6489,"Ġdimas":6490,"Ġhoward":6491,"unungan":6492,"Ġjaksa":6493,"Ġbepergian":6494,"20":6495,"ead":6496,"ped":6497,"Ġmore":6498,"Ġjos":6499,"Ġkutunjukkan":6500,"Ġmantel":6501,"Ġlibur":6502,"Ġuangmu":6503,"Ġnegatif":6504,"Ġpanah":6505,"hh":6506,"aluan":6507,"Ġcasey":6508,"Ġtenggor":6509,"Ġmenentang":6510,"Ġkatie":6511,"Ġkembar":6512,"Ġpenjualan":6513,"Ġsut":6514,"Ġmenebak":6515,"Ġhiduphidup":6516,"Ġspart":6517,"Ġdipert":6518,"Ġprosed":6519,"Ġikatan":6520,"Ġberfikir":6521,"Ġai":6522,"Ġsally":6523,"Ġlor":6524,"Ġmengontrol":6525,"ire":6526,"adian":6527,"Ġtake":6528,"Ġasia":6529,"chi":6530,"ujui":6531,"Ġjangk":6532,"Ġbarusan":6533,"Ġberkeliling":6534,"Ġmesir":6535,"Ġtuamu":6536,"Ġmantra":6537,"Ġseharian":6538,"Ġambulan":6539,"Ġmengungkapkan":6540,"Ġjuri":6541,"pati":6542,"Ġbrav":6543,"cepat":6544,"ks":6545,"kawan":6546,"Ġudah":6547,"urang":6548,"Ġtulisan":6549,"Ġavatar":6550,"Ġroll":6551,"Ġmatematika":6552,"Ġdlm":6553,"Ġyu":6554,"Ġkeleda":6555,"Ġkatakat":6556,"Ġekstr":6557,"Ġipar":6558,"Ġpenampilan":6559,"Ġmisterius":6560,"Ġakibat":6561,"Ġakrab":6562,"Ġpelukan":6563,"Ġperguruan":6564,"Ġnikmat":6565,"Ġtambah":6566,"Ġtarian":6567,"Ġberwar":6568,"Ġmayatnya":6569,"Ġmenyadarinya":6570,"Ġgus":6571,"Ġkuj":6572,"ongkar":6573,"Ġcos":6574,"Ġbuatmu":6575,"Ġjesus":6576,"Ġtunt":6577,"Ġmengikat":6578,"Ġkemarahan":6579,"Ġdimengerti":6580,"Ġotot":6581,"Ġpegunungan":6582,"Ġperangkap":6583,"Ġrud":6584,"Ġgri":6585,"Ġnever":6586,"Ġmemperl":6587,"Ġhiu":6588,"Ġhadapan":6589,"Ġhadirin":6590,"ukuli":6591,"Ġkelemahan":6592,"ipta":6593,"Ġbermainmain":6594,"Ġkekurangan":6595,"Ġmengurusnya":6596,"ball":6597,"Ġagung":6598,"Ġpendapatmu":6599,"iny":6600,"Ġmenanganinya":6601,"ors":6602,"eskan":6603,"Ġgw":6604,"Ġ'.":6605,"Ġmedan":6606,"Ġmempercayaimu":6607,"Ġcacat":6608,"roli":6609,"aron":6610,"Ġseandainya":6611,"Ġkemajuan":6612,"Ġjamie":6613,"Ġpetualangan":6614,"12":6615,"Ġkepon":6616,"Ġchang":6617,"Ġduni":6618,"Ġrute":6619,"Ġalan":6620,"asat":6621,"Ġcam":6622,"Ġmembukanya":6623,"Ġcharlotte":6624,"Ġlorong":6625,"Ġkamer":6626,"Ġwest":6627,"Ġmenghibur":6628,"Ġbrody":6629,"ingkuh":6630,"Ġumat":6631,"acamata":6632,"Ġmisalnya":6633,"Ġdiculik":6634,"Ġpartner":6635,"Ġkaryawan":6636,"Ġmeningkat":6637,"Ġmengum":6638,"Ġkelly":6639,"Ġcheck":6640,"Ġpengorban":6641,"Ġclub":6642,"ause":6643,"etar":6644,"Ġapril":6645,"Ġtempatmu":6646,"Ġwalt":6647,"Ġpejuang":6648,"ariku":6649,"Ġjoo":6650,"oker":6651,"Ġserangga":6652,"Ġzona":6653,"Ġperhati":6654,"Ġajak":6655,"Ġsarankan":6656,"Ġpokoknya":6657,"'d":6658,"Ġcind":6659,"Ġnor":6660,"Ġmenjebak":6661,"Ġperwira":6662,"Ġtai":6663,"Ġganggu":6664,"Ġfly":6665,"Ġ400":6666,"Ġmengingatnya":6667,"mos":6668,"Ġusi":6669,"Ġhib":6670,"Ġinti":6671,"Ġmembungk":6672,"Ġril":6673,"Ġarg":6674,"Ġstandar":6675,"Ġpeternakan":6676,"giatan":6677,"Ġsha":6678,"Ġamin":6679,"Ġmiliknya":6680,"Ġlipat":6681,"Ġpagar":6682,"oon":6683,"Ġperawan":6684,"Ġberduka":6685,"Ġrambutmu":6686,"Ġuntungnya":6687,"aha":6688,"Ġlancar":6689,"Ġperayaan":6690,"umpa":6691,"Ġharris":6692,"antan":6693,"Ġrepot":6694,"Ġmenyamar":6695,"kr":6696,"zy":6697,"Ġpengobatan":6698,"Ġperlukan":6699,"inginan":6700,"Ġgran":6701,"Ġtaylor":6702,"Ġbintangbintang":6703,"Ġrencanamu":6704,"Ġegois":6705,"Ġkeledai":6706,"Ġpanc":6707,"Ġkegiatan":6708,"ure":6709,"osaur":6710,"Ġotom":6711,"Ġwatch":6712,"akut":6713,"Ġdeh":6714,"Ġmenantang":6715,"isimu":6716,"ancy":6717,"Ġ70":6718,"Ġharvey":6719,"rer":6720,"wich":6721,"ilian":6722,"Ġgent":6723,"abeth":6724,"uncur":6725,"Ġingatlah":6726,"Ġmeninggalkanku":6727,"Ġmeniup":6728,"Ġterper":6729,"elli":6730,"Ġgendut":6731,"ple":6732,"Ġpurapura":6733,"uruhan":6734,"Ġwaris":6735,"Ġtersinggung":6736,"Ġiklan":6737,"Ġms":6738,"Ġhop":6739,"Ġsammy":6740,"Ġlarut":6741,"Ġmeraih":6742,"Ġpadang":6743,"Ġcacing":6744,"Ġsensitif":6745,"Ġkeberadaan":6746,"eo":6747,"Ġmemakannya":6748,"Ġpositif":6749,"Ġkunjungan":6750,"pikir":6751,"Ġmam":6752,"inilah":6753,"Ġmenunduk":6754,"Ġshaw":6755,"Ġgaji":6756,"Ġey":6757,"Ġbow":6758,"obos":6759,"oboh":6760,"Ġtopeng":6761,"Ġsombong":6762,"irakan":6763,"Ġsekeliling":6764,"Ġprop":6765,"Ġaz":6766,"iver":6767,"Ġintel":6768,"Ġsidang":6769,"Ġmemeluk":6770,"Ġberwarna":6771,"Ġmengeks":6772,"eser":6773,"Ġgajah":6774,"Ġkuberi":6775,"Ġpayudara":6776,"Ġmemanj":6777,"ingkan":6778,"Ġpro":6779,"Ġditinggalkan":6780,"Ġlarry":6781,"eum":6782,"ven":6783,"Ġkod":6784,"Ġmengulang":6785,"Ġmengorbankan":6786,"Ġsekalipun":6787,"Ġkubunuh":6788,"Ġderm":6789,"Ġinternasional":6790,"ko":6791,"inf":6792,"encian":6793,"Ġterhebat":6794,"Ġterdekat":6795,"Ġjarum":6796,"Ġpegangan":6797,"Ġmenatapku":6798,"Ġmenusuk":6799,"upa":6800,"elahian":6801,"Ġglob":6802,"malukan":6803,"ning":6804,"Ġmun":6805,"Ġkm":6806,"Ġtadinya":6807,"Ġdisamping":6808,"Ġitukah":6809,"Ġbabak":6810,"Ġkebenarannya":6811,"lok":6812,"angs":6813,"Ġdiad":6814,"Ġmemu":6815,"Ġmasukan":6816,"Ġputeri":6817,"Ġcarrie":6818,"orgol":6819,"imbangan":6820,"Ġlempar":6821,"Ġmenurunkan":6822,"bol":6823,"Ġwin":6824,"tern":6825,"Ġkehad":6826,"Ġkonser":6827,"Ġbersiapsiap":6828,"Ġvincent":6829,".,":6830,"Ġyi":6831,"Ġcak":6832,"Ġproper":6833,"Ġasl":6834,"Ġdarat":6835,"akili":6836,"Ġbadut":6837,"Ġsinting":6838,"Ġur":6839,"Ġtahap":6840,"evisi":6841,"ohonan":6842,"Ġmenginap":6843,"gus":6844,"Ġian":6845,"ilkan":6846,"Ġrantai":6847,"Ġfinal":6848,"Ġkebencian":6849,"Ġperkelahian":6850,"Ġkeadaannya":6851,"Ġsukar":6852,"Ġlogam":6853,"Ġkeseluruhan":6854,"Ġurut":6855,"Ġboo":6856,"elat":6857,"Ġfrankie":6858,"Ġlembah":6859,"Ġsopir":6860,"Ġmenyampaikan":6861,"Ġadegan":6862,"Ġbertambah":6863,"Ġkepentingan":6864,"Ġpengawasan":6865,"sem":6866,"alian":6867,"seb":6868,"Ġmic":6869,"Ġpenipu":6870,"Ġlov":6871,"Ġfrom":6872,"Ġgiliranmu":6873,"jen":6874,"itis":6875,"Ġrunt":6876,"Ġkaret":6877,"Ġdipr":6878,"Ġmargar":6879,"ric":6880,"til":6881,"Ġkeempat":6882,"Ġnich":6883,"Ġrumor":6884,"Ġberdebat":6885,"Ġunik":6886,"Ġmelebihi":6887,"Ġtexas":6888,"eed":6889,"ayaran":6890,"Ġmaumu":6891,"Ġpendidikan":6892,"Ġteknis":6893,"Ġmenyukaiku":6894,"Ġmenjaganya":6895,"mes":6896,"ebr":6897,"endara":6898,"Ġstatus":6899,"Ġ35":6900,"Ġdrama":6901,"Ġhero":6902,"Ġcem":6903,"Ġmiles":6904,"Ġdidn":6905,"Ġmenembus":6906,"Ġbertiga":6907,"Ġberbakat":6908,"ecil":6909,"Ġratus":6910,"Ġsemacamnya":6911,"Ġrobin":6912,"Ġmenjelaskannya":6913,"awai":6914,"Ġpengasuh":6915,"Ġkawankawan":6916,"Ġdaun":6917,"Ġsaudaras":6918,"Ġaustr":6919,"Ġtong":6920,"Ġpon":6921,"Ġyank":6922,"Ġeng":6923,"Ġkacamata":6924,"Ġscully":6925,"Ġpirang":6926,"Ġgordon":6927,"Ġkelah":6928,"Ġpinjam":6929,"Ġharihari":6930,"Ġvegas":6931,"Ġdikeluarkan":6932,"Ġpound":6933,"Ġtengk":6934,"ahaman":6935,"Ġpian":6936,"ones":6937,"Ġass":6938,"Ġgrup":6939,"adak":6940,"ingo":6941,"uduh":6942,"Ġtempatku":6943,"Ġvick":6944,"Ġprosedur":6945,"Ġseo":6946,"aine":6947,"Ġbersatu":6948,"Ġshow":6949,"Ġflor":6950,"Ġbudd":6951,"Ġcurang":6952,"Ġkambing":6953,"ahnya":6954,"Ġhendak":6955,"Ġberaksi":6956,"Ġtahukah":6957,"akuasi":6958,"Ġmestinya":6959,"Ġmenyeret":6960,"Ġpenyelamat":6961,"Ġcokelat":6962,"Ġrevolusi":6963,"Ġumpan":6964,"Ġamp":6965,"Ġtern":6966,"etakan":6967,"Ġdibesarkan":6968,"Ġpenyimpan":6969,"Ġsweet":6970,"Ġmenyuruhmu":6971,"lihatkan":6972,"Ġberkuasa":6973,"well":6974,"oner":6975,"Ġpertamaku":6976,"Ġbergegas":6977,"injaman":6978,"Ġmeteor":6979,"Ġ00":6980,"esta":6981,"Ġgand":6982,"Ġaye":6983,"Ġseparuh":6984,"Ġterpaksa":6985,"Ġomongomong":6986,"inat":6987,"Ġjanj":6988,"Ġglee":6989,"Ġpertamat":6990,"Ġbolanya":6991,"Ġsuaramu":6992,"Ġmengurangi":6993,"tasi":6994,"Ġbg":6995,"ayanya":6996,"alib":6997,"Ġsungguhsungguh":6998,"Ġperhi":6999,"insip":7000,"Ġporn":7001,"asik":7002,"Ġgro":7003,"Ġkegag":7004,"Ġmeneb":7005,"Ġmemburu":7006,"ubaru":7007,"Ġdibuka":7008,"Ġhous":7009,".'":7010,"Ġlily":7011,"urt":7012,"tikannya":7013,"Ġfi":7014,"Ġilm":7015,"Ġorganisasi":7016,"menc":7017,"otis":7018,"Ġspr":7019,"iii":7020,"Ġpengorbanan":7021,"Ġpertamatama":7022,"Ġdijalan":7023,"Ġgh":7024,"Ġspesies":7025,"Ġball":7026,"Ġlonc":7027,"Ġcuci":7028,"Ġmembagi":7029,"olan":7030,"Ġinform":7031,"Ġperdag":7032,"Ġruss":7033,"Ġtemantemanku":7034,"bis":7035,"Ġtod":7036,"Ġtato":7037,"elangan":7038,"Ġhann":7039,"Ġmembesarkan":7040,"Ġjenn":7041,"Ġinvestig":7042,"Ġsmallville":7043,"erus":7044,"ema":7045,"Ġwang":7046,"Ġselagi":7047,"Ġfun":7048,"Ġfakt":7049,"ubungi":7050,"Ġgelar":7051,"Ġmid":7052,"Ġpadahal":7053,"Ġorangtua":7054,"Ġpengakuan":7055,"Ġdre":7056,"Ġnegro":7057,"Ġmengantarmu":7058,"Ġmarshall":7059,"dalam":7060,"Ġdita":7061,"Ġlus":7062,"Ġlangka":7063,"Ġmengam":7064,"Ġsejumlah":7065,"Ġmemerintah":7066,"Ġkucoba":7067,"Ġtepi":7068,"sinya":7069,"Ġmenyangka":7070,"Ġpenawaran":7071,"Ġ1000":7072,"Ġastron":7073,"Ġ911":7074,"Ġundangan":7075,"Ġmenyembuhkan":7076,"astian":7077,"dengan":7078,"perti":7079,"Ġbarubaru":7080,"Ġmental":7081,"Ġmeg":7082,"okie":7083,"Ġpengem":7084,"Ġmenjamin":7085,"Ġtelevisi":7086,"illa":7087,"Ġplat":7088,"Ġhappy":7089,"ather":7090,"Ġbishop":7091,"intahan":7092,"Ġreaksi":7093,"Ġdec":7094,"Ġperampok":7095,"ompa":7096,"Ġvag":7097,"Ġmempermain":7098,"Ġperset":7099,"Ġbercerai":7100,"Ġterpenting":7101,"Ġmemukulnya":7102,"Ġdesain":7103,"Ġmewakili":7104,"rama":7105,"zabeth":7106,"ano":7107,"Ġtunjukan":7108,"ital":7109,"unangan":7110,"Ġpertolongan":7111,"istik":7112,"Ġbergantung":7113,"Ġsejenak":7114,"Ġkeponakan":7115,"car":7116,"Ġtum":7117,"Ġnaf":7118,"Ġsekaligus":7119,"Ġpetarung":7120,"ashi":7121,"Ġmodern":7122,"athan":7123,"Ġpinjaman":7124,"Ġmemisahkan":7125,"Ġcop":7126,"imut":7127,"Ġnob":7128,"Ġ27":7129,"Ġpejabat":7130,"Ġperdana":7131,"Ġperdagangan":7132,"Ġkand":7133,"abar":7134,"Ġsampel":7135,"Ġsejam":7136,"Ġmenangkapmu":7137,"Ġelizabeth":7138,"Ġsolusi":7139,"Ġpembal":7140,"Ġmenggoda":7141,"Ġspt":7142,"Ġkamarnya":7143,"Ġdidepan":7144,"Ġtunangan":7145,"set":7146,"Ġtinju":7147,"Ġmenilai":7148,"Ġling":7149,"Ġjurn":7150,"Ġperilaku":7151,"Ġbuktikan":7152,"Ġpemerintahan":7153,"Ġmenerobos":7154,"Ġpenguasa":7155,"jo":7156,"Ġvis":7157,"Ġlemak":7158,"Ġend":7159,"Ġsarung":7160,"Ġdal":7161,"Ġberw":7162,"esona":7163,"Ġlakukanlah":7164,"Ġmenghisap":7165,"Ġberdosa":7166,"Ġkurt":7167,"Ġsoo":7168,"Ġblue":7169,"Ġbernilai":7170,"Ġmotel":7171,"Ġkristen":7172,"Ġanne":7173,"embangan":7174,"Ġmuseum":7175,"Ġpenyam":7176,"Ġttg":7177,"15":7178,"intasi":7179,"Ġmenghidup":7180,"Ġbuatku":7181,"Ġdef":7182,"Ġijinkan":7183,"karena":7184,"Ġlun":7185,"ison":7186,"Ġgos":7187,"Ġsign":7188,"Ġpenas":7189,"Ġyoon":7190,"Ġkutebak":7191,"Ġsalinan":7192,"Ġmenyediakan":7193,"Ġmencurinya":7194,"Ġkesedihan":7195,"Ġkegagalan":7196,"Ġsimp":7197,"amannya":7198,"Ġselasa":7199,"Ġistilah":7200,"top":7201,"Ġpie":7202,"adan":7203,"oritas":7204,"Ġterry":7205,"Ġnada":7206,"Ġ26":7207,"Ġmenggambarkan":7208,"ooper":7209,"ucker":7210,"Ġlife":7211,"Ġwaktuku":7212,"Ġpencur":7213,"Ġguy":7214,"Ġjonathan":7215,"Ġruntuh":7216,"Ġstu":7217,"eki":7218,"ental":7219,"abat":7220,"illy":7221,"Ġsegelas":7222,"Ġclay":7223,"Ġberjumpa":7224,"Ġmomen":7225,"Ġellie":7226,"Ġkerjanya":7227,"Ġalpha":7228,"Ġaktor":7229,"oki":7230,"Ġhyun":7231,"Ġilmiah":7232,"onfirmasi":7233,"Ġrang":7234,"Ġned":7235,"hawatir":7236,"rence":7237,"Ġdiatur":7238,"Ġmencamp":7239,"Ġbebek":7240,"Ġkedamaian":7241,"Ġpembunuhnya":7242,"Ġupacara":7243,"Ġcelan":7244,"Ġbersyukur":7245,"Ġpemilih":7246,"Ġdrum":7247,"Ġplastik":7248,"Ġmenuduh":7249,"atuhi":7250,"dirkan":7251,"Ġsusan":7252,"alikannya":7253,"omend":7254,"Ġmakanlah":7255,"Ġadiknya":7256,"Ġdiperbolehkan":7257,"Ġbravo":7258,"Ġsukai":7259,"Ġyat":7260,"anduan":7261,"Ġalb":7262,"Ġboston":7263,"Ġpatroli":7264,"Ġmenolongku":7265,"Ġemosional":7266,"Ġmenghancurkannya":7267,"gs":7268,"likasi":7269,"rus":7270,"Ġiri":7271,"Ġpembantu":7272,"Ġsecangkir":7273,"Ġsdh":7274,"bers":7275,"yp":7276,"yu":7277,"Ġll":7278,"Ġgolf":7279,"Ġdimaksud":7280,"Ġpelat":7281,"Ġmempekerjakan":7282,"Ġgoreng":7283,"Ġkarna":7284,"Ġpriv":7285,"Ġbelanja":7286,"akitan":7287,"Ġkataku":7288,"Ġmenyeberang":7289,"Ġkonsul":7290,"Ġcalon":7291,"Ġbor":7292,"Ġperbaiki":7293,"Ġsebutkan":7294,"kins":7295,"Ġpermain":7296,"Ġnyaris":7297,"Ġterpilih":7298,"Ġjunior":7299,"'?":7300,"Ġmass":7301,"ffffaku":7302,"Ġmedali":7303,"Ġterganggu":7304,"adaban":7305,"Ġpaksa":7306,"Ġhee":7307,"Ġkemanapun":7308,"Ġcool":7309,"Ġimaj":7310,"Ġrusa":7311,"Ġunt":7312,"Ġmeneg":7313,"Ġmelintasi":7314,"Ġdistr":7315,"Ġvo":7316,"Ġklin":7317,"Ġneed":7318,"operasi":7319,"emi":7320,"Ġsesaat":7321,"Ġshel":7322,"Ġpetir":7323,"Ġmengantarkan":7324,"Ġfox":7325,"Ġtuntutan":7326,"Ġpersetujuan":7327,"Ġlob":7328,"Ġmenggambar":7329,"Ġbry":7330,"Ġkhawatirkan":7331,"Ġangeles":7332,"Ġperhiasan":7333,"Ġsaku":7334,"unikasi":7335,"Ġhome":7336,"ometer":7337,"Ġmenjadikan":7338,"Ġkerag":7339,"Ġpelab":7340,"Ġbreak":7341,"Ġpantatku":7342,"Ġmengubur":7343,"Ġpandang":7344,"isir":7345,"acy":7346,"Ġsandwich":7347,"Ġsinilah":7348,"Ġmiller":7349,"Ġdiinginkan":7350,"Ġlip":7351,"Ġrh":7352,"Ġklasik":7353,"ofield":7354,"Ġcrow":7355,"itty":7356,"osaurus":7357,"pen":7358,"Ġketer":7359,"Ġpenglihat":7360,"enalan":7361,"Ġmerangk":7362,"Ġkesuka":7363,"Ġpengacar":7364,"Ġnina":7365,"Ġamun":7366,"Ġdipakai":7367,"matinya":7368,".?":7369,"anta":7370,"Ġberhadapan":7371,"Ġwhere":7372,"Ġpenyerangan":7373,"Ġabang":7374,"Ġricky":7375,"Ġfantastis":7376,"Ġmendesak":7377,"Ġurutan":7378,"Ġmenjanjikan":7379,"Ġterkait":7380,"Ġcaraku":7381,"Ġdihancurkan":7382,"Ġkegila":7383,"Ġhelen":7384,"bie":7385,"dari":7386,"Ġmuat":7387,"Ġpent":7388,"iknya":7389,"Ġlock":7390,"otan":7391,"sigen":7392,"Ġberker":7393,"Ġkain":7394,"Ġdor":7395,"Ġselera":7396,"Ġpikirannya":7397,"Ġgarasi":7398,"Ġmengikutinya":7399,"Ġlevel":7400,"go":7401,"Ġrapi":7402,"Ġaway":7403,"Ġbendera":7404,"Ġditakdirkan":7405,"ness":7406,"Ġdiundang":7407,"Ġmenip":7408,"Ġmerem":7409,"Ġpenangk":7410,"Ġbaguslah":7411,"Ġmenempel":7412,"Ġberlin":7413,"Ġcaesar":7414,"wajib":7415,"sil":7416,"itmen":7417,"Ġgelisah":7418,"Ġmengirimnya":7419,"Ġterjun":7420,"kas":7421,"mau":7422,"Ġajar":7423,"ilat":7424,"Ġnic":7425,"Ġfri":7426,"Ġdimanamana":7427,"Ġmenikmatinya":7428,"Ġhitler":7429,"Ġpelabuhan":7430,"Ġpur":7431,"Ġrinc":7432,"Ġfac":7433,"Ġsyd":7434,"Ġtipuan":7435,"Ġgibbs":7436,"Ġnichol":7437,"akwa":7438,"Ġbunyi":7439,"Ġpai":7440,"ungu":7441,"indungi":7442,"Ġviv":7443,"Ġmiliar":7444,"Ġcoll":7445,"Ġlalat":7446,"Ġmenambahkan":7447,"ider":7448,"Ġoksigen":7449,"Ġiman":7450,"Ġotomatis":7451,"kat":7452,"Ġikat":7453,"Ġlim":7454,"Ġperintahkan":7455,"Ġperadaban":7456,"Ġgitar":7457,"Ġnger":7458,"Ġmencetak":7459,"Ġstark":7460,"Ġpelaku":7461,"ujuk":7462,"cha":7463,"Ġindian":7464,"onde":7465,"Ġfirasat":7466,"Ġperpisahan":7467,"Ġproperti":7468,"Ġmej":7469,"Ġdimanapun":7470,"Ġtrav":7471,"Ġkedinginan":7472,"Ġgrim":7473,"Ġkeadaanmu":7474,"Ġmengajariku":7475,"iang":7476,"tengah":7477,"Ġtend":7478,"Ġbull":7479,"its":7480,"Ġselimut":7481,"Ġpena":7482,"Ġbarisan":7483,"Ġzaman":7484,"Ġkapanpun":7485,"Ġkutu":7486,"Ġbelakangmu":7487,"Ġscofield":7488,"Ġjackie":7489,"enyak":7490,"Ġlampunya":7491,"Ġmahkota":7492,"Ġpimpinan":7493,"Ġglobal":7494,"ment":7495,"Ġlaur":7496,"Ġlenyap":7497,"Ġpersi":7498,"other":7499,"Ġbrilian":7500,"Ġpopuler":7501,"Ġpusing":7502,"Ġkeseti":7503,"jangan":7504,"onis":7505,"Ġselam":7506,"Ġpengaman":7507,"Ġkehancuran":7508,"Ġkubuat":7509,"Ġdiperk":7510,"Ġalexander":7511,"oskop":7512,"Ġtina":7513,"ihatkan":7514,"Ġpemadam":7515,"Ġkabin":7516,"Ġzomb":7517,"Ġpeper":7518,"Ġpic":7519,"Ġmenunjukan":7520,"Ġwajar":7521,"Ġgagasan":7522,"Ġboom":7523,"Ġpengganti":7524,"Ġpenampil":7525,"Ġhajar":7526,"Ġkeman":7527,"Ġmekan":7528,"Ġdemam":7529,"Ġbuzz":7530,"Ġmelindunginya":7531,"Ġtanpamu":7532,"Ġpenyimpanan":7533,"Ġgitu":7534,"Ġsiaran":7535,"Ġvik":7536,"Ġpelih":7537,"Ġterdapat":7538,"Ġstruk":7539,"br":7540,"ean":7541,"Ġmenimb":7542,"Ġharinya":7543,"emui":7544,"Ġnyenyak":7545,"Ġkamarmu":7546,"Ġgriff":7547,"Ġberulang":7548,"unting":7549,"Ġandai":7550,"anjilah":7551,"Ġbrown":7552,"Ġfranc":7553,"Ġmengubahnya":7554,"faat":7555,"Ġmemecat":7556,"nik":7557,"Ġbun":7558,"Ġpujian":7559,"Ġwend":7560,"Ġkecantikan":7561,"Ġven":7562,"Ġsalahnya":7563,"Ġbergaul":7564,"Ġmakam":7565,"Ġpelayanan":7566,"ght":7567,"Ġakui":7568,"isy":7569,"Ġterapi":7570,"Ġpertunjukkan":7571,"infeksi":7572,"sikan":7573,"Ġsas":7574,"Ġmelarang":7575,"eteksi":7576,"Ġpertanian":7577,"Ġpenyanyi":7578,"Ġekon":7579,"Ġkebijakan":7580,"Ġjennifer":7581,"Ġdoa":7582,"Ġinci":7583,"Ġkeatas":7584,"abah":7585,"Ġanakanakku":7586,"Ġberjanjilah":7587,"Ġdihentikan":7588,"Ġgaram":7589,"aing":7590,"Ġjurus":7591,"Ġtiang":7592,"Ġdipotong":7593,"Ġdrop":7594,"Ġpenculikan":7595,"Ġinsiden":7596,"Ġdinam":7597,"Ġtumpukan":7598,"Ġvalent":7599,"Ġmenyusul":7600,"Ġashley":7601,"Ġbuddha":7602,"Ġpersiapan":7603,"Ġmenginj":7604,"Ġmeres":7605,"Ġnancy":7606,"Ġhall":7607,"Ġasrama":7608,"Ġlionel":7609,"Ġjohnson":7610,"Ġmemukulku":7611,"Ġmengingatkanku":7612,"Ġbanteng":7613,"Ġdiselamatkan":7614,"Ġsophie":7615,"Ġmuk":7616,"Ġlam":7617,"uko":7618,"Ġkeliru":7619,"Ġgrant":7620,"Ġdipenuhi":7621,"Ġpesanan":7622,"Ġmembuangnya":7623,"Ġmek":7624,"Ġjgn":7625,"Ġprod":7626,"untungkan":7627,"Ġkonsentrasi":7628,"iami":7629,"Ġsms":7630,"Ġmengembangkan":7631,"Ġlebar":7632,"Ġkai":7633,"Ġtegang":7634,"irikan":7635,"Ġrela":7636,"Ġbudaya":7637,"Ġ600":7638,"Ġmenggantikan":7639,"Ġethan":7640,"right":7641,"Ġgrayson":7642,"zer":7643,"angsa":7644,"Ġpanggang":7645,"Ġrain":7646,"Ġdetail":7647,"Ġmeneleponmu":7648,"Ġobatobatan":7649,"Ġkaget":7650,"Ġgempa":7651,"Ġberkomunikasi":7652,"Ġtempur":7653,"Ġperlihatkan":7654,"Ġanton":7655,"Ġhomo":7656,"Ġhouston":7657,"Ġstruktur":7658,"don":7659,"tle":7660,"Ġmerunduk":7661,"Ġtidurlah":7662,"Ġislam":7663,"Ġrincian":7664,"bet":7665,"Ġmawar":7666,"Ġladang":7667,"ekusi":7668,"Ġmenghina":7669,"Ġterjaga":7670,"untun":7671,"acus":7672,"Ġold":7673,"Ġmateri":7674,"Ġkekayaan":7675,"Ġgelandangan":7676,"Ġcole":7677,"Ġtangki":7678,"Ġlicik":7679,"py":7680,"uaikan":7681,"ele":7682,"Ġliv":7683,"Ġkamis":7684,"Ġnav":7685,"Ġsemalaman":7686,"Ġdipilih":7687,"Ġkomando":7688,"Ġpengawas":7689,"Ġterinfeksi":7690,"Ġfos":7691,"Ġseri":7692,"Ġdear":7693,"Ġquinn":7694,"Ġteddy":7695,"Ġpeperangan":7696,"kuit":7697,"Ġbahu":7698,"aju":7699,"Ġprim":7700,"Ġ28":7701,"Ġdiharapkan":7702,"Ġbgm":7703,"va":7704,"vis":7705,"Ġbuck":7706,"iting":7707,"inger":7708,"Ġdipikirkan":7709,"elijen":7710,"Ġurusanku":7711,"lon":7712,"Ġmut":7713,"Ġtuanya":7714,"Ġrec":7715,"Ġkurus":7716,"Ġburuburu":7717,"Ġpecandu":7718,"Ġmoral":7719,"Ġsaraf":7720,"Ġmengumumkan":7721,"Ġkuku":7722,"erry":7723,"unkan":7724,"augh":7725,"Ġlatar":7726,"alie":7727,"Ġkecilmu":7728,"Ġbersamaan":7729,"Ġmenyelamatkanku":7730,"Ġskor":7731,"Ġstres":7732,"win":7733,"Ġkawat":7734,"Ġparan":7735,"Ġfan":7736,"Ġprinsip":7737,"Ġberbaris":7738,"Ġdibebaskan":7739,"Ġsofa":7740,"Ġmetrop":7741,"Ġpencurian":7742,"cing":7743,"wah":7744,"erangi":7745,"Ġmenambah":7746,"Ġadr":7747,"ampilan":7748,"Ġjamin":7749,"Ġ800":7750,"Ġ199":7751,"Ġjagung":7752,"Ġmengacaukannya":7753,"Ġmargaret":7754,"Ġpiano":7755,"',":7756,"key":7757,"ahi":7758,"Ġmenenangkan":7759,"Ġdiaj":7760,"udar":7761,"Ġaliran":7762,"Ġshif":7763,"aven":7764,"Ġkatherine":7765,"Ġparas":7766,"Ġkonferensi":7767,"Ġhanduk":7768,"Ġmenjagamu":7769,"Ġkeraguan":7770,"jauh":7771,"ampang":7772,"Ġprinc":7773,"isip":7774,"ello":7775,"Ġjessica":7776,"Ġdongeng":7777,"Ġsonny":7778,"Ġinvestigasi":7779,"las":7780,"alahan":7781,"Ġmemberkati":7782,"Ġpertanda":7783,"Ġdepanku":7784,"Ġberjalanjalan":7785,"Ġlega":7786,"Ġmenembakmu":7787,"Ġnasihat":7788,"Ġpemberani":7789,"Ġregular":7790,"ox":7791,"unia":7792,"ikeras":7793,"Ġsaatsaat":7794,"Ġdepanmu":7795,"etty":7796,"Ġpier":7797,"Ġbedah":7798,"Ġmengikutiku":7799,"Ġimb":7800,"Ġberdaya":7801,"ongs":7802,"angkalan":7803,"Ġekstra":7804,"Ġpenangkapan":7805,"Ġlinda":7806,"ukaran":7807,"Ġritual":7808,"Ġterbit":7809,"Ġikutlah":7810,"Ġotaknya":7811,"Ġmesinnya":7812,"Ġmenemuiku":7813,"Ġrutin":7814,"Ġundang":7815,"Ġjill":7816,"Ġniat":7817,"Ġister":7818,"Ġdipindahkan":7819,"Ġmotif":7820,"Ġmengalihkan":7821,"Ġepis":7822,"ken":7823,"str":7824,"Ġkumpulkan":7825,"Ġmason":7826,"Ġmendalam":7827,"Ġberkunjung":7828,"Ġupaya":7829,"Ġrambutnya":7830,"Ġkhususnya":7831,"sur":7832,"Ġakad":7833,"Ġmenguji":7834,"Ġbagasi":7835,"ongg":7836,"Ġketinggi":7837,"Ġterbalik":7838,"essor":7839,"ategi":7840,"orp":7841,"Ġpenyes":7842,"Ġfinch":7843,"Ġcuriga":7844,"Ġmenerb":7845,"Ġhu":7846,"Ġladi":7847,"endiri":7848,"Ġkesan":7849,"che":7850,"Ġminumlah":7851,"Ġsirkus":7852,"Ġhelm":7853,"ernya":7854,"Ġfree":7855,"Ġairnya":7856,"Ġandari":7857,"eus":7858,"Ġdale":7859,"Ġlane":7860,"Ġcairan":7861,"Ġwu":7862,"antam":7863,"Ġbersikeras":7864,"Ġdisimpan":7865,"Ġterlepas":7866,"Ġditolak":7867,"Ġpenjual":7868,"Ġpergelangan":7869,"Ġmenghubungkan":7870,"krip":7871,"Ġekonomi":7872,"Ġberisik":7873,"Ġmembingung":7874,"Ġdiragukan":7875,"Ġonline":7876,"Ġpotensi":7877,"Ġbangsawan":7878,"Ġkoboi":7879,"Ġhp":7880,"Ġkubawa":7881,"Ġotakmu":7882,"Ġporno":7883,"jika":7884,"erta":7885,"agang":7886,"ote":7887,"Ġterbenam":7888,"arth":7889,"Ġmempermalukan":7890,"Ġberlanjut":7891,"Ġrambutku":7892,"Ġjulia":7893,"ologis":7894,"Ġamunisi":7895,"Ġmengep":7896,"Ġced":7897,"Ġkehendak":7898,"Ġ',":7899,"Ġbelakangnya":7900,"Ġmurahan":7901,"Ġ197":7902,"Ġmadam":7903,"Ġmelepaskannya":7904,"Ġaudisi":7905,"Ġkegilaan":7906,"orter":7907,"agus":7908,"Ġmeletak":7909,"Ġputer":7910,"Ġstrategi":7911,"Ġtabung":7912,"Ġmengajakku":7913,"Ġduke":7914,"Ġmengkhawatirkan":7915,"Ġtengkorak":7916,"ekik":7917,"sial":7918,"tone":7919,"Ġelo":7920,"Ġintelijen":7921,"mar":7922,"Ġtata":7923,"Ġkaus":7924,"Ġmenguntungkan":7925,"Ġbela":7926,"Ġkepem":7927,"Ġkantorku":7928,"macam":7929,"uit":7930,"Ġsome":7931,"Ġkeindahan":7932,"Ġmengandalkan":7933,"Ġmempercayaiku":7934,"Ġbrook":7935,"Ġprioritas":7936,"Ġcd":7937,"eset":7938,"oby":7939,"Ġmuslim":7940,"Ġsaus":7941,"Ġpap":7942,"ebook":7943,"abel":7944,"Ġatom":7945,"Ġdibuang":7946,"Ġdibalik":7947,"Ġtersedia":7948,"Ġlapisan":7949,"Ġblu":7950,"Ġmacet":7951,"Ġsteven":7952,"Ġmaf":7953,"Ġnon":7954,"Ġbersaudara":7955,"Ġmengharga":7956,"Ġmenemukanku":7957,"rix":7958,"undup":7959,"ree":7960,"Ġgary":7961,"Ġsahabatku":7962,"Ġtemantemanmu":7963,"Ġketinggian":7964,"emo":7965,"awannya":7966,"Ġkuasa":7967,"Ġshang":7968,"Ġkayak":7969,"17":7970,"pit":7971,"eland":7972,"ohan":7973,"Ġtentangku":7974,"Ġspir":7975,"Ġkomunitas":7976,"Ġambulans":7977,"Ġmeletakkannya":7978,"Ġmini":7979,"Ġpoo":7980,"Ġlumb":7981,"Ġpenemb":7982,"Ġdavis":7983,"Ġtipis":7984,"Ġkoneksi":7985,"Ġtebal":7986,"Ġkejuaraan":7987,"Ġhamba":7988,"Ġfaktanya":7989,"aktifkan":7990,"Ġbijak":7991,"Ġpembayaran":7992,"Ġ48":7993,"Ġkudus":7994,"Ġbere":7995,"Ġmembusuk":7996,"eton":7997,"Ġbarumu":7998,"Ġchun":7999,"Ġpemandu":8000,"Ġberkemas":8001,"Ġtertinggal":8002,"Ġisinya":8003,"meny":8004,"Ġmitra":8005,"kusikan":8006,"Ġkrisis":8007,"Ġkelahiran":8008,"boy":8009,"Ġkeep":8010,"imal":8011,"Ġterletak":8012,"Ġkualitas":8013,"Ġpestanya":8014,"Ġ32":8015,"Ġ36":8016,"Ġngobrol":8017,"Ġmelukis":8018,"Ġaustralia":8019,"bukan":8020,"led":8021,"mur":8022,"Ġtest":8023,"asta":8024,"Ġherb":8025,"Ġcuti":8026,"Ġsedangkan":8027,"ersihkan":8028,"inaan":8029,"Ġsupir":8030,"Ġspartacus":8031,"kes":8032,"Ġmiami":8033,"Ġpond":8034,"Ġhans":8035,"Ġcelah":8036,"Ġrag":8037,"Ġdiminta":8038,"Ġtrip":8039,"Ġelang":8040,"Ġbeat":8041,"Ġmembuktikannya":8042,"Ġmencurigakan":8043,"Ġmenimbulkan":8044,"Ġkanada":8045,"Ġmakanya":8046,"uncurkan":8047,"Ġhitung":8048,"Ġlewatkan":8049,"Ġrekor":8050,"ediaan":8051,"Ġmembencimu":8052,"owski":8053,"ax":8054,"ero":8055,"aria":8056,"Ġalbert":8057,"Ġpembers":8058,"Ġtrev":8059,"Ġlewis":8060,"Ġepisode":8061,"be":8062,"bar":8063,"rakan":8064,"Ġbeda":8065,"Ġaset":8066,"Ġterduga":8067,"Ġpengguna":8068,"Ġtransm":8069,"Ġmengembalikannya":8070,"Ġrohit":8071,"Ġjagoan":8072,"erat":8073,"Ġpow":8074,"ekam":8075,"Ġharold":8076,"Ġpadat":8077,"ongkan":8078,"ogasi":8079,"Ġkomb":8080,"Ġcarilah":8081,"Ġmenyakitinya":8082,"Ġterobsesi":8083,"ober":8084,"ajaga":8085,"Ġdibicarakan":8086,"Ġutang":8087,"Ġlucas":8088,"Ġmagnet":8089,"Ġmenyembunyikannya":8090,"Ġmenyetujui":8091,"Ġtess":8092,"ement":8093,"Ġdance":8094,"upai":8095,"Ġhead":8096,"ofoto":8097,"Ġpistolnya":8098,"Ġtengahtengah":8099,"Ġmengidentifikasi":8100,"Ġsebagaimana":8101,"Ġberlindung":8102,"Ġkumaksud":8103,"Ġkait":8104,"Ġfotofoto":8105,"Ġacar":8106,"Ġkalahkan":8107,"ikal":8108,"Ġhalnya":8109,"Ġmelihatlihat":8110,"Ġallis":8111,"Ġpenyemb":8112,"Ġgambaran":8113,"Ġtingg":8114,"Ġmengandung":8115,"Ġmeriam":8116,"Ġgelang":8117,"Ġreputasi":8118,"oduksi":8119,"ving":8120,"atukan":8121,"Ġhob":8122,"Ġpenahan":8123,"Ġastr":8124,"Ġmex":8125,"Ġabout":8126,"Ġmengejarnya":8127,"Ġsentuhan":8128,"Ġklinik":8129,"pt":8130,"akes":8131,"Ġdj":8132,"Ġdos":8133,"Ġnil":8134,"Ġberpesta":8135,"Ġmengenalku":8136,"Ġhiburan":8137,"Ġberga":8138,"Ġearl":8139,"Ġkutub":8140,"Ġjantungnya":8141,"Ġgigitan":8142,"Ġtodd":8143,"Ġgosip":8144,"kam":8145,"uz":8146,"Ġjor":8147,"Ġbukunya":8148,"Ġmembayarmu":8149,"Ġmenyebarkan":8150,"Ġmoon":8151,"Ġmommy":8152,"Ġkemampuanmu":8153,"Ġdiselesaikan":8154,"Ġhollywood":8155,"Ġallison":8156,"con":8157,"Ġakuaku":8158,"Ġnet":8159,"Ġsemen":8160,"abaran":8161,"Ġmemperlihatkan":8162,"Ġteluk":8163,"Ġpedulikan":8164,"Ġarus":8165,"Ġmembuangbuang":8166,"Ġdermaga":8167,"Ġyatim":8168,"ctor":8169,"Ġdaw":8170,"asy":8171,"Ġronde":8172,"Ġkarpet":8173,"Ġtentangnya":8174,"anjung":8175,"Ġkekuatannya":8176,"Ġnatalie":8177,"Ġreporter":8178,"Ġmenghadiri":8179,"Ġpegawai":8180,"ografi":8181,"Ġbereaksi":8182,"Ġaut":8183,"Ġring":8184,"Ġharimau":8185,"Ġpeledak":8186,"Ġmatth":8187,"ogen":8188,"Ġein":8189,"Ġjenna":8190,"Ġmenembakku":8191,"Ġgugur":8192,"Ġperlahanlahan":8193,"Ġsejenis":8194,"Ġdream":8195,"Ġmenump":8196,"Ġaa":8197,"Ġpotter":8198,"Ġlumpur":8199,"Ġdimasukkan":8200,"Ġimbalan":8201,"oyang":8202,"ingnya":8203,"Ġnabi":8204,"entasi":8205,"Ġmenyiksa":8206,"edakan":8207,"Ġpembantai":8208,"ingkatan":8209,"Ġdragon":8210,"Ġcould":8211,"Ġmcg":8212,"Ġdaddy":8213,"Ġmengecek":8214,"uap":8215,"Ġjing":8216,"ulusan":8217,"akui":8218,"Ġpertamanya":8219,"Ġkesakitan":8220,"Ġbukub":8221,"Ġangela":8222,"Ġmulutnya":8223,"Ġneil":8224,"Ġtepuk":8225,"Ġberwenang":8226,"Ġmetropolis":8227,"bul":8228,"gaskan":8229,"hai":8230,"Ġpanti":8231,"Ġberkons":8232,"Ġberkendara":8233,"Ġdipaksa":8234,"Ġdiperiksa":8235,"Ġ198":8236,"Ġkokain":8237,"Ġgentl":8238,"bes":8239,"sit":8240,"Ġjantan":8241,"Ġwabah":8242,"Ġberbah":8243,"Ġmenangkapku":8244,"Ġevan":8245,"Ġmembenciku":8246,"Ġstudio":8247,"Ġladies":8248,"ts":8249,"Ġmint":8250,"Ġsalib":8251,"Ġberalih":8252,"Ġkitab":8253,"Ġkenny":8254,"Ġsedikitpun":8255,"Ġdikemb":8256,"Ġmenyelam":8257,"Ġmembiarkanku":8258,"achi":8259,"enjak":8260,"Ġbotak":8261,"Ġwoong":8262,"Ġbokongmu":8263,"Ġdisebelah":8264,"Ġkompleks":8265,"Ġqueen":8266,"Ġsydney":8267,"dam":8268,"ader":8269,"Ġjuru":8270,"urung":8271,"Ġwind":8272,"Ġsemenjak":8273,"Ġpenip":8274,"akses":8275,"Ġkeprib":8276,"Ġkeru":8277,"Ġperlawanan":8278,"incar":8279,"Ġmengejek":8280,"Ġfotonya":8281,"Ġmenggangguku":8282,"Ġkilometer":8283,"Ġtragedi":8284,"pek":8285,"roe":8286,"Ġss":8287,"erahkan":8288,"Ġpij":8289,"Ġmendaftar":8290,"Ġhack":8291,"agara":8292,"Ġketahuan":8293,"Ġpengikut":8294,"Ġkebangga":8295,"Ġburonan":8296,"Ġshane":8297,"Ġberlibur":8298,"Ġsaudari":8299,"Ġputramu":8300,"Ġlydia":8301,"bulan":8302,"col":8303,"Ġsamu":8304,"Ġyaa":8305,"lahir":8306,"Ġbebaskan":8307,"Ġmeneman":8308,"Ġsegel":8309,"Ġkryp":8310,"Ġromawi":8311,"Ġmacammacam":8312,"Ġmembingungkan":8313,"fil":8314,"Ġpik":8315,"Ġmenanggung":8316,"issa":8317,"Ġgair":8318,"Ġfort":8319,"Ġmungkinkah":8320,"Ġharimu":8321,"Ġpaspor":8322,"Ġtell":8323,"Ġperkenalkan":8324,"Ġirlandia":8325,"Ġmengkl":8326,"Ġlaura":8327,"rah":8328,"Ġbua":8329,"inia":8330,"Ġsektor":8331,"Ġshit":8332,"Ġteruslah":8333,"tru":8334,"Ġtujuannya":8335,"Ġmempertaruhkan":8336,"ray":8337,"Ġdur":8338,"Ġbeku":8339,"Ġsesama":8340,"Ġbersaksi":8341,"Ġmenjengkel":8342,"anci":8343,"Ġmetode":8344,"Ġirak":8345,"Ġcampuran":8346,"Ġnazi":8347,"anas":8348,"Ġdiet":8349,"perimen":8350,"Ġdibatalkan":8351,"Ġkedepan":8352,"Ġalamatnya":8353,"Ġnomornya":8354,"Ġkuduga":8355,"ailand":8356,"Ġpsikiat":8357,"Ġpemanasan":8358,"Ġdob":8359,"Ġcry":8360,"Ġcangkir":8361,"Ġjauhnya":8362,"Ġbatman":8363,"Ġimam":8364,"Ġholmes":8365,"Ġrepub":8366,"Ġdennis":8367,"Ġsunt":8368,"Ġtuh":8369,"Ġhind":8370,"Ġkesabaran":8371,"Ġthailand":8372,"chester":8373,"unyah":8374,"Ġkapalnya":8375,"Ġtergel":8376,"Ġmerindukannya":8377,"Ġcao":8378,"Ġmelewatinya":8379,"Ġjaman":8380,"Ġkomentar":8381,"Ġspek":8382,"Ġbenj":8383,"Ġkutemui":8384,"Ġbeen":8385,"Ġkoleksi":8386,"Ġmafia":8387,"Ġpenipuan":8388,"bor":8389,"Ġmenakuti":8390,"Ġhunt":8391,"Ġberacun":8392,"Ġgant":8393,"Ġvisi":8394,"Ġberpeng":8395,"Ġkre":8396,"Ġbalon":8397,"ordan":8398,"Ġwillie":8399,"Ġtenda":8400,"Ġfoot":8401,"Ġmengajarimu":8402,"Ġlatin":8403,"Ġsaudarasaudara":8404,"Ġsamuel":8405,"lop":8406,"Ġsong":8407,"Ġhis":8408,"Ġcooper":8409,"Ġluck":8410,"Ġkuminta":8411,"Ġperkaw":8412,"Ġsingh":8413,"Ġfavoritku":8414,"Ġpemilihan":8415,"itamu":8416,"kand":8417,"Ġhang":8418,"ores":8419,"Ġapalah":8420,"itahukan":8421,"Ġkoord":8422,"Ġdidalamnya":8423,"Ġmenetap":8424,"Ġmenghidupkan":8425,"bak":8426,"tahu":8427,"Ġseakan":8428,"Ġhut":8429,"Ġranc":8430,"olet":8431,"Ġfajar":8432,"Ġpersediaan":8433,"Ġkristal":8434,"Ġmenyingkirlah":8435,"Ġditempatkan":8436,"ridge":8437,"Ġtrevor":8438,"nanya":8439,"Ġutuh":8440,"Ġbond":8441,"Ġborgol":8442,"ald":8443,"Ġmenanya":8444,"Ġmengasih":8445,"Ġcbi":8446,"Ġkenakan":8447,"Ġceroboh":8448,"Ġbiro":8449,"Ġmurph":8450,"Ġcross":8451,"Ġsaudaranya":8452,"Ġmenghubungiku":8453,"Ġnovel":8454,"Ġwendy":8455,"Ġkitty":8456,"ulia":8457,"uba":8458,"Ġpertukaran":8459,"Ġmulailah":8460,"Ġmarie":8461,"Ġliga":8462,"otongan":8463,"Ġmendengarkanku":8464,"Ġramuan":8465,"Ġjoon":8466,"Ġmengeluarkannya":8467,"Ġorangtuaku":8468,"Ġmexico":8469,"Ġkrypton":8470,"dis":8471,"sey":8472,"Ġcamb":8473,"endapat":8474,"Ġberbulan":8475,"Ġdimensi":8476,"ampuni":8477,"40":8478,"pos":8479,"Ġmenangg":8480,"Ġcast":8481,"Ġfes":8482,"angkaian":8483,"Ġdimiliki":8484,"Ġaang":8485,"Ġkurs":8486,"Ġkubiarkan":8487,"Ġkesalahanku":8488,"Ġkw":8489,"Ġdasi":8490,"Ġmengisap":8491,"Ġmembaik":8492,"Ġsekamar":8493,"asiakan":8494,"Ġseniman":8495,"Ġliu":8496,"Ġkontes":8497,"Ġmichelle":8498,"Ġ150":8499,"Ġkonf":8500,"Ġbangkrut":8501,"Ġperisai":8502,"ukti":8503,"Ġberambut":8504,"Ġod":8505,"edah":8506,"Ġkebawah":8507,"Ġtrau":8508,"Ġbaterai":8509,"ahami":8510,"Ġdiperintahkan":8511,"Ġdylan":8512,"Ġrudal":8513,"Ġterperangkap":8514,"Ġmatthew":8515,"Ġbuaya":8516,"Ġterlahir":8517,"Ġgampang":8518,"Ġprem":8519,"Ġburger":8520,"Ġpermula":8521,"Ġamal":8522,"Ġlehernya":8523,"Ġprotokol":8524,"Ġtamat":8525,"Ġaktiv":8526,"ild":8527,"Ġsaj":8528,"ampaknya":8529,"edip":8530,"aksian":8531,"Ġokey":8532,"Ġshar":8533,"Ġpenyelamatan":8534,"trasi":8535,"Ġdoes":8536,"aktir":8537,"Ġdub":8538,"Ġdiizinkan":8539,"ulir":8540,"Ġmempers":8541,"Ġmenelan":8542,"Ġehm":8543,"Ġpamanku":8544,"Ġflash":8545,"ghs":8546,"Ġmemanjat":8547,"Ġgairah":8548,"Ġbit":8549,"alang":8550,"Ġseburuk":8551,"Ġsebastian":8552,"Ġpred":8553,"Ġkesaksian":8554,"Ġsampanye":8555,"Ġsetelan":8556,"Ġtiger":8557,"asilan":8558,"uncuran":8559,"Ġdikeliling":8560,"Ġmenariknya":8561,"Ġlewati":8562,"Ġtugasnya":8563,"Ġmenolongnya":8564,"Ġmenetapkan":8565,"Ġjustru":8566,"Ġelektron":8567,"king":8568,"zi":8569,"Ġungg":8570,"Ġark":8571,"Ġjubah":8572,"Ġanalis":8573,"engaran":8574,"Ġmelamp":8575,"Ġmencabut":8576,"Ġii":8577,"amankan":8578,"Ġpembawa":8579,"Ġmenyakitiku":8580,"Ġdewi":8581,"Ġmembangunkan":8582,"Ġdijelaskan":8583,"Ġmendatangi":8584,"Ġaslinya":8585,"Ġperju":8586,"ekali":8587,"otik":8588,"Ġbersantai":8589,"Ġpeluk":8590,"Ġprofessor":8591,"Ġhelp":8592,"Ġross":8593,"Ġmenungguku":8594,"Ġmengajakmu":8595,"Ġversi":8596,"Ġwould":8597,"Ġjudul":8598,"Ġleonard":8599,"xon":8600,"Ġsik":8601,"arata":8602,"Ġdial":8603,"Ġburr":8604,"Ġkekuatanmu":8605,"Ġperkira":8606,"Ġnate":8607,"Ġkirk":8608,"Ġanyway":8609,"Ġmengijinkan":8610,"Ġdark":8611,"Ġsewaktu":8612,"Ġmemant":8613,"Ġterdaftar":8614,"Ġrid":8615,"Ġotor":8616,"uard":8617,"Ġpengunjung":8618,"Ġbenny":8619,"Ġdex":8620,"Ġpentingnya":8621,"Ġelu":8622,"Ġparker":8623,"Ġdinosaurus":8624,"Ġruby":8625,"Ġvagina":8626,"lak":8627,"alaba":8628,"apain":8629,"Ġcons":8630,"Ġmembeb":8631,"Ġgemb":8632,"Ġwes":8633,"Ġmassa":8634,"imbing":8635,"Ġpho":8636,"Ġwilson":8637,"Ġjoan":8638,"burg":8639,"Ġhumor":8640,"Ġpacaran":8641,"Ġjoseph":8642,"Ġdikelilingi":8643,"sed":8644,"uari":8645,"Ġud":8646,"agn":8647,"Ġmenyangkal":8648,"Ġkakaknya":8649,"Ġobatnya":8650,"Ġdiciptakan":8651,"Ġmenyuruhnya":8652,"enderung":8653,"Ġmenjengkelkan":8654,"can":8655,"eel":8656,"Ġtit":8657,"Ġtuli":8658,"Ġmenunda":8659,"isnis":8660,"Ġrip":8661,"Ġnal":8662,"Ġfig":8663,"Ġberpaling":8664,"Ġfrekuensi":8665,"Ġelemen":8666,"utaan":8667,"Ġpoint":8668,"Ġnicholas":8669,"sby":8670,"Ġtawanan":8671,"Ġwolf":8672,"Ġpertamamu":8673,"odo":8674,"Ġagain":8675,"Ġwhy":8676,"Ġklan":8677,"Ġkerjaan":8678,"Ġmemperlambat":8679,"Ġmembongkar":8680,"Ġsesi":8681,"oshi":8682,"Ġbella":8683,"Ġkedok":8684,"Ġcatherine":8685,"Ġratarata":8686,"Ġrencanakan":8687,"Ġtemantemannya":8688,"Ġkongres":8689,"iy":8690,"lebih":8691,"tin":8692,"Ġec":8693,"itukah":8694,"Ġmenawan":8695,"Ġwins":8696,"Ġkaset":8697,"Ġkecerd":8698,"Ġarena":8699,"Ġmenyeramkan":8700,"umbu":8701,"Ġbetina":8702,"enyut":8703,"45":8704,"kali":8705,"Ġwer":8706,"Ġhector":8707,"Ġkerib":8708,"Ġperlengk":8709,"Ġteater":8710,"Ġpulih":8711,"Ġpiala":8712,"Ġconnor":8713,"isipasi":8714,"ros":8715,"enix":8716,"itungan":8717,"Ġhr":8718,"iki":8719,"uro":8720,"Ġkemeja":8721,"Ġkera":8722,"Ġkabarnya":8723,"Ġsalad":8724,"Ġdaisy":8725,"Ġmonroe":8726,"Ġdisebabkan":8727,"Ġmaks":8728,"emaskan":8729,"Ġsains":8730,"Ġcorn":8731,"Ġbagai":8732,"Ġmendadak":8733,"Ġmusic":8734,"Ġkorb":8735,"Ġkorup":8736,"Ġever":8737,"Ġmenciumnya":8738,"Ġkondom":8739,"Ġkawin":8740,"Ġhannah":8741,"cause":8742,"rong":8743,"Ġmenimp":8744,"Ġrent":8745,"Ġoc":8746,"Ġour":8747,"atikannya":8748,"Ġpunyamu":8749,"manan":8750,"Ġforens":8751,"Ġkampung":8752,"Ġhiro":8753,"Ġmum":8754,"Ġkandung":8755,"Ġpangkalan":8756,"Ġfel":8757,"Ġmencariku":8758,"angkuk":8759,"Ġberkel":8760,"Ġaroma":8761,"Ġandre":8762,"Ġmenyeberangi":8763,"Ġflu":8764,"Ġuji":8765,"Ġmengikutimu":8766,"Ġcabang":8767,"ound":8768,"arakan":8769,"Ġdiikuti":8770,"Ġlencana":8771,"Ġjangka":8772,"ektor":8773,"Ġfut":8774,"Ġjadikan":8775,"Ġdibakar":8776,"Ġbelakangku":8777,"Ġnaiklah":8778,"Ġefektif":8779,"Ġmerawatnya":8780,"Ġmmhm":8781,"Ġkebanggaan":8782,"Ġkaku":8783,"Ġtekat":8784,"eball":8785,"impangan":8786,"elly":8787,"Ġmust":8788,"Ġnyanyikan":8789,"Ġterakhirnya":8790,"arden":8791,"othy":8792,"Ġcomm":8793,"Ġberkeringat":8794,"Ġzombie":8795,"Ġrepublik":8796,"we":8797,"Ġseol":8798,"usn":8799,"urunya":8800,"Ġretak":8801,"iao":8802,"Ġchar":8803,"Ġshr":8804,"ova":8805,"Ġmeneleponku":8806,"Ġekspr":8807,"Ġjulie":8808,"Ġmengunjung":8809,"Ġbulat":8810,"Ġfestiv":8811,"uara":8812,"Ġtara":8813,"Ġmenert":8814,"Ġcenderung":8815,"Ġret":8816,"Ġnantinya":8817,"Ġwong":8818,"Ġharian":8819,"Ġberbunyi":8820,"Ġkeinginanmu":8821,"Ġpengkhianatan":8822,"Ġrebec":8823,"Ġlawrence":8824,"Ġroket":8825,"Ġkeributan":8826,"Ġtink":8827,"Ġmentr":8828,"Ġgej":8829,"Ġnin":8830,"Ġmelayang":8831,"Ġprov":8832,"Ġchow":8833,"Ġbrand":8834,"Ġdemok":8835,"Ġdonna":8836,"Ġ196":8837,"Ġajarkan":8838,"Ġpraktek":8839,"kamu":8840,"Ġmenyinggung":8841,"Ġkasino":8842,"Ġkuant":8843,"Ġbrid":8844,"Ġnyali":8845,"Ġtampilan":8846,"Ġarch":8847,"Ġabb":8848,"Ġdicari":8849,"Ġpakaianmu":8850,"Ġkaos":8851,"Ġpsiko":8852,"Ġmengarahkan":8853,"Ġmenghargainya":8854,"Ġmenanam":8855,"elepon":8856,"Ġjah":8857,"Ġkewajib":8858,"Ġcir":8859,"Ġ,,,":8860,"Ġmasakan":8861,"ots":8862,"ohoo":8863,"Ġdisaat":8864,"Ġpelajar":8865,"Ġkubur":8866,"Ġperkembangan":8867,"Ġmoyang":8868,"Ġhouse":8869,"load":8870,"Ġtransport":8871,"seperti":8872,"thing":8873,"Ġmenampar":8874,"Ġbunt":8875,"Ġkew":8876,"acuni":8877,"Ġpeluncuran":8878,"Ġmakanannya":8879,"Ġagresi":8880,"Ġpermohonan":8881,"rael":8882,"azz":8883,"Ġditugaskan":8884,"Ġpantatmu":8885,"Ġmenjemputmu":8886,"cia":8887,"har":8888,"repot":8889,"Ġbisbol":8890,"Ġkabut":8891,"itahuan":8892,"ahluk":8893,"kitab":8894,"Ġkeseimbangan":8895,"Ġteks":8896,"Ġbanci":8897,"Ġmengincar":8898,"Ġtaktik":8899,"Ġfikir":8900,"ambang":8901,"Ġtokyo":8902,"Ġkampanye":8903,"Ġmemaksaku":8904,"Ġbecky":8905,"Ġnafsu":8906,"Ġfacebook":8907,"Ġperkawinan":8908,"hanya":8909,"Ġmembeku":8910,"edes":8911,"Ġkaleng":8912,"Ġberpikiran":8913,"Ġkehidupanku":8914,"Ġdihapus":8915,"Ġskala":8916,"Ġkucari":8917,"Ġkonsep":8918,"Ġswasta":8919,"Ġprodus":8920,"gunakan":8921,"yung":8922,"asis":8923,"idu":8924,"Ġatmos":8925,"Ġkelamin":8926,"Ġbegitukah":8927,"Ġasam":8928,"Ġpembela":8929,"usiaan":8930,"Ġbatalkan":8931,"embunyian":8932,"Ġbasket":8933,"Ġmengeluarkanmu":8934,"Ġrocky":8935,"Ġmenaruhnya":8936,"Ġmengintip":8937,"Ġelektr":8938,"Ġrepotrepot":8939,"Ġperjuangan":8940,"Ġrebecca":8941,"mus":8942,"Ġdc":8943,"ates":8944,"Ġmenol":8945,"Ġmembangk":8946,"Ġnoth":8947,"Ġpenerima":8948,"Ġalergi":8949,"Ġsakiti":8950,"Ġenyah":8951,"Ġngapain":8952,"Ġscre":8953,"Ġcarlos":8954,"Ġkekasihku":8955,"Ġketerlaluan":8956,"Ġkombinasi":8957,"Ġterkuat":8958,"Ġfat":8959,"Ġkesad":8960,"Ġkeranjang":8961,"Ġmath":8962,"Ġterakhirmu":8963,"Ġevakuasi":8964,"Ġradiasi":8965,"Ġbawang":8966,"kami":8967,"Ġmeluncur":8968,"Ġfungsi":8969,"Ġbahas":8970,"Ġchamp":8971,"Ġasalnya":8972,"Ġreese":8973,"oyd":8974,"Ġmengeliling":8975,"Ġparup":8976,"Ġmenjawabnya":8977,"Ġsubjek":8978,"tipu":8979,"Ġradar":8980,"Ġmenakutn":8981,"Ġpenglihatan":8982,"Ġfestival":8983,"Ġama":8984,"ansi":8985,"aster":8986,"Ġteriak":8987,"Ġbelikan":8988,"Ġmenghormat":8989,"Ġkerum":8990,"Ġscarl":8991,"Ġsituasinya":8992,"Ġdae":8993,"Ġeve":8994,"lukkan":8995,"Ġtasnya":8996,"Ġspesifik":8997,"Ġmegan":8998,"entukan":8999,"Ġplus":9000,"Ġkencang":9001,"Ġops":9002,"Ġbawalah":9003,"Ġmarshal":9004,"Ġjabatan":9005,"Ġcedera":9006,"you":9007,"Ġtucker":9008,"Ġyard":9009,"aff":9010,"Ġnaikkan":9011,"Ġtragis":9012,"Ġjacob":9013,"Ġmemuaskan":9014,"Ġmengklaim":9015,"Ġforensik":9016,"fum":9017,"Ġmahluk":9018,"enom":9019,"Ġlak":9020,"oli":9021,"Ġterlarang":9022,"Ġthro":9023,"Ġdibersihkan":9024,"Ġtri":9025,"empar":9026,"Ġterakhirku":9027,"Ġkantornya":9028,"aporkan":9029,"Ġcheers":9030,"Ġlemparkan":9031,"Ġstanley":9032,"Ġpermulaan":9033,"dock":9034,"Ġemp":9035,"Ġsqu":9036,"Ġbanj":9037,"Ġmenep":9038,"elawar":9039,"Ġyak":9040,"Ġkelelahan":9041,"ibatnya":9042,"Ġpenawar":9043,"Ġkasur":9044,"andra":9045,"Ġdiman":9046,"onder":9047,"Ġkakekku":9048,"Ġacak":9049,"Ġmengamati":9050,"Ġmeremehkan":9051,"Ġster":9052,"Ġrubah":9053,"Ġhallow":9054,"Ġtahunan":9055,"Ġnegar":9056,"Ġharvard":9057,"Ġkerugian":9058,"mudah":9059,"Ġain":9060,"Ġmelawannya":9061,"Ġful":9062,"Ġataupun":9063,"Ġsetempat":9064,"Ġkecilnya":9065,"Ġkomis":9066,"Ġbuatkan":9067,"Ġbuas":9068,"iuman":9069,"Ġvampire":9070,"Ġambisi":9071,"Ġwarisan":9072,"surat":9073,"Ġtunduk":9074,"Ġfair":9075,"chen":9076,"Ġdiken":9077,"Ġkoma":9078,"Ġsurya":9079,"Ġdarahmu":9080,"Ġjae":9081,"Ġjiwaku":9082,"Ġrabu":9083,"Ġkehadiran":9084,"Ġperlengkapan":9085,"bl":9086,"hu":9087,"ihkannya":9088,"Ġtertipu":9089,"Ġgill":9090,"ayat":9091,"Ġwork":9092,"Ġwiii":9093,"Ġalkitab":9094,"Ġvon":9095,"Ġmenulisnya":9096,"Ġsuperman":9097,"elanja":9098,"Ġpertahankan":9099,"ble":9100,"Ġdiego":9101,"ario":9102,"Ġgam":9103,"pert":9104,"Ġdisip":9105,"Ġmaksudkan":9106,"impikan":9107,"Ġburt":9108,"Ġdepannya":9109,"Ġmarley":9110,"Ġprofil":9111,"Ġmembencinya":9112,"Ġtekateki":9113,"Ġmall":9114,"Ġhamp":9115,"Ġhabisi":9116,"Ġlin":9117,"embahkan":9118,"ianat":9119,"Ġdirencanakan":9120,"Ġkesamaan":9121,"ops":9122,"Ġdilatih":9123,"Ġdilindungi":9124,"umba":9125,"Ġonly":9126,"alikali":9127,"Ġbuahku":9128,"Ġryu":9129,"Ġpeliharaan":9130,"back":9131,"atau":9132,"Ġmengobrol":9133,"Ġcakar":9134,"ihatin":9135,"Ġbersek":9136,"Ġthor":9137,"Ġdibilang":9138,"Ġjamur":9139,"Ġpenyus":9140,"Ġgener":9141,"head":9142,"Ġmemahaminya":9143,"Ġdimaksudkan":9144,"ns":9145,"Ġmai":9146,"Ġpuc":9147,"iac":9148,"Ġpedagang":9149,"Ġdiperbaiki":9150,"Ġmengirimmu":9151,"Ġerat":9152,"Ġpelacak":9153,"Ġmengurung":9154,"Ġtombak":9155,"Ġsepupuku":9156,"Ġgiliranku":9157,"Ġnyawamu":9158,"Ġbatang":9159,"elia":9160,"uke":9161,"amatis":9162,"Ġpembukaan":9163,"Ġpersembunyian":9164,"Ġsoda":9165,"Ġmikr":9166,"Ġcita":9167,"Ġriver":9168,"Ġkeret":9169,"Ġbatuk":9170,"Ġleo":9171,"Ġhold":9172,"Ġalbum":9173,"Ġketerampilan":9174,"Ġbukubuku":9175,"jari":9176,"ras":9177,"Ġisa":9178,"Ġmud":9179,"Ġdini":9180,"Ġtoo":9181,"Ġakibatnya":9182,"Ġyup":9183,"Ġgive":9184,"Ġmelamb":9185,"Ġmenyatukan":9186,"Ġkaran":9187,"Ġbarunya":9188,"Ġkebodoh":9189,"Ġuhoh":9190,"Ġhargai":9191,"Ġrigsby":9192,"Ġmerangkak":9193,"dil":9194,"Ġtp":9195,"Ġlant":9196,"inder":9197,"Ġveg":9198,"Ġaaron":9199,"Ġpemabuk":9200,"Ġmusa":9201,"Ġjauhjauh":9202,"ersey":9203,"Ġbajumu":9204,"Ġroyal":9205,"Ġkuceritakan":9206,"Ġgaragara":9207,"Ġgenetik":9208,"Ġsandi":9209,"Ġmother":9210,"Ġbantal":9211,"Ġarmada":9212,"Ġfisika":9213,"Ġdisiplin":9214,"more":9215,"rom":9216,"Ġaul":9217,"Ġmendaki":9218,"Ġpengampun":9219,"Ġ42":9220,"undurkan":9221,"Ġconrad":9222,"Ġboys":9223,"pad":9224,"rich":9225,"amah":9226,"engahan":9227,"imi":9228,"jaya":9229,"Ġpertimbangkan":9230,"Ġkalk":9231,"Ġtempatkan":9232,"Ġpantatnya":9233,"Ġwild":9234,"house":9235,"Ġpemberontakan":9236,"Ġmenghadapinya":9237,"Ġpenyamaran":9238,"pd":9239,"Ġmatang":9240,"Ġkaz":9241,"Ġbaikan":9242,"Ġmemicu":9243,"Ġgantung":9244,"otol":9245,"Ġkemulia":9246,"Ġditarik":9247,"Ġzo":9248,"Ġpenghinaan":9249,"Ġfriend":9250,"aktor":9251,"Ġsaul":9252,"imeter":9253,"aig":9254,"Ġorangmu":9255,"abung":9256,"Ġkarbon":9257,"Ġchad":9258,"Ġmanu":9259,"ustus":9260,"Ġperbaikan":9261,"Ġjarinya":9262,"Ġtambahkan":9263,"Ġumurmu":9264,"Ġmenuntun":9265,"Ġmengutuk":9266,"Ġteriakan":9267,"Ġdirancang":9268,"Ġkesatuan":9269,"Ġpengum":9270,"Ġsalahkan":9271,"Ġdaratan":9272,"Ġnoah":9273,"Ġarahkan":9274,"Ġcucu":9275,"Ġkemanusiaan":9276,"Ġkomisaris":9277,"Ġera":9278,"asai":9279,"Ġjersey":9280,"olasi":9281,"Ġsesudah":9282,"Ġpembel":9283,"Ġgerak":9284,"Ġanjingnya":9285,"Ġmenolaknya":9286,"rett":9287,"Ġdiisi":9288,"Ġsaw":9289,"aikannya":9290,"Ġhart":9291,"Ġ29":9292,"Ġingatkan":9293,"Ġnomer":9294,"Ġinvestasi":9295,"Ġcindy":9296,"Ġyankee":9297,"Ġkesetiaan":9298,"hmm":9299,"Ġsull":9300,"agila":9301,"Ġmengendali":9302,"omos":9303,"Ġkembang":9304,"Ġdicintai":9305,"Ġtransaksi":9306,"Ġdikatakannya":9307,"Ġrakasa":9308,"Ġvince":9309,"Ġlaporkan":9310,"13":9311,"our":9312,"ough":9313,"aratan":9314,"Ġmenukar":9315,"Ġrand":9316,"Ġsemudah":9317,"Ġfam":9318,"Ġkelelawar":9319,"Ġterlatih":9320,"Ġalas":9321,"Ġwanna":9322,"Ġburuknya":9323,"Ġkupukup":9324,"Ġberjam":9325,"Ġlabalaba":9326,"Ġkoki":9327,"Ġpemberitahuan":9328,"Ġlaser":9329,"Ġkopral":9330,"Ġvirginia":9331,"Ġgentlemen":9332,"Ġphoenix":9333,"val":9334,"Ġtawar":9335,"Ġbs":9336,"Ġpurn":9337,"Ġmematuhi":9338,"Ġterbukti":9339,"entian":9340,"Ġpembebasan":9341,"Ġsherl":9342,"uncang":9343,"Ġobser":9344,"Ġpenculik":9345,"Ġjendel":9346,"Ġpamanmu":9347,"Ġmenjijikan":9348,"Ġgabri":9349,"Ġmengkhianat":9350,"Ġnyawanya":9351,"Ġpromosi":9352,"Ġmercedes":9353,"Ġhoney":9354,"Ġflorida":9355,"Ġubah":9356,"Ġming":9357,"Ġsug":9358,"Ġpompa":9359,"Ġterengah":9360,"onica":9361,"Ġmelamar":9362,"ampaikan":9363,"Ġberser":9364,"Ġhidupkan":9365,"Ġpembuangan":9366,"Ġarsip":9367,"Ġsuratsurat":9368,"Ġpribad":9369,"Ġtebing":9370,"Ġtransmisi":9371,"Ġsund":9372,"Ġdai":9373,"Ġtendang":9374,"aui":9375,"Ġkaub":9376,"Ġnell":9377,"Ġwaj":9378,"Ġprihatin":9379,"Ġaid":9380,"Ġbesarnya":9381,"Ġantik":9382,"Ġmenyesuaikan":9383,"Ġnenekku":9384,"Ġkesadaran":9385,"Ġyuk":9386,"Ġnorth":9387,"Ġkeliling":9388,"Ġsangatlah":9389,"Ġaltern":9390,"Ġtry":9391,"Ġdepresi":9392,"ejar":9393,"Ġmenyapa":9394,"Ġinfo":9395,"Ġkonst":9396,"Ġgambarnya":9397,"jok":9398,"yama":9399,"adah":9400,"Ġgong":9401,"etika":9402,"Ġsemut":9403,"icip":9404,"Ġpram":9405,"Ġmenghabisi":9406,"Ġvent":9407,"Ġstep":9408,"Ġpunk":9409,"Ġlucky":9410,"Ġroad":9411,"iji":9412,"Ġlembaga":9413,"Ġasalmu":9414,"Ġpinggang":9415,"500":9416,"ves":9417,"iskusikan":9418,"Ġrome":9419,"Ġgps":9420,"Ġkeluhan":9421,"Ġpertengahan":9422,"Ġberdering":9423,"Ġbrut":9424,"Ġkedutaan":9425,"Ġwhist":9426,"Ġdeal":9427,"Ġartis":9428,"Ġesok":9429,"Ġkudapatkan":9430,"Ġkameranya":9431,"Ġtrauma":9432,"Ġpurnama":9433,"Ġsherlock":9434,"Ġhugh":9435,"Ġbersabar":9436,"Ġstat":9437,"Ġdetak":9438,"Ġmenjelajah":9439,"Ġmantap":9440,"Ġnicky":9441,"Ġmitos":9442,"Ġfreddy":9443,"Ġkiamat":9444,"Ġviet":9445,"Ġdorongan":9446,"Ġakademi":9447,"Ġhalloween":9448,"Ġkin":9449,"Ġakar":9450,"alph":9451,"Ġberapi":9452,"itusi":9453,"uhrer":9454,"Ġsekian":9455,"Ġkelima":9456,"Ġkastil":9457,"Ġketimbang":9458,"Ġmembereskan":9459,"Ġbioskop":9460,"ters":9461,"Ġvas":9462,"Ġeag":9463,"berry":9464,"Ġpeop":9465,"Ġmengijin":9466,"Ġnelson":9467,"Ġgranat":9468,"Ġpenyesalan":9469,"yek":9470,"Ġmengan":9471,"entangan":9472,"uart":9473,"Ġtahunku":9474,"Ġpelarian":9475,"Ġsouth":9476,"Ġdeep":9477,"Ġ700":9478,"Ġmenuliskan":9479,"Ġmemukulmu":9480,"Ġparfum":9481,"Ġramai":9482,"Ġtelponnya":9483,"Ġmengakuinya":9484,"Ġmelindungiku":9485,"Ġpriya":9486,"Ġmimpiku":9487,"Ġjangkauan":9488,"Ġeinstein":9489,"Ġpembantaian":9490,"Ġshir":9491,"Ġlaks":9492,"Ġmemindah":9493,"ilasi":9494,"Ġrey":9495,"Ġoi":9496,"ebah":9497,"iany":9498,"Ġbelanda":9499,"Ġkuyakin":9500,"Ġmarion":9501,"Ġbukalah":9502,"Ġbabe":9503,"Ġstring":9504,"Ġmartha":9505,"Ġgemetar":9506,"Ġkomunis":9507,"Ġmenghindar":9508,"Ġtravis":9509,"jelas":9510,"no":9511,"rice":9512,"anen":9513,"Ġkari":9514,"amai":9515,"astikan":9516,"Ġhur":9517,"otak":9518,"ible":9519,"Ġbersaing":9520,"Ġkhas":9521,"Ġmemberikanku":9522,"Ġkehidupanmu":9523,"Ġbarangkali":9524,"Ġkakekmu":9525,"Ġlandas":9526,"Ġlonceng":9527,"Ġcollins":9528,"Ġpsikiater":9529,"Ġberpengalaman":9530,"Ġsingg":9531,"inis":9532,"Ġseter":9533,"Ġjanda":9534,"Ġpersiapkan":9535,"Ġgad":9536,"Ġmelengk":9537,"Ġmaupun":9538,"Ġbiara":9539,"Ġkesimp":9540,"Ġvit":9541,"Ġbetty":9542,"Ġbarangnya":9543,"Ġsyl":9544,"Ġglen":9545,"Ġmenghubunginya":9546,"corp":9547,"Ġaii":9548,"oks":9549,"Ġpelaut":9550,"Ġterkalahkan":9551,"Ġmenyapu":9552,"Ġperhitungan":9553,"Ġperintahku":9554,"Ġtercinta":9555,"Ġviolet":9556,"Ġmengelilingi":9557,"eti":9558,"jun":9559,"Ġmig":9560,"apis":9561,"able":9562,"Ġfish":9563,"ational":9564,"oses":9565,"Ġpengin":9566,"ope":9567,"Ġbrother":9568,"Ġtertekan":9569,"Ġgret":9570,"Ġ47":9571,"Ġkekuatanku":9572,"here":9573,"Ġinfeksi":9574,"Ġkonv":9575,"Ġtwo":9576,"Ġmenyayangi":9577,"Ġekstrim":9578,"Ġtendangan":9579,"Ġpenembakan":9580,"fo":9581,"Ġkip":9582,"Ġinikah":9583,"Ġperger":9584,"Ġwol":9585,"Ġmenghantam":9586,"Ġ'?":9587,"Ġsiluman":9588,"Ġbalap":9589,"Ġorbit":9590,"Ġmematamat":9591,"Ġfrancisco":9592,"Ġsekej":9593,"obati":9594,"igan":9595,"Ġdramatis":9596,"elix":9597,"Ġmembutuhkanku":9598,"Ġmount":9599,"Ġmaha":9600,"Ġoppa":9601,"Ġelliot":9602,"Ġsherif":9603,"Ġwoody":9604,"Ġpengumuman":9605,"lu":9606,"pris":9607,"rot":9608,"anan":9609,"idor":9610,"usir":9611,"Ġrangka":9612,"jadikan":9613,"Ġsendok":9614,"Ġeast":9615,"Ġpatut":9616,"sekarang":9617,"Ġjadinya":9618,"Ġsabun":9619,"Ġmewujud":9620,"Ġjasad":9621,"Ġpendekatan":9622,"Ġmengalahkannya":9623,"itra":9624,"Ġmenu":9625,"Ġcody":9626,"Ġnuran":9627,"etti":9628,"aina":9629,"Ġpakistan":9630,"ujung":9631,"Ġbrun":9632,"ogg":9633,"Ġanth":9634,"Ġkekalahan":9635,"Ġbuy":9636,"Ġinspirasi":9637,"Ġtransportasi":9638,"Ġbanjir":9639,"the":9640,"erm":9641,"Ġberoperasi":9642,"Ġmengundurkan":9643,"daft":9644,"essa":9645,"Ġgoo":9646,"Ġbagaikan":9647,"endahkan":9648,"Ġberpegangan":9649,"Ġkebers":9650,"Ġmasalahku":9651,"Ġberdetak":9652,"Ġatasan":9653,"Ġmengirimku":9654,"Ġusai":9655,"Ġdiny":9656,"Ġsexy":9657,"Ġimajinasi":9658,"Ġdonald":9659,"Ġkekan":9660,"Ġmengizinkan":9661,"Ġmembodoh":9662,"Ġnampak":9663,"Ġvin":9664,"encer":9665,"Ġrex":9666,"Ġjeruk":9667,"ious":9668,"Ġbekerj":9669,"Ġkerjamu":9670,"Ġkupukupu":9671,"bagaimana":9672,"ekas":9673,"Ġsekutu":9674,"Ġsudahkah":9675,"Ġkenya":9676,"Ġbelle":9677,"Ġlalui":9678,"Ġpembangun":9679,"Ġarsit":9680,"Ġliz":9681,"Ġpencipta":9682,"Ġkonfirmasi":9683,"Ġspesialis":9684,"Ġcintamu":9685,"Ġproduksi":9686,"get":9687,"jah":9688,"less":9689,"Ġpinggir":9690,"Ġlukanya":9691,"ilu":9692,"olok":9693,"pergi":9694,"Ġkebing":9695,"Ġlaptop":9696,"Ġkukenal":9697,"Ġdarahku":9698,"Ġswiss":9699,"Ġbuahmu":9700,"Ġmengagumi":9701,"inyur":9702,"Ġeyes":9703,"Ġbryce":9704,"Ġthrough":9705,"Ġaula":9706,"bila":9707,"Ġmuch":9708,"Ġchoi":9709,"Ġmanny":9710,"Ġsept":9711,"Ġbaseball":9712,"Ġbereskan":9713,"Ġmempermainkan":9714,"ool":9715,"sangat":9716,"Ġjemput":9717,"engat":9718,"Ġmembalik":9719,"Ġsebotol":9720,"Ġbaruku":9721,"Ġtinggallah":9722,"Ġpenyerang":9723,"Ġpesawatnya":9724,"enggal":9725,"Ġkegembira":9726,"Ġkemuliaan":9727,"pol":9728,"ukir":9729,"Ġcup":9730,"Ġmerepot":9731,"uling":9732,"Ġgawat":9733,"Ġmenghabis":9734,"Ġberkil":9735,"umbang":9736,"ivan":9737,"lyn":9738,"Ġkoloni":9739,"Ġcraig":9740,"Ġoperator":9741,"Ġmentega":9742,"Ġleslie":9743,"cy":9744,"fu":9745,"ial":9746,"tober":9747,"akap":9748,"Ġdampak":9749,"arn":9750,"isiku":9751,"Ġsaint":9752,"utnya":9753,"Ġmelissa":9754,"Ġfuhrer":9755,"Ġkasusnya":9756,"Ġberbisnis":9757,"Ġveer":9758,"Ġperlomb":9759,"Ġberpengaruh":9760,"Ġmenyal":9761,"ansfer":9762,"Ġrespon":9763,"ualian":9764,"Ġsemester":9765,"Ġsemestinya":9766,"Ġsensor":9767,"Ġjudy":9768,"Ġalternatif":9769,"mungkin":9770,"Ġkill":9771,"atik":9772,"Ġpower":9773,"idi":9774,"Ġnasi":9775,"Ġsiaga":9776,"Ġpenil":9777,"andia":9778,"Ġpengusaha":9779,"Ġindiv":9780,"Ġtergil":9781,"Ġmenceritakannya":9782,"Ġpayung":9783,"Ġkujelaskan":9784,"kripsi":9785,"Ġpondok":9786,"Ġelektronik":9787,"Ġhapus":9788,"Ġlec":9789,"Ġsempit":9790,"Ġberbau":9791,"Ġpengemb":9792,"ieve":9793,"Ġtersebar":9794,"Ġpermata":9795,"Ġfre":9796,"Ġseharga":9797,"Ġeksperimen":9798,"Ġinsinyur":9799,"Ġpemiliknya":9800,"Ġpameran":9801,"Ġkarenanya":9802,"Ġvisual":9803,"Ġmie":9804,"Ġteng":9805,"alin":9806,"Ġmemar":9807,"Ġmengenc":9808,"Ġgin":9809,"Ġmeludah":9810,"Ġthen":9811,"Ġbangku":9812,"Ġkekhawatir":9813,"Ġjiwanya":9814,"Ġpenyusup":9815,"Ġkebingungan":9816,"notis":9817,"Ġsmu":9818,"Ġmemo":9819,"ird":9820,"Ġbaikku":9821,"endir":9822,"Ġketenangan":9823,"Ġdipl":9824,"Ġdipukuli":9825,"Ġtimes":9826,"Ġbeneran":9827,"Ġnoda":9828,"Ġbeau":9829,"Ġpencari":9830,"Ġposisimu":9831,"hea":9832,"Ġmenelponmu":9833,"Ġpenahanan":9834,"Ġkepribadian":9835,"Ġwerew":9836,"Ġperlombaan":9837,"Ġsanti":9838,"eraian":9839,"Ġduta":9840,"Ġbong":9841,"Ġjang":9842,"isha":9843,"Ġmengakses":9844,"Ġfine":9845,"Ġsesuat":9846,"Ġberbisik":9847,"ench":9848,"Ġterkendali":9849,"Ġkehilanganmu":9850,"icks":9851,"Ġmemecah":9852,"Ġpraktis":9853,"hattan":9854,"Ġflynn":9855,"Ġdistrik":9856,"Ġmenakutnakuti":9857,"Ġsullivan":9858,"Ġpew":9859,"ihara":9860,"Ġgunting":9861,"oll":9862,"antha":9863,"Ġbertunangan":9864,"ontak":9865,"Ġpermanen":9866,"Ġdilaporkan":9867,"aver":9868,"Ġsakitnya":9869,"Ġkomite":9870,"Ġkawanan":9871,"Ġangsa":9872,"Ġlabel":9873,"Ġmenciumku":9874,"Ġmengawasinya":9875,"Ġjustin":9876,"Ġlumpuh":9877,"Ġaturannya":9878,"Ġmurphy":9879,"ooh":9880,"vasi":9881,"Ġbum":9882,"Ġberantai":9883,"Ġmenyiany":9884,"Ġberbentuk":9885,"Ġchat":9886,"Ġberkep":9887,"Ġsepi":9888,"ohongi":9889,"Ġramalan":9890,"Ġrahul":9891,"Ġafg":9892,"Ġschm":9893,"Ġmemaafkanmu":9894,"Ġoscar":9895,"Ġtenggorokan":9896,"Ġkecerdasan":9897,"Ġpergerakan":9898,"Ġlori":9899,"imum":9900,"Ġmelaksanakan":9901,"ebatan":9902,"Ġmendirikan":9903,"Ġpenny":9904,"Ġterbaikku":9905,"Ġmenikahinya":9906,"Ġparam":9907,"Ġaktivitas":9908,"nett":9909,"Ġmahu":9910,"Ġding":9911,"Ġdod":9912,"Ġmengup":9913,"urai":9914,"Ġnampaknya":9915,"ekaan":9916,"encar":9917,"Ġmemperb":9918,"Ġkontr":9919,"Ġtomat":9920,"Ġperceraian":9921,"Ġdisebutkan":9922,"Ġsandy":9923,"Ġvietnam":9924,"kl":9925,"Ġyan":9926,"Ġromp":9927,"ayangan":9928,"ets":9929,"Ġselingkuh":9930,"anggih":9931,"Ġchap":9932,"teran":9933,"Ġ2000":9934,"Ġberkh":9935,"Ġditengah":9936,"Ġtersayang":9937,"Ġ34":9938,"Ġpendaratan":9939,"Ġumurnya":9940,"Ġperkemahan":9941,"Ġpengendalian":9942,"Ġtenggoro":9943,"Ġternak":9944,"Ġberbulanbulan":9945,"Ġsekejap":9946,"Ġpenilaian":9947,"anne":9948,"Ġparuh":9949,"Ġperingkat":9950,"Ġcetak":9951,"Ġgantinya":9952,"Ġatlet":9953,"Ġstil":9954,"Ġsepatunya":9955,"Ġnorman":9956,"Ġmenganggapnya":9957,"Ġexc":9958,"Ġmolek":9959,"omendasikan":9960,"tempat":9961,"Ġswan":9962,"Ġsolo":9963,"Ġbamb":9964,"Ġbenang":9965,"Ġjob":9966,"uting":9967,"olik":9968,"Ġfight":9969,"Ġbuktinya":9970,"fred":9971,"Ġmenaiki":9972,"Ġmemindahkannya":9973,"Ġseterusnya":9974,"uger":9975,"Ġpalu":9976,"Ġcuman":9977,"Ġteror":9978,"Ġmerus":9979,"egitu":9980,"Ġve":9981,"Ġstart":9982,"Ġditerj":9983,"Ġtro":9984,"Ġkhaya":9985,"Ġkapas":9986,"Ġbatal":9987,"Ġmemasukan":9988,"Ġterpikir":9989,"Ġscot":9990,"Ġperkumpulan":9991,"Ġ99":9992,"Ġkejadiannya":9993,"Ġperutku":9994,"Ġperiode":9995,"Ġveronica":9996,"Ġfantasi":9997,"Ġjiwamu":9998,"lokir":9999,"Ġbuntu":10000,"Ġkerumunan":10001,"Ġscarlett":10002,"Ġmumb":10003,"Ġjordan":10004,"uble":10005,"Ġasuhan":10006,"Ġjalanku":10007,"Ġpilihanmu":10008,"Ġmulutku":10009,"Ġtransfer":10010,"ways":10011,"Ġpengecualian":10012,"Ġperkataan":10013,"Ġamplop":10014,"Ġpermainannya":10015,"so":10016,"sudah":10017,"ugi":10018,"wi":10019,"akura":10020,"Ġmenanti":10021,"Ġralph":10022,"Ġgett":10023,"Ġnap":10024,"elahkan":10025,"Ġbersorak":10026,"andal":10027,"Ġkala":10028,"Ġmanhattan":10029,"Ġwalk":10030,"Ġkeji":10031,"Ġmilyar":10032,"enggot":10033,"Ġjantungku":10034,"Ġjarimu":10035,"Ġhidangan":10036,"Ġbuangbuang":10037,"Ġ250":10038,"Ġbocor":10039,"Ġpunggungku":10040,"Ġlow":10041,"Ġgob":10042,"Ġsebaga":10043,"edikasi":10044,"ffy":10045,"Ġagustus":10046,"Ġdipahami":10047,"Ġkupunya":10048,"Ġcarikan":10049,"Ġobjek":10050,"enggam":10051,"Ġmengelola":10052,"Ġmood":10053,"Ġkuhubungi":10054,"Ġphill":10055,"Ġuap":10056,"Ġseptember":10057,"Ġtergilagila":10058,"14":10059,"mp":10060,"mark":10061,"sp":10062,"Ġtulus":10063,"ason":10064,"Ġlaku":10065,"ampur":10066,"Ġberkenalan":10067,"Ġdikalahkan":10068,"Ġkosm":10069,"Ġpearl":10070,"Ġ75":10071,"Ġuskup":10072,"Ġallen":10073,"Ġscotty":10074,"tilah":10075,"Ġduck":10076,"Ġbritt":10077,"incir":10078,"Ġmengajaknya":10079,"Ġilusi":10080,"Ġmerekrut":10081,"Ġcerdik":10082,"Ġturnamen":10083,"Ġberjamjam":10084,"Ġbrutal":10085,"beb":10086,"rest":10087,"Ġbingo":10088,"Ġjoy":10089,"Ġox":10090,"Ġayunan":10091,"Ġfol":10092,"Ġtahunnya":10093,"Ġkubutuhkan":10094,"Ġinduk":10095,"Ġclo":10096,"Ġpendamping":10097,"Ġanderson":10098,"gerakkan":10099,"Ġkumiliki":10100,"Ġisrael":10101,"Ġbandit":10102,"Ġinstruksi":10103,"Ġkupercaya":10104,"non":10105,"zel":10106,"erahan":10107,"Ġdenyut":10108,"Ġjitu":10109,"Ġceo":10110,"asaya":10111,"Ġkemalu":10112,"Ġsetelahnya":10113,"uruti":10114,"Ġpersaud":10115,"Ġinsting":10116,"Ġsutrad":10117,"Ġgenerator":10118,"Ġpengampunan":10119,"zon":10120,"Ġpita":10121,"agen":10122,"dai":10123,"Ġterim":10124,"urger":10125,"Ġrow":10126,"Ġmerancang":10127,"egel":10128,"Ġdiset":10129,"andan":10130,"Ġmein":10131,"Ġpendukung":10132,"Ġsco":10133,"Ġisland":10134,"Ġenter":10135,"Ġhasrat":10136,"Ġmenaikkan":10137,"Ġmembungkuk":10138,"Ġburrows":10139,"ping":10140,"Ġmach":10141,"Ġpatuh":10142,"emak":10143,"Ġlamanya":10144,"Ġpengen":10145,"Ġste":10146,"Ġsoft":10147,"Ġkoridor":10148,"Ġterdakwa":10149,"Ġjumlahnya":10150,"Ġberselingkuh":10151,"Ġnothing":10152,"Ġkegembiraan":10153,"lock":10154,"vo":10155,"Ġew":10156,"anak":10157,"adu":10158,"ilas":10159,"Ġmemburuk":10160,"Ġmelel":10161,"Ġyap":10162,"icus":10163,"Ġheather":10164,"Ġstill":10165,"Ġdikep":10166,"Ġkomik":10167,"Ġente":10168,"Ġcatur":10169,"Ġpernikahannya":10170,"ungkus":10171,"Ġmengejarku":10172,"Ġmembersihkannya":10173,"Ġpenasehat":10174,"colm":10175,"Ġwinston":10176,"Ġagresif":10177,"Ġpersaudaraan":10178,"bro":10179,"Ġkumpulan":10180,"Ġpiat":10181,"Ġharmon":10182,"Ġsteph":10183,"Ġmenggosok":10184,"Ġtakutkan":10185,"Ġdead":10186,"Ġsameer":10187,"Ġsamantha":10188,"Ġwaras":10189,"Ġflint":10190,"Ġberasumsi":10191,"Ġkyung":10192,"Ġberperilaku":10193,"Ġpenyebabnya":10194,"Ġnikmatilah":10195,"Ġpenginapan":10196,"bisa":10197,"rov":10198,"Ġmangkuk":10199,"Ġtawarkan":10200,"Ġline":10201,"Ġcav":10202,"Ġmeleset":10203,"Ġpengaturan":10204,"hero":10205,"Ġmalas":10206,"Ġmalcolm":10207,"etto":10208,"Ġmemasukkannya":10209,"Ġbubar":10210,"Ġpengemudi":10211,"Ġberbahasa":10212,"Ġkewajiban":10213,"Ġinisi":10214,"ager":10215,"Ġmengamankan":10216,"Ġapabila":10217,"Ġteras":10218,"urau":10219,"untit":10220,"Ġnaman":10221,"Ġmelelahkan":10222,"Ġwonder":10223,"anting":10224,"Ġmendiskusikan":10225,"Ġpeneg":10226,"epati":10227,"Ġberka":10228,"Ġbre":10229,"Ġanakanaknya":10230,"Ġbenua":10231,"Ġsalmon":10232,"Ġmenghentikanku":10233,"Ġlayaknya":10234,"Ġbedebah":10235,"aksanaan":10236,"Ġmembangkitkan":10237,"eong":10238,"form":10239,"lus":10240,"Ġengg":10241,"enberg":10242,"Ġpup":10243,"Ġmenon":10244,"ume":10245,"Ġwere":10246,"epit":10247,"Ġbertukar":10248,"Ġthem":10249,"ips":10250,"Ġshi":10251,"igasi":10252,"Ġberciuman":10253,"Ġsamud":10254,"Ġkonstruksi":10255,"Ġkagum":10256,"Ġumumnya":10257,"Ġcounty":10258,"Ġmeminumnya":10259,"Ġundangundang":10260,"Ġmelampaui":10261,"Ġsebagainya":10262,"worth":10263,"Ġmind":10264,"Ġmemain":10265,"Ġadmin":10266,"Ġruth":10267,"afik":10268,"Ġketid":10269,"Ġberpindah":10270,"Ġmempercepat":10271,"Ġsof":10272,"Ġunh":10273,"Ġbonus":10274,"Ġlonggar":10275,"Ġorangtuamu":10276,"Ġformulir":10277,"Ġnicole":10278,"usnahkan":10279,"nold":10280,"Ġub":10281,"Ġudang":10282,"irah":10283,"Ġdisalahkan":10284,"Ġsteak":10285,"Ġeva":10286,"Ġhook":10287,"Ġsepatuku":10288,"Ġmengejarmu":10289,"Ġtopik":10290,"Ġnelayan":10291,"Ġekspresi":10292,"Ġpiatu":10293,"Ġberkaitan":10294,"sas":10295,"Ġsambut":10296,"atidak":10297,"Ġmemukuli":10298,"usin":10299,"Ġteri":10300,"esis":10301,"uabu":10302,"Ġmencatat":10303,"Ġbersungguh":10304,"Ġbersahabat":10305,"Ġkemerd":10306,"Ġmanual":10307,"antian":10308,"ogok":10309,"Ġmempesona":10310,"Ġteleponku":10311,"Ġputranya":10312,"Ġpistolmu":10313,"Ġmajikan":10314,"Ġmenyentuhku":10315,"Ġmempertanyakan":10316,"Ġsambungkan":10317,"Ġmelukaimu":10318,"Ġcrowley":10319,"Ġlumbal":10320,"Ġgejala":10321,"Ġbudi":10322,"amal":10323,"Ġlint":10324,"Ġmengutus":10325,"Ġrawa":10326,"Ġnai":10327,"adia":10328,"Ġwade":10329,"Ġfell":10330,"Ġberbincang":10331,"Ġpengedar":10332,"Ġditangan":10333,"Ġjauhi":10334,"Ġdihormati":10335,"Ġevolusi":10336,"Ġultah":10337,"ungkap":10338,"Ġnenekmu":10339,"Ġpartikel":10340,"Ġpemenangnya":10341,"Ġberkuda":10342,"Ġfootball":10343,"Ġkebodohan":10344,"Ġafghan":10345,"malam":10346,"Ġaur":10347,"Ġtupai":10348,"alinya":10349,"Ġjasa":10350,"Ġmengas":10351,"Ġwel":10352,"enarkan":10353,"Ġmasam":10354,"Ġford":10355,"Ġbertanding":10356,"Ġoktober":10357,"Ġkenalan":10358,"Ġpemahaman":10359,"Ġkomitmen":10360,"Ġbatub":10361,"inspirasi":10362,"Ġmengungkap":10363,"Ġbenjamin":10364,"omosikan":10365,"Ġdv":10366,"Ġpek":10367,"itur":10368,"Ġcanggih":10369,"Ġpaduan":10370,"Ġmaut":10371,"Ġpengintai":10372,"Ġkeboc":10373,"Ġliang":10374,"Ġbergurau":10375,"Ġsylar":10376,"Ġmengaktifkan":10377,"Ġaug":10378,"Ġronnie":10379,"Ġkuambilkan":10380,"Ġmerespon":10381,"rang":10382,"Ġkua":10383,"Ġskin":10384,"Ġstif":10385,"Ġseat":10386,"Ġmembujuk":10387,"uhur":10388,"udian":10389,"Ġmask":10390,"Ġpengeb":10391,"Ġpemula":10392,"Ġdikendalikan":10393,"Ġkubicarakan":10394,"Ġkorek":10395,"Ġteleponmu":10396,"Ġfranklin":10397,"Ġswe":10398,"Ġroman":10399,"Ġnaskah":10400,"Ġlehermu":10401,"Ġbarbara":10402,"Ġmenampilkan":10403,"Ġotoritas":10404,"Ġkedokteran":10405,"Ġlumbalumba":10406,"ahulu":10407,"Ġaktr":10408,"isu":10409,"Ġmengampuni":10410,"aiah":10411,"Ġyam":10412,"ianati":10413,"ando":10414,"Ġdikerjakan":10415,"Ġidenya":10416,"Ġabuabu":10417,"Ġtercepat":10418,"Ġporter":10419,"Ġperhatiannya":10420,"Ġkonflik":10421,"Ġmenyianyiakan":10422,"kapan":10423,"kosa":10424,"Ġace":10425,"Ġmia":10426,"Ġkav":10427,"arangan":10428,"amakan":10429,"unk":10430,"asiswa":10431,"Ġhud":10432,"Ġlake":10433,"Ġmengu":10434,"uto":10435,"Ġdisembunyikan":10436,"Ġmembuatkan":10437,"Ġberhati":10438,"Ġbaron":10439,"Ġiike":10440,"Ġpemukul":10441,"Ġtrek":10442,"Ġclaud":10443,"Ġperburuan":10444,"Ġmusiknya":10445,"Ġtujuanmu":10446,"Ġmenciummu":10447,"Ġkondisinya":10448,"Ġsayuran":10449,"Ġwatson":10450,"Ġpooja":10451,"Ġkreatif":10452,"prise":10453,"Ġditerjemahkan":10454,"Ġbord":10455,"Ġakurat":10456,"Ġhend":10457,"Ġlive":10458,"Ġmengot":10459,"imer":10460,"Ġnit":10461,"ican":10462,"aco":10463,"Ġbertentangan":10464,"tual":10465,"Ġthomp":10466,"Ġkurasakan":10467,"Ġbrank":10468,"Ġberjag":10469,"Ġkudaku":10470,"Ġjimat":10471,"Ġdelta":10472,"Ġcelaka":10473,"Ġistirahatlah":10474,"Ġtabrakan":10475,"Ġfire":10476,"Ġwerewolf":10477,"formasi":10478,"Ġskand":10479,"Ġlaci":10480,"Ġcra":10481,"ulnya":10482,"Ġmelac":10483,"Ġfab":10484,"Ġmenghemat":10485,"Ġberkedip":10486,"Ġkedi":10487,"Ġkrn":10488,"Ġmaret":10489,"Ġseluruhnya":10490,"ffffkau":10491,"Ġkejuj":10492,"Ġgoyang":10493,"Ġmenembaki":10494,"Ġmengemud":10495,"Ġumurku":10496,"Ġcontohnya":10497,"Ġnyawaku":10498,"Ġjurnal":10499,"Ġmengasihi":10500,"Ġperkiraan":10501,"Ġsutradara":10502,"Ġmemainkannya":10503,"kal":10504,"lang":10505,"Ġkarang":10506,"Ġmenyiks":10507,"Ġmengharap":10508,"Ġberbelanja":10509,"Ġkerana":10510,"Ġkuingat":10511,"Ġstadi":10512,"Ġpelurunya":10513,"Ġzach":10514,"Ġamankan":10515,"Ġturunlah":10516,"Ġlemon":10517,"Ġdesember":10518,"Ġmenghentikanmu":10519,"Ġhaha":10520,"Ġregu":10521,"Ġkarenamu":10522,"Ġhanna":10523,"Ġmimpimu":10524,"Ġpenggunaan":10525,"Ġmenertawakan":10526,"Ġlaksamana":10527,"word":10528,"Ġsumur":10529,"Ġdumb":10530,"Ġpy":10531,"Ġaksen":10532,"alasan":10533,"Ġlance":10534,"Ġjudi":10535,"etapkan":10536,"Ġsipir":10537,"Ġorangku":10538,"Ġdirawat":10539,"Ġpercayai":10540,"cho":10541,"Ġpersamaan":10542,"Ġdiperlakukan":10543,"Ġwei":10544,"Ġbuahnya":10545,"Ġkerjasama":10546,"Ġpramuka":10547,"Ġkediaman":10548,"bel":10549,"iff":10550,"ankan":10551,"Ġsob":10552,"Ġsind":10553,"Ġpaku":10554,"idangan":10555,"Ġdiaw":10556,"Ġwait":10557,"Ġapinya":10558,"Ġberter":10559,"Ġtiff":10560,"Ġsamar":10561,"Ġeditor":10562,"Ġbanding":10563,"Ġmenyerahkannya":10564,"Ġajari":10565,"Ġmemotongnya":10566,"Ġpisang":10567,"Ġmonitor":10568,"Ġmmmhmm":10569,"Ġsuaraku":10570,"Ġmister":10571,"Ġrugi":10572,"Ġhawaii":10573,"Ġscream":10574,"Ġsundal":10575,"Ġkemerdekaan":10576,"lima":10577,"Ġsaid":10578,"Ġpreman":10579,"Ġarjun":10580,"Ġspec":10581,"Ġkatolik":10582,"ichi":10583,"Ġbantuanku":10584,"ombongan":10585,"Ġmenginginkanmu":10586,"izin":10587,"Ġowen":10588,"Ġpasifik":10589,"Ġtanduk":10590,"Ġmenghalang":10591,"Ġparanoid":10592,"Ġkebocoran":10593,"dr":10594,"Ġ000":10595,"Ġtown":10596,"Ġlatih":10597,"Ġjemp":10598,"Ġrandy":10599,"Ġvod":10600,"Ġkeringat":10601,"Ġdibagi":10602,"Ġberkurang":10603,"Ġkomisi":10604,"Ġspencer":10605,"Ġzha":10606,"Ġsken":10607,"Ġjaring":10608,"Ġkonsekuensi":10609,"Ġmenontonnya":10610,"Ġorig":10611,"yatt":10612,"Ġdugaan":10613,"Ġriley":10614,"Ġmenginjak":10615,"Ġkaitannya":10616,"Ġnaluri":10617,"Ġninja":10618,"bola":10619,"kep":10620,"sky":10621,"Ġkauk":10622,"egosiasi":10623,"acita":10624,"Ġbiji":10625,"Ġialah":10626,"Ġbrend":10627,"Ġpolit":10628,"Ġtidurmu":10629,"Ġwhis":10630,"Ġdipukul":10631,"Ġmenaklukkan":10632,"Ġmengawasimu":10633,"Ġsapu":10634,"Ġmenerbangkan":10635,"Ġdoesn":10636,"Ġthompson":10637,"Ġsangka":10638,"Ġakting":10639,"aukan":10640,"elesaikan":10641,"Ġyeh":10642,"Ġlad":10643,"usukan":10644,"usuhan":10645,"Ġmengunyah":10646,"Ġtahta":10647,"Ġwy":10648,"Ġwoman":10649,"Ġwyatt":10650,"ajikan":10651,"Ġprob":10652,"Ġpretty":10653,"Ġkerabat":10654,"Ġpembeli":10655,"Ġsenilai":10656,"Ġditentukan":10657,"Ġtracy":10658,"Ġnyam":10659,"Ġberlawanan":10660,"Ġdipikir":10661,"Ġbenih":10662,"Ġdidep":10663,"Ġpertanyaanku":10664,"Ġgladi":10665,"Ġsantun":10666,"Ġgulungan":10667,"Ġrahasianya":10668,"Ġcompany":10669,"Ġkorbannya":10670,"Ġpucat":10671,"Ġaktris":10672,"18":10673,"25":10674,"eon":10675,"fus":10676,"Ġyen":10677,"Ġjedi":10678,"Ġkearah":10679,"Ġmengarang":10680,"Ġmengac":10681,"ekukan":10682,"Ġmerpati":10683,"Ġohio":10684,"osisi":10685,"Ġbersand":10686,"Ġthr":10687,"Ġmanusi":10688,"umpuhkan":10689,"Ġperson":10690,"Ġkritis":10691,"Ġsulitnya":10692,"Ġpikirkanlah":10693,"Ġmeneleponnya":10694,"Ġulah":10695,"Ġmenyusun":10696,"Ġprivasi":10697,"du":10698,"iu":10699,"Ġemb":10700,"Ġeg":10701,"asme":10702,"Ġberengsek":10703,"Ġperencana":10704,"Ġcukur":10705,"enter":10706,"Ġpengerti":10707,"Ġtidurnya":10708,"Ġkulkas":10709,"Ġlupakanlah":10710,"Ġmenunggunya":10711,"Ġgotham":10712,"Ġbarbie":10713,"Ġkoordinat":10714,"Ġromeo":10715,"Ġsylv":10716,"Ġindividu":10717,"Ġtegas":10718,"arak":10719,"apakah":10720,"Ġler":10721,"Ġlamaku":10722,"idasi":10723,"Ġjd":10724,"irik":10725,"Ġterku":10726,"enaran":10727,"Ġbiologi":10728,"Ġpembaca":10729,"Ġkedalaman":10730,"Ġceria":10731,"Ġmemikirkanmu":10732,"Ġoptim":10733,"Ġmenjemputnya":10734,"tick":10735,"Ġmengalahkanmu":10736,"Ġkesimpulan":10737,"Ġdosis":10738,"Ġpanduan":10739,"Ġinten":10740,"Ġcrix":10741,"esome":10742,"aikanmu":10743,"olakan":10744,"Ġwali":10745,"awati":10746,"ediksi":10747,"ajang":10748,"Ġshot":10749,"Ġfring":10750,"Ġbernegosiasi":10751,"Ġbalasan":10752,"Ġterputus":10753,"Ġmenembakkan":10754,"menerus":10755,"Ġtasku":10756,"Ġmorris":10757,"Ġponselnya":10758,"Ġberesiko":10759,"Ġlenganku":10760,"Ġrahasiamu":10761,"Ġfalls":10762,"Ġinforman":10763,"Ġpsikopat":10764,"Ġsq":10765,"aph":10766,"Ġdijadikan":10767,"Ġhoo":10768,"Ġmemutus":10769,"Ġwa":10770,"Ġbagaiman":10771,"Ġberbulu":10772,"Ġterbaring":10773,"Ġmatilah":10774,"Ġpersimpangan":10775,"Ġemang":10776,"Ġblanc":10777,"Ġrox":10778,"Ġfilmnya":10779,"Ġsyuting":10780,"Ġinstr":10781,"Ġimig":10782,"Ġcolin":10783,"Ġmenyusup":10784,"Ġbiksu":10785,"Ġturner":10786,"Ġmickey":10787,"semua":10788,"Ġrussell":10789,"Ġdikembalikan":10790,"Ġopsir":10791,"Ġafghanistan":10792,"Ġcrixus":10793,"oor":10794,"yi":10795,"Ġkendalikan":10796,"ated":10797,"itaku":10798,"Ġsekuat":10799,"tian":10800,"Ġrans":10801,"Ġnag":10802,"Ġbagusnya":10803,"Ġivan":10804,"iput":10805,"Ġberdir":10806,"Ġmenggod":10807,"Ġbrit":10808,"Ġ37":10809,"Ġklaim":10810,"Ġteam":10811,"Ġkompi":10812,"Ġmengenalinya":10813,"Ġrencanaku":10814,"Ġphilip":10815,"Ġprotes":10816,"Ġtirai":10817,"Ġlagunya":10818,"Ġsometh":10819,"Ġmelewatkannya":10820,"Ġcentral":10821,"Ġwinchester":10822,"Ġmenipuku":10823,"Ġenyahlah":10824,"jana":10825,"tit":10826,"Ġori":10827,"Ġsorak":10828,"Ġbitch":10829,"eling":10830,"Ġhung":10831,"Ġlut":10832,"Ġperah":10833,"Ġmengik":10834,"Ġmerendahkan":10835,"Ġfans":10836,"Ġpras":10837,"Ġvar":10838,"Ġdengarlah":10839,"Ġmuti":10840,"Ġtertua":10841,"Ġkemudi":10842,"Ġkapak":10843,"Ġdeath":10844,"Ġpecinta":10845,"Ġmenjauhkan":10846,"Ġusahakan":10847,"Ġtebakan":10848,"Ġwiski":10849,"Ġgirls":10850,"Ġngerti":10851,"Ġgabriel":10852,"Ġberjagajaga":10853,"Ġsuc":10854,"Ġsikat":10855,"Ġmenandai":10856,"Ġjai":10857,"agak":10858,"Ġteratur":10859,"apian":10860,"embung":10861,"Ġfenom":10862,"Ġkelak":10863,"Ġdirampok":10864,"Ġthing":10865,"Ġberpencar":10866,"oph":10867,"Ġditer":10868,"ugaskan":10869,"Ġpersidangan":10870,"Ġdemons":10871,"Ġkeberh":10872,"Ġdonat":10873,"Ġpernikahanmu":10874,"Ġjarijari":10875,"Ġregina":10876,"Ġpush":10877,"Ġtunggulah":10878,"Ġbubuk":10879,"Ġsorry":10880,"ees":10881,"yarat":10882,"Ġungk":10883,"Ġmode":10884,"Ġtatap":10885,"Ġpanda":10886,"Ġmemimpikan":10887,"Ġkeab":10888,"Ġmelaju":10889,"embali":10890,"oter":10891,"Ġmenghir":10892,"Ġkepiting":10893,"Ġ33":10894,"Ġterusmenerus":10895,"Ġpenyiksaan":10896,"mann":10897,"Ġpendarahan":10898,"Ġgerob":10899,"Ġbla":10900,"Ġbiarlah":10901,"Ġsalin":10902,"Ġpemerkosa":10903,"Ġrobek":10904,"Ġmahi":10905,"Ġsepatumu":10906,"Ġgeneral":10907,"Ġgerbangnya":10908,"Ġmerayakannya":10909,"ding":10910,"rogen":10911,"Ġbata":10912,"Ġdias":10913,"Ġseen":10914,"Ġhil":10915,"Ġjurang":10916,"Ġgatal":10917,"Ġsemak":10918,"awak":10919,"Ġchu":10920,"Ġmenemani":10921,"ipulasi":10922,"Ġpetr":10923,"tro":10924,"Ġabaikan":10925,"Ġmenjatuhkannya":10926,"ylla":10927,"Ġwallace":10928,"Ġvalentine":10929,"down":10930,"sum":10931,"Ġtut":10932,"aton":10933,"Ġhant":10934,"Ġlud":10935,"Ġlimb":10936,"idt":10937,"Ġperry":10938,"Ġrot":10939,"andakan":10940,"sion":10941,"Ġbungkus":10942,"Ġscylla":10943,"Ġisyarat":10944,"Ġdihitung":10945,"Ġkesalahanmu":10946,"Ġ900":10947,"Ġmacan":10948,"Ġmengantarnya":10949,"Ġsulap":10950,"Ġmerayu":10951,"Ġlunak":10952,"Ġranger":10953,"ful":10954,"enue":10955,"Ġmenengg":10956,"eline":10957,"Ġmengul":10958,"Ġrhea":10959,"Ġwinter":10960,"pers":10961,"Ġmendeteksi":10962,"Ġberpegang":10963,"Ġasy":10964,"Ġberkalikali":10965,"Ġditetapkan":10966,"Ġsuz":10967,"Ġzat":10968,"Ġmemerangi":10969,"ombolan":10970,"Ġbosmu":10971,"Ġamerica":10972,"Ġkesalahp":10973,"Ġtokoh":10974,"Ġnewton":10975,"Ġflet":10976,"Ġbusur":10977,"Ġjantungmu":10978,"Ġpedangnya":10979,"Ġbroad":10980,"Ġapartemennya":10981,"Ġjules":10982,"Ġkerjaku":10983,"Ġkatakataku":10984,"Ġargumen":10985,"Ġshanghai":10986,"Ġpembersih":10987,"Ġmenumpahkan":10988,"Ġanthony":10989,"Ġdvd":10990,"mend":10991,"aper":10992,"Ġdiingat":10993,"Ġkaupikir":10994,"Ġdiab":10995,"Ġterri":10996,"Ġreh":10997,"ulihkan":10998,"ampas":10999,"egahan":11000,"Ġdisayangkan":11001,"Ġketegangan":11002,"Ġmenghak":11003,"Ġbarnes":11004,"Ġvel":11005,"Ġdimainkan":11006,"Ġditangani":11007,"naan":11008,"Ġ38":11009,"Ġutamanya":11010,"Ġumm":11011,"Ġzoe":11012,"Ġelean":11013,"Ġbeasiswa":11014,"Ġribut":11015,"Ġmenyimpulkan":11016,"Ġkarunia":11017,"Ġgym":11018,"Ġadrenal":11019,"Ġberkonsentrasi":11020,"alo":11021,"Ġbiskuit":11022,"Ġberkemah":11023,"Ġbayiku":11024,"Ġnegosiasi":11025,"Ġsilver":11026,"Ġdidunia":11027,"Ġscr":11028,"berb":11029,"Ġgagah":11030,"Ġloker":11031,"aza":11032,"Ġiris":11033,"Ġlandasan":11034,"Ġhipot":11035,"Ġpenguin":11036,"wajah":11037,"Ġrapuh":11038,"Ġmiranda":11039,"Ġkesukaanku":11040,"Ġatmosfer":11041,"Ġberterimakasih":11042,"Ġskenario":11043,"Ġkesalahpahaman":11044,"Ġeleanor":11045,"uu":11046,"akum":11047,"enzo":11048,"Ġdigigit":11049,"Ġlahan":11050,"ilis":11051,"agh":11052,"Ġgali":11053,"Ġtetangg":11054,"Ġscar":11055,"Ġmeth":11056,"Ġmengkonfirmasi":11057,"tivasi":11058,"film":11059,"Ġmenanggapi":11060,"Ġzhao":11061,"kon":11062,"uel":11063,"Ġdatar":11064,"Ġmenengah":11065,"Ġberatnya":11066,"Ġsemula":11067,"Ġketempat":11068,"Ġbius":11069,"Ġchand":11070,"Ġtersentuh":11071,"Ġdilepaskan":11072,"Ġkuketahui":11073,"ijinkan":11074,"Ġ120":11075,"Ġditud":11076,"Ġmenerus":11077,"count":11078,"Ġtelingaku":11079,"Ġdiskusi":11080,"Ġmenggelikan":11081,"Ġlengannya":11082,"Ġvirgil":11083,"Ġmenebus":11084,"Ġmerusaknya":11085,"Ġjup":11086,"Ġfind":11087,"Ġpengambil":11088,"Ġberman":11089,"Ġceritamu":11090,"ejaran":11091,"oven":11092,"Ġsekitarnya":11093,"Ġsamurai":11094,"Ġomar":11095,"Ġskot":11096,"Ġjade":11097,"Ġmengaturnya":11098,"self":11099,"Ġcapek":11100,"Ġmenjemputku":11101,"Ġgigit":11102,"Ġmenunjukkannya":11103,"Ġtatapan":11104,"Ġherbie":11105,"Ġproduser":11106,"Ġmematamatai":11107,"Ġsku":11108,"Ġbuj":11109,"Ġbomb":11110,"Ġakunt":11111,"Ġakhiri":11112,"Ġmengakhir":11113,"Ġraf":11114,"Ġsesekali":11115,"Ġmencair":11116,"osal":11117,"Ġpensil":11118,"angkau":11119,"Ġjalani":11120,"ugo":11121,"Ġfrost":11122,"Ġpenjag":11123,"Ġindones":11124,"Ġutusan":11125,"Ġanjali":11126,"Ġbergetar":11127,"Ġsendirinya":11128,"Ġerik":11129,"Ġskitter":11130,"Ġmenyesali":11131,"Ġjared":11132,"lish":11133,"Ġbersenangsenanglah":11134,"minum":11135,"Ġlogan":11136,"Ġavenue":11137,"Ġartie":11138,"Ġgangster":11139,"Ġnovember":11140,"Ġsuntikan":11141,"Ġkeretanya":11142,"Ġkalkun":11143,"Ġmolekul":11144,"rup":11145,"Ġbati":11146,"arannya":11147,"Ġjr":11148,"Ġkean":11149,"ilikan":11150,"Ġrer":11151,"egr":11152,"Ġpenghal":11153,"ucap":11154,"Ġserv":11155,"Ġspeed":11156,"Ġberjudi":11157,"Ġroland":11158,"Ġmengecewakanmu":11159,"Ġzhang":11160,"Ġpembalasan":11161,"Ġmengendalikannya":11162,"Ġadminist":11163,"Ġvodka":11164,"47":11165,"egi":11166,"Ġkantung":11167,"Ġbody":11168,"Ġinj":11169,"Ġberab":11170,"Ġrata":11171,"Ġganj":11172,"Ġnig":11173,"Ġmenyusah":11174,"Ġfatal":11175,"Ġatasi":11176,"Ġpeneb":11177,"Ġkeluarnya":11178,"Ġmenjahit":11179,"ĠĠĠĠ":11180,"Ġ31":11181,"engkak":11182,"Ġwarnanya":11183,"Ġgilbert":11184,"Ġaction":11185,"Ġmengerjakannya":11186,"Ġsultan":11187,"sieur":11188,"Ġnolan":11189,"membuat":11190,"Ġdinyatakan":11191,"200":11192,"ainya":11193,"bad":11194,"hne":11195,"lain":11196,"Ġbala":11197,"Ġpand":11198,"Ġantr":11199,"Ġcah":11200,"Ġterancam":11201,"Ġharam":11202,"Ġpasta":11203,"Ġtroy":11204,"Ġsookie":11205,"Ġanakanakmu":11206,"Ġ43":11207,"Ġbeta":11208,"Ġkekais":11209,"oyles":11210,"Ġrest":11211,"Ġpuluhan":11212,"Ġjeritan":11213,"Ġhadiahnya":11214,"Ġmenyusuri":11215,"Ġmikey":11216,"viet":11217,"Ġsajalah":11218,"Ġkekaisaran":11219,"buat":11220,"basi":11221,"Ġdall":11222,"Ġdpt":11223,"Ġtonton":11224,"Ġakun":11225,"Ġdiw":11226,"Ġjoker":11227,"Ġmematikannya":11228,"umsikan":11229,"alaminya":11230,"egara":11231,"egera":11232,"Ġformasi":11233,"Ġbahawa":11234,"edih":11235,"Ġkepan":11236,"Ġching":11237,"Ġbangunkan":11238,"Ġtouch":11239,"Ġblake":11240,"Ġposter":11241,"Ġperkara":11242,"Ġgagak":11243,"Ġpahami":11244,"Ġmenerj":11245,"ekutif":11246,"Ġbomnya":11247,"Ġmemperkosa":11248,"Ġdekade":11249,"Ġdemokrasi":11250,"Ġcrazy":11251,"bau":11252,"oom":11253,"tahun":11254,"Ġukur":11255,"Ġpud":11256,"Ġhorn":11257,"Ġlan":11258,"Ġberkah":11259,"gaji":11260,"Ġkecanduan":11261,"Ġdibeli":11262,"Ġsoviet":11263,"Ġemil":11264,"Ġbosku":11265,"Ġperkasa":11266,"Ġmundurlah":11267,"Ġbour":11268,"Ġmemerlukannya":11269,"Ġpembalap":11270,"Ġsinggah":11271,"banyak":11272,"burn":11273,"akup":11274,"Ġkiss":11275,"Ġdh":11276,"Ġpangkat":11277,"adar":11278,"Ġhav":11279,"idana":11280,"Ġmenggerakkan":11281,"pernah":11282,"Ġpenakut":11283,"Ġmenghantu":11284,"Ġpastor":11285,"Ġkebangk":11286,"Ġgadisku":11287,"ovan":11288,"Ġeug":11289,"Ġdoktor":11290,"Ġkumis":11291,"Ġdekatnya":11292,"Ġabs":11293,"Ġblood":11294,"Ġedgar":11295,"Ġpernikahanku":11296,"Ġusus":11297,"Ġgeorgia":11298,"Ġmenelponku":11299,"phone":11300,"Ġperutnya":11301,"Ġsonia":11302,"indai":11303,"Ġcabul":11304,"Ġterimalah":11305,"Ġuk":11306,"Ġill":11307,"Ġpaduka":11308,"intik":11309,"Ġapol":11310,"ampar":11311,"eping":11312,"Ġpenerj":11313,"Ġberturut":11314,"Ġmalamnya":11315,"Ġstone":11316,"Ġtersangkut":11317,"Ġperjalananmu":11318,"Ġisab":11319,"Ġskip":11320,"Ġtabungan":11321,"Ġlemparan":11322,"Ġjanjiku":11323,"Ġisaac":11324,"Ġstifler":11325,"Ġskotlandia":11326,"Ġeb":11327,"Ġord":11328,"Ġsb":11329,"Ġtingkah":11330,"ague":11331,"Ġface":11332,"aji":11333,"Ġkalel":11334,"odi":11335,"ipkan":11336,"Ġmendapatkanmu":11337,"Ġpesona":11338,"Ġolehku":11339,"Ġplace":11340,"wanita":11341,"Ġpenghormatan":11342,"Ġmemegangnya":11343,"Ġmembawakanmu":11344,"Ġskyler":11345,"Ġfiona":11346,"Ġkenyamanan":11347,"Ġrompi":11348,"Ġmelacaknya":11349,"Ġsosis":11350,"Ġdiusir":11351,"Ġlink":11352,"Ġjazz":11353,"Ġjenggot":11354,"Ġmembimbing":11355,"edy":11356,"angkatan":11357,"encil":11358,"Ġpintas":11359,"Ġclar":11360,"Ġbetter":11361,"angkanya":11362,"Ġmemeras":11363,"Ġindahnya":11364,"Ġswedia":11365,"Ġiron":11366,"Ġmonsieur":11367,"Ġmengangkatnya":11368,"Ġmenakutiku":11369,"Ġlenganmu":11370,"Ġatlanta":11371,"Ġbatiatus":11372,"donald":11373,"uy":11374,"apung":11375,"Ġdieks":11376,"Ġmenid":11377,"Ġyuan":11378,"iris":11379,"Ġcanggung":11380,"awal":11381,"ucian":11382,"Ġditandai":11383,"Ġaround":11384,"Ġkapankapan":11385,"Ġmili":11386,"Ġalasanmu":11387,"arge":11388,"Ġpakaiannya":11389,"gabungkan":11390,"erty":11391,"Ġeksekutif":11392,"Ġpecahan":11393,"Ġdijaga":11394,"Ġbekerjasama":11395,"Ġskandal":11396,"aktif":11397,"Ġbail":11398,"amatan":11399,"Ġmengizin":11400,"uminggu":11401,"Ġgim":11402,"Ġsekumpulan":11403,"oka":11404,"Ġkarl":11405,"Ġpengenal":11406,"evan":11407,"Ġspons":11408,"Ġobrol":11409,"Ġdihad":11410,"Ġerin":11411,"Ġbase":11412,"Ġcolumb":11413,"Ġjulian":11414,"Ġsunny":11415,"Ġastronot":11416,"Ġpijat":11417,"gins":11418,"nu":11419,"panjang":11420,"tain":11421,"Ġmoh":11422,"Ġjump":11423,"Ġperairan":11424,"ekatan":11425,"Ġrac":11426,"Ġramb":11427,"umahan":11428,"Ġmeracuni":11429,"Ġmenyemp":11430,"ibatan":11431,"Ġmencukur":11432,"Ġmencekik":11433,"Ġchann":11434,"Ġpembuka":11435,"Ġminat":11436,"Ġkhal":11437,"ejarah":11438,"Ġdipel":11439,"Ġspeak":11440,"Ġcarly":11441,"Ġbeach":11442,"Ġmengirimkannya":11443,"Ġpanggilkan":11444,"Ġterpencil":11445,"Ġkonspirasi":11446,"ongkrong":11447,"Ġotakku":11448,"Ġbakalan":11449,"aaaa":11450,"ografer":11451,"Ġwhitney":11452,"Ġdikubur":11453,"Ġseoul":11454,"mudahan":11455,"icipi":11456,"Ġjupiter":11457,"Ġbelahan":11458,"Ġpit":11459,"Ġdiandalkan":11460,"Ġhore":11461,"Ġmemand":11462,"Ġmengukur":11463,"Ġmembohong":11464,"otot":11465,"Ġbiayanya":11466,"Ġmenjilat":11467,"Ġbroyles":11468,"ogan":11469,"Ġreed":11470,"Ġabr":11471,"Ġdetil":11472,"Ġ195":11473,"Ġorganik":11474,"Ġhidungmu":11475,"Ġtradisional":11476,"bahwa":11477,"Ġnazir":11478,"Ġmcgee":11479,"Ġpembangunan":11480,"Ġmumbai":11481,"Ġbersungguhsungguh":11482,"Ġlintasan":11483,"Ġkejujuran":11484,"Ġgerobak":11485,"hak":11486,"hentikan":11487,"kem":11488,"Ġmenant":11489,"Ġterungkap":11490,"oney":11491,"Ġnongkrong":11492,"Ġselai":11493,"Ġapple":11494,"Ġkelebihan":11495,"Ġkard":11496,"Ġtetes":11497,"ulangi":11498,"Ġkurakura":11499,"Ġspark":11500,"Ġblow":11501,"Ġdigantung":11502,"Ġflat":11503,"Ġimut":11504,"Ġbaker":11505,"Ġmenghajarmu":11506,"Ġbrooklyn":11507,"Ġkursus":11508,"Ġconst":11509,"Ġkhayalan":11510,"Ġberdirilah":11511,"kap":11512,"Ġic":11513,"Ġtoh":11514,"elawan":11515,"Ġcair":11516,"ekah":11517,"tiup":11518,"Ġgall":11519,"ayo":11520,"ingguminggu":11521,"Ġbarney":11522,"Ġpemul":11523,"ilainya":11524,"Ġshag":11525,"Ġagent":11526,"Ġterbaikmu":11527,"Ġlucifer":11528,"Ġkekej":11529,"Ġmudahmudahan":11530,"Ġuni":11531,"Ġoffic":11532,"Ġriset":11533,"Ġamatir":11534,"Ġkebijaksanaan":11535,"Ġastrid":11536,"Ġskuad":11537,"fiah":11538,"ipat":11539,"nia":11540,"Ġtitan":11541,"alisa":11542,"apapun":11543,"Ġkedai":11544,"Ġmered":11545,"Ġmelayan":11546,"ebye":11547,"Ġselokan":11548,"Ġfa":11549,"Ġatt":11550,"Ġpeningkatan":11551,"Ġbelati":11552,"Ġmemberkat":11553,"Ġpertengk":11554,"Ġsenat":11555,"under":11556,"Ġdikonfirmasi":11557,"Ġseharihari":11558,"Ġawesome":11559,"usif":11560,"Ġmenutupnya":11561,"Ġkayaknya":11562,"Ġschool":11563,"Ġkuperiksa":11564,"Ġluthorcorp":11565,"Ġpassword":11566,"Ġdiperkirakan":11567,"Ġeagle":11568,"Ġnaif":11569,"fle":11570,"xi":11571,"Ġmutan":11572,"Ġbam":11573,"Ġbai":11574,"adari":11575,"Ġhobi":11576,"Ġlac":11577,"Ġteringat":11578,"okasi":11579,"Ġtahunmu":11580,"Ġkebis":11581,"Ġtrop":11582,"Ġpersegi":11583,"Ġspid":11584,"Ġkukirim":11585,"Ġrefl":11586,"Ġwarren":11587,"Ġlembar":11588,"zzie":11589,"Ġpunggungnya":11590,"Ġterminal":11591,"Ġantonio":11592,"Ġaaah":11593,"Ġanalisis":11594,"Ġschmidt":11595,"60":11596,"Ġungu":11597,"Ġtog":11598,"Ġdiubah":11599,"Ġmengay":11600,"Ġcandy":11601,"Ġteresa":11602,"urg":11603,"Ġov":11604,"Ġnex":11605,"ether":11606,"Ġsempr":11607,"upan":11608,"Ġfal":11609,"Ġpakailah":11610,"Ġpelt":11611,"Ġ55":11612,"Ġeuro":11613,"Ġdiduga":11614,"Ġgelembung":11615,"Ġ72":11616,"Ġleluhur":11617,"Ġdelhi":11618,"Ġsubtit":11619,"Ġmendorongnya":11620,"Ġbangkok":11621,"Ġmengingatkanmu":11622,"Ġketerlibatan":11623,"Ġbartowski":11624,"Ġpredator":11625,"Ġdiplom":11626,"Ġterkubur":11627,"Ġmack":11628,"amel":11629,"iho":11630,"Ġterjual":11631,"Ġwew":11632,"Ġpemegang":11633,"Ġdikunci":11634,"uruskan":11635,"Ġear":11636,"Ġdidapat":11637,"Ġsitulah":11638,"Ġernie":11639,"Ġkudapat":11640,"Ġboot":11641,"Ġbergabunglah":11642,"satu":11643,"Ġmonica":11644,"melihat":11645,"Ġkawasan":11646,"Ġmenggertak":11647,"Ġsummer":11648,"Ġdiajarkan":11649,"onggong":11650,"Ġkepemilikan":11651,"Ġpeople":11652,"Ġnurani":11653,"Ġnamanama":11654,"Ġkeabadian":11655,"mir":11656,"pagi":11657,"Ġpick":11658,"Ġberitahukan":11659,"untuhan":11660,"Ġgump":11661,"etas":11662,"giving":11663,"Ġtemp":11664,"Ġpengamatan":11665,"Ġsetinggi":11666,"Ġvari":11667,"Ġmusisi":11668,"Ġpedro":11669,"oyle":11670,"Ġmembantah":11671,"Ġups":11672,"ensinya":11673,"Ġalicia":11674,"Ġdaphne":11675,"Ġberbaliklah":11676,"Ġmeminjamkan":11677,"Ġdijalankan":11678,"Ġpenasihat":11679,"Ġlloyd":11680,"Ġsheldon":11681,"Ġviktor":11682,"Ġbergairah":11683,"Ġhrs":11684,"Ġparuparu":11685,"Ġbrittany":11686,"Ġseattle":11687,"cat":11688,"hay":11689,"ako":11690,"Ġtul":11691,"innya":11692,"Ġseiring":11693,"Ġhag":11694,"Ġwiz":11695,"Ġkargo":11696,"Ġbest":11697,"Ġamarah":11698,"ajarinya":11699,"Ġzod":11700,"Ġresimen":11701,"Ġstrip":11702,"Ġkusarankan":11703,"Ġpiram":11704,"Ġpinggiran":11705,"Ġlenny":11706,"Ġdiadakan":11707,"Ġcakap":11708,"Ġmenimpa":11709,"Ġsantiago":11710,"kop":11711,"lalu":11712,"pin":11713,"zu":11714,"aker":11715,"anger":11716,"Ġmenawar":11717,"Ġakutidak":11718,"Ġjuan":11719,"Ġmengobati":11720,"Ġcand":11721,"ingham":11722,"Ġranj":11723,"Ġginj":11724,"Ġwing":11725,"abik":11726,"Ġshad":11727,"Ġpest":11728,"Ġyakinkan":11729,"Ġnyany":11730,"Ġpersel":11731,"Ġmarilah":11732,"Ġterpesona":11733,"Ġmendengarkanmu":11734,"Ġpopulasi":11735,"Ġcurtis":11736,"Ġdatab":11737,"Ġkehadir":11738,"Ġsukarelawan":11739,"Ġdefin":11740,"Ġdorothy":11741,"Ġmengakhirinya":11742,"eau":11743,"nnya":11744,"sang":11745,"Ġmang":11746,"Ġsni":11747,"Ġpoker":11748,"elpon":11749,"Ġperban":11750,"uragu":11751,"Ġoak":11752,"Ġpenenang":11753,"Ġkenalkan":11754,"Ġketik":11755,"Ġkesayangan":11756,"Ġserum":11757,"Ġserge":11758,"Ġshakes":11759,"Ġdepos":11760,"Ġdikurung":11761,"Ġsound":11762,"uriga":11763,"Ġteor":11764,"Ġisu":11765,"Ġwilly":11766,"Ġboog":11767,"Ġkeputusanmu":11768,"Ġtindak":11769,"Ġmembakarnya":11770,"Ġeverything":11771,"Ġusianya":11772,"Ġjendelanya":11773,"Ġmutiara":11774,"bb":11775,"suk":11776,"Ġjol":11777,"usuri":11778,"Ġog":11779,"Ġmelun":11780,"Ġdatangnya":11781,"Ġarwah":11782,"Ġcarla":11783,"Ġuhuh":11784,"Ġbercakap":11785,"Ġdipers":11786,"Ġsalv":11787,"Ġbyebye":11788,"Ġtasmu":11789,"Ġgene":11790,"Ġmomma":11791,"Ġlukis":11792,"Ġtenis":11793,"Ġrohan":11794,"Ġledakkan":11795,"Ġponselmu":11796,"Ġlegend":11797,"Ġperingatkan":11798,"Ġpamer":11799,"Ġgabe":11800,"Ġmencurigai":11801,"Ġgandum":11802,"Ġhunter":11803,"Ġalaska":11804,"Ġjempol":11805,"bot":11806,"Ġpig":11807,"Ġmeniru":11808,"Ġmengev":11809,"Ġmengalaminya":11810,"ampai":11811,"Ġsesuk":11812,"Ġchick":11813,"Ġiv":11814,"Ġtidurku":11815,"Ġorangorangmu":11816,"Ġreuni":11817,"Ġanjingku":11818,"Ġombak":11819,"Ġbiarawati":11820,"Ġski":11821,"enggut":11822,"Ġmahir":11823,"Ġnasehat":11824,"Ġcurian":11825,"Ġtalinya":11826,"Ġorangtuanya":11827,"Ġveget":11828,"Ġpenghalang":11829,"turut":11830,"Ġsod":11831,"Ġseung":11832,"Ġseimbang":11833,"orkan":11834,"Ġmertua":11835,"ebol":11836,"Ġfitz":11837,"Ġterbentuk":11838,"Ġpembakaran":11839,"Ġdilupakan":11840,"oci":11841,"Ġloyal":11842,"Ġclarke":11843,"Ġsadari":11844,"Ġeksekusi":11845,"Ġmeneruskan":11846,"Ġrosie":11847,"Ġkesepakatannya":11848,"Ġkentut":11849,"Ġmelepaskanmu":11850,"zzy":11851,"Ġgiginya":11852,"Ġinternal":11853,"Ġditaw":11854,"Ġunta":11855,"Ġsemenit":11856,"Ġgladiator":11857,"Ġdallas":11858,"sara":11859,"uf":11860,"Ġdoo":11861,"adw":11862,"Ġhoki":11863,"isma":11864,"Ġperumahan":11865,"Ġpadam":11866,"ajaran":11867,"Ġpertumb":11868,"Ġtrail":11869,"Ġteliti":11870,"Ġolehnya":11871,"Ġspl":11872,"Ġlapis":11873,"Ġjaraknya":11874,"atural":11875,"Ġkadal":11876,"Ġdino":11877,"Ġkemampuannya":11878,"Ġlarilah":11879,"Ġklienku":11880,"Ġthanksgiving":11881,"Ġlockwood":11882,"Ġraguragu":11883,"Ġdexter":11884,"Ġbruno":11885,"Ġmerepotkan":11886,"Ġoriginal":11887,"Ġpolitisi":11888,"stone":11889,"Ġember":11890,"Ġmorn":11891,"Ġtill":11892,"ating":11893,"Ġdiijinkan":11894,"Ġlekas":11895,"engek":11896,"Ġmengor":11897,"Ġcoc":11898,"Ġseperempat":11899,"egarkan":11900,"Ġmine":11901,"Ġterkek":11902,"Ġanggaran":11903,"Ġroos":11904,"Ġpenghubung":11905,"Ġbasis":11906,"Ġparade":11907,"Ġmaxim":11908,"Ġmewawanc":11909,"Ġlouise":11910,"Ġgetaran":11911,"Ġturki":11912,"Ġtegak":11913,"mencapai":11914,"Ġspring":11915,"Ġjorel":11916,"Ġbersandar":11917,"Ġpertengkaran":11918,"zah":11919,"Ġmosk":11920,"Ġdiaktifkan":11921,"Ġmenidur":11922,"Ġlomba":11923,"orsi":11924,"Ġnir":11925,"Ġnev":11926,"Ġwasi":11927,"Ġmasker":11928,"Ġprith":11929,"Ġdisukai":11930,"Ġmenjadikannya":11931,"Ġditandatangani":11932,"Ġdiputuskan":11933,"Ġanting":11934,"Ġgelanggang":11935,"Ġjern":11936,"Ġkolom":11937,"Ġrekamannya":11938,"Ġkulitnya":11939,"Ġkiriman":11940,"Ġaccount":11941,"Ġturis":11942,"Ġaustin":11943,"Ġkodenya":11944,"Ġsiklus":11945,"Ġwajib":11946,"Ġsesuatunya":11947,"Ġasyik":11948,"cl":11949,"idat":11950,"Ġmemuj":11951,"Ġnaina":11952,"angkit":11953,"Ġpertunangan":11954,"Ġkecuriga":11955,"Ġberkulit":11956,"Ġkotaknya":11957,"Ġhilangnya":11958,"Ġletak":11959,"berh":11960,"Ġsepatah":11961,"Ġforce":11962,"Ġbass":11963,"Ġreput":11964,"Ġmagang":11965,"Ġmengantarku":11966,"Ġdebbie":11967,"Ġmempelajarinya":11968,"Ġwilliams":11969,"Ġraih":11970,"Ġbokongku":11971,"Ġpsikologi":11972,"Ġkebersihan":11973,"Ġpengertian":11974,"iya":11975,"Ġug":11976,"Ġblah":11977,"Ġpuck":11978,"alat":11979,"Ġmemuji":11980,"Ġdiajak":11981,"Ġciptakan":11982,"Ġmembal":11983,"aluasi":11984,"Ġkansas":11985,"Ġburuh":11986,"Ġmual":11987,"Ġ39":11988,"Ġdidorong":11989,"Ġpatri":11990,"Ġdicatat":11991,"Ġpercuma":11992,"Ġsupern":11993,"press":11994,"Ġraymond":11995,"Ġkerusuhan":11996,"truktur":11997,"Ġgriffin":11998,"Ġsosok":11999,"Ġtinta":12000,"Ġdiikat":12001,"ikm":12002,"iket":12003,"Ġsav":12004,"Ġmerugi":12005,"Ġtahulah":12006,"Ġalfred":12007,"Ġkebaikanmu":12008,"Ġpeleton":12009,"Ġolehmu":12010,"Ġbodohnya":12011,"Ġemm":12012,"Ġgerakkan":12013,"Ġmakna":12014,"Ġdicur":12015,"Ġquar":12016,"Ġforrest":12017,"Ġpopok":12018,"Ġterserahlah":12019,"zzo":12020,"Ġperasaannya":12021,"Ġintim":12022,"Ġcontrol":12023,"erlang":12024,"Ġmemperingatkanmu":12025,"Ġmenjebakku":12026,"Ġeugene":12027,"Ġapollo":12028,"Ġberturutturut":12029,"35":12030,"zar":12031,"Ġtin":12032,"Ġtuna":12033,"Ġrico":12034,"muda":12035,"ento":12036,"Ġyaya":12037,"ibal":12038,"Ġpenungg":12039,"Ġkesi":12040,"Ġserver":12041,"Ġdibiarkan":12042,"Ġjalanmu":12043,"ormal":12044,"Ġpendingin":12045,"Ġperjalanannya":12046,"Ġmembayarku":12047,"Ġamber":12048,"Ġiklim":12049,"pres":12050,"Ġpipis":12051,"adabad":12052,"Ġloteng":12053,"Ġpengacaraku":12054,"Ġmekar":12055,"benda":12056,"pot":12057,"rum":12058,"wara":12059,"Ġdot":12060,"ident":12061,"Ġjut":12062,"engaja":12063,"Ġkamulah":12064,"Ġgum":12065,"olin":12066,"Ġkerdil":12067,"Ġkuakui":12068,"Ġserupa":12069,"Ġstok":12070,"Ġbrain":12071,"Ġburke":12072,"chan":12073,"Ġpermasalah":12074,"Ġkubayangkan":12075,"Ġminumminum":12076,"Ġkrish":12077,"Ġleft":12078,"Ġkutinggalkan":12079,"Ġdidekat":12080,"Ġopera":12081,"Ġcolor":12082,"Ġcintanya":12083,"Ġkematianmu":12084,"Ġhambatan":12085,"Ġgretchen":12086,"Ġberabadabad":12087,"Ġofficer":12088,"Ġiran":12089,"isolasi":12090,"agnet":12091,"Ġnapi":12092,"Ġwish":12093,"endahan":12094,"Ġtemper":12095,"Ġdisinilah":12096,"0000":12097,"Ġstate":12098,"Ġpelangi":12099,"Ġpemalu":12100,"Ġdeputi":12101,"Ġmate":12102,"Ġtikungan":12103,"Ġphant":12104,"Ġmade":12105,"Ġdadanya":12106,"Ġsarjana":12107,"Ġjagalah":12108,"burung":12109,"Ġperbuatanmu":12110,"Ġunder":12111,"Ġmemaksamu":12112,"Ġlompatan":12113,"Ġcenter":12114,"Ġproposal":12115,"Ġfenomena":12116,"Ġchannel":12117,"Ġdatabase":12118,"yan":12119,"zal":12120,"Ġmort":12121,"Ġhus":12122,"Ġjanjikan":12123,"Ġmemad":12124,"Ġperoleh":12125,"Ġgann":12126,"aye":12127,"Ġwaf":12128,"Ġsekilas":12129,"Ġmastur":12130,"Ġpake":12131,"Ġberpendapat":12132,"Ġteles":12133,"arkir":12134,"Ġzack":12135,"Ġbajuku":12136,"Ġarahnya":12137,"Ġinterogasi":12138,"Ġinvasi":12139,"Ġhidungnya":12140,"Ġrelevan":12141,"Ġrodrig":12142,"Ġvicki":12143,"Ġkeponakanku":12144,"Ġlauren":12145,"Ġterengahengah":12146,"Ġdituduh":12147,"bag":12148,"bian":12149,"gia":12150,"ias":12151,"tus":12152,"Ġtusuk":12153,"Ġjav":12154,"iliar":12155,"Ġcm":12156,"Ġnarap":12157,"Ġmeluncurkan":12158,"Ġaver":12159,"Ġmenjeng":12160,"Ġditipu":12161,"Ġtersandung":12162,"Ġkedengaran":12163,"Ġbennet":12164,"Ġdokum":12165,"Ġkukerjakan":12166,"Ġbatasan":12167,"Ġdiganti":12168,"Ġsukacita":12169,"Ġponselku":12170,"Ġjuliet":12171,"aughn":12172,"Ġtergelincir":12173,"Ġbrankas":12174,"Ġtiffany":12175,"Ġfletcher":12176,"Ġkebisingan":12177,"Ġmoskow":12178,"ls":12179,"arnya":12180,"Ġpahit":12181,"Ġhump":12182,"Ġjg":12183,"Ġmengangg":12184,"ime":12185,"obrak":12186,"Ġkesuk":12187,"Ġalways":12188,"Ġmengerang":12189,"Ġpemikir":12190,"Ġtersanjung":12191,"Ġisteri":12192,"Ġgraham":12193,"Ġspock":12194,"Ġbernie":12195,"Ġdaily":12196,"ewaan":12197,"Ġphoto":12198,"Ġpecahkan":12199,"Ġpedangmu":12200,"Ġmanajemen":12201,"Ġsikapmu":12202,"Ġpenjelajah":12203,"pedo":12204,"Ġkonsultan":12205,"Ġpewaris":12206,"Ġsomething":12207,"Ġpetrelli":12208,"Ġobrolan":12209,"sch":12210,"uff":12211,"wujud":12212,"Ġbann":12213,"Ġmengintai":12214,"Ġcetakan":12215,"Ġrongs":12216,"Ġgeser":12217,"Ġganas":12218,"Ġnonan":12219,"Ġmelumpuhkan":12220,"Ġwujud":12221,"entak":12222,"otret":12223,"omo":12224,"Ġdimatikan":12225,"Ġtre":12226,"ormon":12227,"Ġtenangkan":12228,"Ġkath":12229,"Ġantusi":12230,"Ġanehnya":12231,"Ġdarcy":12232,"adaptasi":12233,"Ġdouble":12234,"Ġjariku":12235,"Ġsembarangan":12236,"Ġtruknya":12237,"Ġpaula":12238,"Ġpaulus":12239,"Ġpemberian":12240,"Ġaktifkan":12241,"Ġtorpedo":12242,"Ġbecanda":12243,"Ġtampilkan":12244,"Ġperkataanmu":12245,"Ġlicin":12246,"Ġpenyembuhan":12247,"Ġmenjelajahi":12248,"Ġkekhawatiran":12249,"Ġstephen":12250,"Ġkeberhasilan":12251,"Ġnarapidana":12252,"24":12253,"yon":12254,"Ġkg":12255,"ador":12256,"Ġlya":12257,"Ġlast":12258,"Ġrasional":12259,"Ġnad":12260,"Ġnim":12261,"Ġkelew":12262,"ians":12263,"Ġbertek":12264,"Ġstik":12265,"Ġkeham":12266,"ector":12267,"Ġsayangi":12268,"Ġsharon":12269,"Ġpesannya":12270,"Ġkuba":12271,"Ġargh":12272,"Ġrekanku":12273,"iva":12274,"Ġbef":12275,"Ġobor":12276,"Ġobsesi":12277,"Ġdihargai":12278,"Ġterdiri":12279,"Ġangie":12280,"Ġmandy":12281,"Ġsaudariku":12282,"ashion":12283,"Ġlembur":12284,"Ġlabu":12285,"Ġleherku":12286,"Ġpenampungan":12287,"Ġlyn":12288,"Ġpembuatan":12289,"Ġkartunya":12290,"Ġkafe":12291,"Ġcemerlang":12292,"Ġisteriku":12293,"Ġstiles":12294,"Ġransel":12295,"hum":12296,"rumah":12297,"Ġsanj":12298,"Ġsaksikan":12299,"Ġtos":12300,"emasan":12301,"Ġhuang":12302,"usta":12303,"onia":12304,"Ġmembedakan":12305,"Ġrio":12306,"Ġnuh":12307,"Ġkarung":12308,"Ġdisiksa":12309,"Ġpasokan":12310,"Ġalv":12311,"siapa":12312,"Ġberpac":12313,"Ġstew":12314,"akiti":12315,"Ġshen":12316,"Ġtraktir":12317,"Ġpedas":12318,"Ġcarmen":12319,"Ġpanen":12320,"Ġbernard":12321,"Ġperintahnya":12322,"menj":12323,"Ġsimpati":12324,"Ġinto":12325,"Ġshifu":12326,"Ġnonanona":12327,"Ġdup":12328,"Ġmenod":12329,"Ġakupun":12330,"Ġsei":12331,"elih":12332,"Ġmeriah":12333,"Ġoz":12334,"Ġharfiah":12335,"Ġbersedih":12336,"Ġberhar":12337,"Ġpaskah":12338,"Ġseth":12339,"Ġstay":12340,"Ġpemas":12341,"Ġbra":12342,"Ġpolis":12343,"Ġdikutuk":12344,",,,,":12345,"Ġklik":12346,"Ġbergoyang":12347,"Ġisn":12348,"Ġposisinya":12349,"Ġmendengarkannya":12350,"ifat":12351,"Ġmusuhmu":12352,"ishi":12353,"Ġgaleri":12354,"Ġjejaknya":12355,"Ġrupee":12356,"Ġjulukan":12357,"Ġellen":12358,"Ġtebusan":12359,"Ġkunjungi":12360,"Ġmembodohi":12361,"iana":12362,"leb":12363,"pi":12364,"Ġmeh":12365,"Ġkoh":12366,"Ġtawa":12367,"Ġdiana":12368,"Ġmengga":12369,"Ġwig":12370,"Ġsekop":12371,"anton":12372,"Ġfang":12373,"acoba":12374,"ohoh":12375,"Ġpengejaran":12376,"Ġthan":12377,"Ġbren":12378,"Ġditunda":12379,"igo":12380,"Ġjawablah":12381,"Ġmilo":12382,"Ġbosnya":12383,"maaf":12384,"Ġsirkuit":12385,"Ġmengemis":12386,"Ġmemaksanya":12387,"Ġpepohonan":12388,"Ġdipertaruhkan":12389,"Ġcinder":12390,"Ġsukarela":12391,"Ġghost":12392,"Ġbrandon":12393,"Ġnyanyian":12394,"Ġpertumbuhan":12395,"99":12396,"hot":12397,"lene":12398,"Ġsari":12399,"Ġdungu":12400,"atai":12401,"itnya":12402,"Ġmentah":12403,"Ġbeginilah":12404,"Ġvul":12405,"Ġkurir":12406,"Ġtrent":12407,"Ġtroll":12408,"Ġmenangkan":12409,"Ġemos":12410,"Ġkorps":12411,"Ġkesempatanmu":12412,"Ġkosongkan":12413,"Ġresik":12414,"Ġmelawanku":12415,"Ġrobbie":12416,"Ġhood":12417,"Ġmenyentuhmu":12418,"Ġcolt":12419,"alisasi":12420,"Ġbutter":12421,"Ġpenyair":12422,"Ġkilat":12423,"queen":12424,"Ġpepper":12425,"Ġheroin":12426,"Ġgrimm":12427,"Ġacaranya":12428,"Ġpiknik":12429,"Ġsquar":12430,"Ġginjal":12431,"lng":12432,"rell":12433,"Ġsuri":12434,"insi":12435,"Ġheli":12436,"Ġmemf":12437,"tia":12438,"ebas":12439,"Ġmencemaskan":12440,"tuj":12441,"hire":12442,"Ġbrig":12443,"Ġsher":12444,"empatan":12445,"oceh":12446,"Ġgoing":12447,"Ġterpengaruh":12448,"Ġdihubungi":12449,"Ġpasukannya":12450,"Ġhubunganmu":12451,"Ġmoore":12452,"Ġpercikan":12453,"Ġbendabenda":12454,"Ġbush":12455,"Ġsubyek":12456,"Ġjanuari":12457,"board":12458,"Ġdataran":12459,"Ġrentan":12460,"Ġterkekeh":12461,"deng":12462,"jar":12463,"member":12464,"woo":12465,"Ġkis":12466,"elt":12467,"Ġlbu":12468,"oru":12469,"Ġmengunc":12470,"ute":12471,"Ġfashion":12472,"omet":12473,"Ġbersuara":12474,"Ġdisemb":12475,"Ġdisiapkan":12476,"anjutan":12477,"Ġibuk":12478,"Ġkutip":12479,"sif":12480,"Ġbermingguminggu":12481,"Ġperso":12482,"Ġspar":12483,"Ġzeus":12484,"Ġdiperh":12485,"Ġblur":12486,"Ġbukumu":12487,"tifikat":12488,"Ġterpel":12489,"Ġideide":12490,"Ġunic":12491,"eez":12492,"Ġbandar":12493,"Ġkeinginanku":12494,"Ġkilo":12495,"Ġtagih":12496,"Ġjeffrey":12497,"Ġmemaksakan":12498,"Ġtonight":12499,"Ġjessie":12500,"Ġpinggul":12501,"alsukan":12502,"Ġmeleleh":12503,"Ġmengotori":12504,"body":12505,"putar":12506,"akiman":12507,"Ġkick":12508,"Ġbeh":12509,"une":12510,"Ġhina":12511,"Ġcamer":12512,"Ġterjawab":12513,"ics":12514,"otbah":12515,"epsi":12516,"Ġterlupakan":12517,"Ġpengint":12518,"Ġtempattempat":12519,"anjing":12520,"Ġalright":12521,"Ġpemarah":12522,"Ġmenggonggong":12523,"Ġtheo":12524,"Ġberganti":12525,"Ġgoog":12526,"Ġkudanya":12527,"Ġtipu":12528,"Ġparkman":12529,"Ġpsy":12530,"Ġlogis":12531,"Ġgoresan":12532,"Ġlesbian":12533,"Ġjoshua":12534,"Ġcastle":12535,"Ġshrek":12536,"peng":12537,"Ġsper":12538,"Ġmenag":12539,"adel":12540,"Ġhog":12541,"Ġlb":12542,"Ġperek":12543,"Ġterwujud":12544,"Ġmembanding":12545,"Ġmembohongi":12546,"Ġmeras":12547,"Ġguard":12548,"Ġnek":12549,"Ġmeleg":12550,"Ġkemah":12551,"Ġpengungsi":12552,"Ġpemec":12553,"tail":12554,"ejoon":12555,"Ġfront":12556,"Ġpanel":12557,"Ġkutanyakan":12558,"bye":12559,"Ġdiberkati":12560,"Ġknp":12561,"Ġherr":12562,"Ġtakdirmu":12563,"Ġpablo":12564,"Ġchristmas":12565,"Ġgolden":12566,"Ġdouglas":12567,"Ġpengemis":12568,"Ġkandidat":12569,"Ġmuatan":12570,"Ġkonvensi":12571,"Ġmasturbasi":12572,"bal":12573,"Ġtorn":12574,"alangan":12575,"Ġberak":12576,"Ġmemudar":12577,"etta":12578,"oting":12579,"ambung":12580,"Ġae":12581,"ancarkan":12582,"Ġmess":12583,"Ġbear":12584,"Ġscan":12585,"Ġperkeb":12586,"Ġmenyerahlah":12587,"Ġsuperhero":12588,"Ġmengalahkanku":12589,"Ġtesla":12590,"Ġtukar":12591,"alisme":12592,"Ġmenyalahkanmu":12593,"Ġpengantar":12594,"Ġmembalasnya":12595,"Ġdomini":12596,"Ġsambungan":12597,"Ġberkomitmen":12598,"Ġmasamasa":12599,"adwalkan":12600,"Ġpersoalan":12601,"cis":12602,"Ġpod":12603,"ape":12604,"Ġyong":12605,"Ġyuri":12606,"Ġmengol":12607,"Ġcc":12608,"Ġci":12609,"Ġraga":12610,"Ġharm":12611,"Ġself":12612,"Ġmenyita":12613,"Ġmenyegarkan":12614,"Ġbersifat":12615,"angkas":12616,"Ġbarak":12617,"Ġalvin":12618,"Ġthings":12619,"Ġberdandan":12620,"ught":12621,"Ġbagianku":12622,"Ġbajunya":12623,"Ġsuratnya":12624,"Ġkawanku":12625,"Ġjerami":12626,"Ġxiao":12627,"Ġpanglima":12628,"Ġkeperl":12629,"Ġmengajarinya":12630,"Ġlegal":12631,"Ġduyung":12632,"Ġrealitas":12633,"Ġsambutan":12634,"Ġperwakil":12635,"Ġarsitek":12636,"Ġberkilau":12637,"Ġnext":12638,"Ġshakespe":12639,"brid":12640,"Ġmov":12641,"Ġkimb":12642,"yasa":12643,"Ġmenepati":12644,"Ġlester":12645,"Ġjij":12646,"Ġmenginter":12647,"Ġcock":12648,"ebalan":12649,"Ġsighs":12650,"Ġselusin":12651,"ayap":12652,"aniel":12653,"Ġkupanggil":12654,"Ġpertanyaanmu":12655,"usty":12656,"Ġkompas":12657,"Ġgarpu":12658,"itungkan":12659,"Ġrahang":12660,"Ġrahmat":12661,"Ġfirst":12662,"Ġcoming":12663,"Ġsokka":12664,"Ġbartender":12665,"Ġclayton":12666,"Ġmekanik":12667,"Ġmutlak":12668,"Ġhacker":12669,"Ġmenepi":12670,"Ġaidan":12671,"Ġmengemudikan":12672,"aptis":12673,"Ġlav":12674,"Ġlobi":12675,"Ġperatur":12676,"Ġgog":12677,"Ġnana":12678,"Ġward":12679,"Ġbersi":12680,"Ġprestasi":12681,"aft":12682,"ilangkan":12683,"enangkannya":12684,"Ġserangkaian":12685,"Ġstein":12686,"Ġasumsi":12687,"Ġmenggantinya":12688,"emparkan":12689,"Ġnyala":12690,"Ġpendatang":12691,"ersh":12692,"Ġkutembak":12693,"Ġ65":12694,"Ġpencegahan":12695,"Ġerica":12696,"roit":12697,"akting":12698,"iayai":12699,"Ġmelepasnya":12700,"Ġfotografer":12701,"Ġkangen":12702,"Ġmemperluas":12703,"Ġfrances":12704,"Ġmewujudkan":12705,"Ġshaggy":12706,"Ġrongsokan":12707,"Ġberharihari":12708,"Ġkeperluan":12709,"jukan":12710,"jikan":12711,"nell":12712,"side":12713,"Ġtoby":12714,"Ġboris":12715,"Ġkejaya":12716,"Ġperimeter":12717,"Ġcipta":12718,"eker":12719,"Ġmembunyikan":12720,"Ġrin":12721,"Ġmeren":12722,"Ġgard":12723,"Ġfeng":12724,"osongkan":12725,"Ġkerang":12726,"Ġpembuluh":12727,"Ġtheod":12728,"illes":12729,"igai":12730,"Ġarlo":12731,"Ġaha":12732,"Ġbawahnya":12733,"Ġpagipagi":12734,"Ġmenikam":12735,"Ġterbaiknya":12736,"Ġbarangmu":12737,"Ġbarangku":12738,"Ġterpec":12739,"Ġeksped":12740,"Ġditur":12741,"Ġbertanggungjawab":12742,"ware":12743,"Ġdoctor":12744,"Ġmembahasnya":12745,"Ġbersyarat":12746,"Ġlorenzo":12747,"Ġpenampilanku":12748,"Ġmemantau":12749,"Ġmembebaskannya":12750,"Ġmenenggelam":12751,"Ġpenunggang":12752,"bell":12753,"kn":12754,"Ġdie":12755,"iday":12756,"iselle":12757,"Ġgai":12758,"ambangan":12759,"Ġmencolok":12760,"Ġbermata":12761,"Ġminus":12762,"Ġcerutu":12763,"Ġpunah":12764,"Ġits":12765,"umber":12766,"Ġangus":12767,"Ġmetro":12768,"Ġeven":12769,"inkle":12770,"Ġparit":12771,"Ġmomo":12772,"Ġkemampuanku":12773,"Ġmenahanmu":12774,"Ġsengsara":12775,"Ġcheer":12776,"Ġingatanku":12777,"Ġhamburger":12778,"Ġresepsi":12779,"Ġshawn":12780,"Ġadrian":12781,"Ġparasit":12782,"Ġpierce":12783,"Ġhindari":12784,"Ġwhistler":12785,"Ġyayasan":12786,"Ġphantom":12787,"44":12788,"begitu":12789,"hil":12790,"Ġluang":12791,"Ġmelambat":12792,"Ġmelainkan":12793,"Ġpenolakan":12794,"anggakan":12795,"Ġthree":12796,"Ġberpihak":12797,"Ġpelari":12798,"Ġmanja":12799,"Ġasuh":12800,"evolusi":12801,"Ġwheel":12802,"Ġtimnya":12803,"Ġkutanya":12804,"Ġanggot":12805,"Ġdetroit":12806,"Ġideal":12807,"Ġsalon":12808,"Ġtujuanku":12809,"Ġmadame":12810,"aminasi":12811,"Ġcoke":12812,"Ġrekanre":12813,"Ġmengusulkan":12814,"Ġlusin":12815,"Ġrandall":12816,"Ġpribadiku":12817,"Ġbrendan":12818,"cara":12819,"mobil":12820,"nd":12821,"Ġmim":12822,"Ġmogok":12823,"Ġbog":12824,"emua":12825,"Ġdiangkat":12826,"Ġmembas":12827,"Ġgund":12828,"Ġaplikasi":12829,"egar":12830,"Ġmencer":12831,"Ġmenghela":12832,"Ġchop":12833,"Ġcherry":12834,"Ġsenya":12835,"Ġtersedak":12836,"Ġsenangnya":12837,"Ġorangorangku":12838,"Ġmarco":12839,"Ġdee":12840,"Ġtega":12841,"Ġern":12842,"Ġnath":12843,"Ġmenginginkanku":12844,"Ġqing":12845,"Ġhybrid":12846,"Ġwasn":12847,"Ġmemaafkanku":12848,"Ġdayung":12849,"hawatirkan":12850,"Ġimajin":12851,"Ġkepemimpin":12852,"Ġkekanakkan":12853,"Ġshakespeare":12854,"zan":12855,"ido":12856,"Ġberry":12857,"itus":12858,"enger":12859,"Ġsekrup":12860,"Ġsebelas":12861,"Ġsesed":12862,"Ġjanganlah":12863,"Ġchase":12864,"Ġvaks":12865,"Ġkanakkan":12866,"Ġberdo":12867,"Ġbrenda":12868,"Ġshock":12869,"Ġputing":12870,"unduran":12871,"Ġidemu":12872,"Ġmengenalimu":12873,"Ġkucintai":12874,"Ġbox":12875,"Ġsmp":12876,"Ġkeinginannya":12877,"Ġmerekomendasikan":12878,"Ġkacamat":12879,"Ġbantulah":12880,"Ġmembelikanmu":12881,"Ġmicah":12882,"Ġparasut":12883,"Ġrancangan":12884,"Ġpenegak":12885,"Ġmeniduri":12886,"Ġunicorn":12887,"Ġpengintaian":12888,"23":12889,"Ġach":12890,"Ġsadis":12891,"att":12892,"Ġdif":12893,"Ġlaksanakan":12894,"Ġmemotret":12895,"oreng":12896,"oria":12897,"olos":12898,"embus":12899,"Ġfiksi":12900,"omon":12901,"uber":12902,"Ġhear":12903,"Ġiook":12904,"opher":12905,"Ġkubayar":12906,"reen":12907,"Ġdihadapan":12908,"Ġmelawanmu":12909,"Ġdonny":12910,"Ġmcqueen":12911,"Ġdinas":12912,"Ġmewar":12913,"Ġcincinnya":12914,"Ġambang":12915,"Ġmendekatinya":12916,"Ġcewe":12917,"Ġcaptain":12918,"Ġgigimu":12919,"Ġdiseluruh":12920,"Ġpaige":12921,"Ġganteng":12922,"Ġhudson":12923,"Ġkekejaman":12924,"tunggu":12925,"Ġml":12926,"Ġmika":12927,"ahter":12928,"Ġhisap":12929,"Ġberakting":12930,"Ġmengangkut":12931,"Ġmembual":12932,"Ġrog":12933,"Ġmerengek":12934,"udukan":12935,"Ġbisu":12936,"Ġbaginda":12937,"Ġsesegera":12938,"Ġdisengaja":12939,"Ġthorn":12940,"leans":12941,"Ġbrick":12942,"Ġditem":12943,"ugu":12944,"empel":12945,"Ġgrey":12946,"Ġclara":12947,"Ġzero":12948,"ovasi":12949,"Ġkoroner":12950,"Ġbalkon":12951,"Ġcourt":12952,"Ġlokasinya":12953,"Ġpenghancuran":12954,"Ġgarrett":12955,"Ġteknisi":12956,"Ġapartemenku":12957,"Ġgerbong":12958,"ouid":12959,"Ġcaleb":12960,"Ġhandal":12961,"Ġlisensi":12962,"Ġmccl":12963,"Ġshaun":12964,"Ġcelanamu":12965,"omendasi":12966,"Ġpelatuk":12967,"Ġbermanfaat":12968,"Ġteleskop":12969,"Ġbefore":12970,"des":12971,"hol":12972,"hart":12973,"ms":12974,"romi":12975,"seorang":12976,"Ġmeb":12977,"Ġdangkal":12978,"inv":12979,"Ġpah":12980,"Ġberis":12981,"Ġkeenam":12982,"Ġadaiah":12983,"Ġmembesar":12984,"Ġmembenarkan":12985,"antina":12986,"Ġmenyew":12987,"Ġbertel":12988,"Ġdisampaikan":12989,"Ġkenaikan":12990,"Ġbareng":12991,"Ġvaughn":12992,"Ġmanager":12993,"usahakan":12994,"Ġfrodo":12995,"Ġpersenjata":12996,"Ġsecret":12997,"Ġclaus":12998,"erst":12999,"Ġbener":13000,"Ġmeneliti":13001,"Ġmelaluinya":13002,"Ġdone":13003,"Ġskr":13004,"stik":13005,"Ġnews":13006,"Ġmenyesalinya":13007,"Ġpenghuni":13008,"Ġmenjauhi":13009,"Ġcobacoba":13010,"Ġkekasihmu":13011,"Ġefisi":13012,"Ġhawk":13013,"Ġshould":13014,"Ġhadapanku":13015,"Ġmejaku":13016,"Ġreynold":13017,"Ġdisetujui":13018,"Ġmemberkatimu":13019,"punya":13020,"pohon":13021,"ston":13022,"uja":13023,"Ġmegah":13024,"Ġkumbang":13025,"erap":13026,"Ġpuji":13027,"Ġlon":13028,"Ġlann":13029,"Ġroth":13030,"Ġmerk":13031,"Ġnut":13032,"Ġmelan":13033,"Ġsix":13034,"icia":13035,"Ġkemur":13036,"Ġdisuruh":13037,"ewatkan":13038,"Ġvet":13039,"Ġberkorban":13040,"Ġditr":13041,"Ġkutangani":13042,"Ġbantuannya":13043,"Ġreser":13044,"Ġdiceritakan":13045,"Ġpakaianku":13046,"Ġbones":13047,"Ġremote":13048,"Ġsingle":13049,"Ġpenyelesai":13050,"Ġmenanyakannya":13051,"Ġlidahmu":13052,"Ġcyrus":13053,"Ġusiaku":13054,"Ġstadion":13055,"Ġpersonil":13056,"Ġservice":13057,"harus":13058,"ior":13059,"kembali":13060,"Ġmengeja":13061,"Ġmembi":13062,"Ġrangkaian":13063,"ical":13064,"Ġbertahun":13065,"andera":13066,"terh":13067,"Ġkebelakang":13068,"Ġstuart":13069,"ugat":13070,"Ġmenyajikan":13071,"Ġblog":13072,"ombia":13073,"Ġdicoba":13074,"Ġperintahmu":13075,"Ġbadanmu":13076,"Ġpasukanmu":13077,"annon":13078,"phia":13079,"Ġsinyalnya":13080,"Ġimpianku":13081,"Ġmemelihara":13082,"ribusi":13083,"Ġpanci":13084,"Ġshift":13085,"Ġlimbah":13086,"Ġibukota":13087,"Ġditurunkan":13088,"hana":13089,"ss":13090,"yn":13091,"Ġira":13092,"Ġej":13093,"Ġside":13094,"eret":13095,"apannya":13096,"Ġhua":13097,"Ġlulusan":13098,"Ġinn":13099,"Ġberadaptasi":13100,"Ġcaf":13101,"Ġcec":13102,"Ġgone":13103,"Ġfield":13104,"Ġmenjadikanmu":13105,"ista":13106,"ecti":13107,"Ġbagianmu":13108,"Ġkantormu":13109,"eransi":13110,"Ġulurkan":13111,"Ġtakdirku":13112,"Ġelias":13113,"Ġhayes":13114,"Ġtumor":13115,"Ġpelatuknya":13116,"klusif":13117,"Ġenggak":13118,"langit":13119,"Ġkecurigaan":13120,"adelphia":13121,"Ġperwakilan":13122,"for":13123,"telah":13124,"Ġkiran":13125,"Ġduka":13126,"Ġbilik":13127,"Ġterisi":13128,"Ġrint":13129,"Ġnora":13130,"etsa":13131,"Ġtema":13132,"Ġkarate":13133,"Ġketert":13134,"Ġchester":13135,"Ġkuanggap":13136,"Ġmaniak":13137,"Ġbrasil":13138,"Ġistan":13139,"ffffapa":13140,"Ġdidengar":13141,"Ġknock":13142,"Ġhyung":13143,"Ġpenyelundup":13144,"Ġsanalah":13145,"Ġpendekar":13146,"Ġhamilton":13147,"Ġmengundangku":13148,"lated":13149,"Ġsenjataku":13150,"Ġgurumu":13151,"Ġkatakatamu":13152,"Ġcopy":13153,"Ġenterprise":13154,"Ġmenghirup":13155,"Ġkeanehan":13156,"Ġperkebunan":13157,"lad":13158,"mons":13159,"Ġpapi":13160,"Ġpony":13161,"Ġmenular":13162,"Ġjena":13163,"Ġmemulihkan":13164,"usinya":13165,"percaya":13166,"awang":13167,"Ġmenyerap":13168,"Ġbuff":13169,"Ġcrane":13170,"Ġswat":13171,"Ġajaran":13172,"Ġdaftarnya":13173,"Ġbakteri":13174,"Ġrupa":13175,"Ġdevon":13176,"Ġingatannya":13177,"Ġformula":13178,"Ġduniaku":13179,"Ġfoster":13180,"Ġkanakkanak":13181,"08":13182,"cari":13183,"mund":13184,"Ġaib":13185,"Ġcort":13186,"Ġnilainya":13187,"aiu":13188,"antasi":13189,"Ġfelix":13190,"epr":13191,"aksir":13192,"Ġketenaran":13193,"uchi":13194,"indari":13195,"Ġberpel":13196,"Ġpemberh":13197,"Ġmemperkuat":13198,"Ġpersia":13199,"Ġahem":13200,"acker":13201,"Ġkehilangannya":13202,"Ġtour":13203,"Ġabd":13204,"Ġterhitung":13205,"Ġbeeth":13206,"oft":13207,"Ġotto":13208,"ifikasi":13209,"Ġarahku":13210,"Ġstrat":13211,"injau":13212,"Ġorleans":13213,"quila":13214,"Ġmendukungmu":13215,"Ġbarbar":13216,"Ġdiskon":13217,"Ġmakeup":13218,"Ġjanjimu":13219,"Ġmengamuk":13220,"Ġpenerimaan":13221,"Ġmountain":13222,"Ġscotch":13223,"Ġintens":13224,"Ġjernih":13225,"Ġbeethoven":13226,"fly":13227,"mine":13228,"Ġtower":13229,"Ġbaku":13230,"Ġpitt":13231,"Ġmens":13232,"Ġseon":13233,"Ġhenti":13234,"Ġmemenj":13235,"Ġperamal":13236,"agan":13237,"akanmu":13238,"Ġmenyis":13239,"ube":13240,"Ġperlakukan":13241,"Ġshake":13242,"Ġpolos":13243,"Ġelev":13244,"ofon":13245,"Ġmemilihmu":13246,"Ġbauer":13247,"Ġboyka":13248,"aafkan":13249,"Ġphiladelphia":13250,"Ġhills":13251,"Ġbraddock":13252,"Ġrileks":13253,"Ġargent":13254,"Ġandrea":13255,"Ġstephan":13256,"Ġperencanaan":13257,"Ġinstrumen":13258,"Ġreruntuhan":13259,"Ġwewenang":13260,"Ġsesukamu":13261,"Ġekspedisi":13262,"Ġmewarisi":13263,"fy":13264,"Ġdoyle":13265,"asisa":13266,"orasi":13267,"Ġcum":13268,"Ġgut":13269,"Ġoven":13270,"Ġmeluc":13271,"Ġsesak":13272,"tug":13273,"Ġterlintas":13274,"Ġchance":13275,"Ġpastilah":13276,"Ġburn":13277,"Ġmario":13278,"Ġdilaksanakan":13279,"Ġideku":13280,"ryn":13281,"Ġza":13282,"Ġmisil":13283,"ifikan":13284,"Ġsetengahnya":13285,"Ġkurangnya":13286,"Ġmartabat":13287,"Ġmengurusi":13288,"Ġrahim":13289,"Ġminggirlah":13290,"Ġperutmu":13291,"eluarga":13292,"Ġmenyembah":13293,"Ġduniamu":13294,"Ġmengulangi":13295,"Ġgroup":13296,"Ġcambuk":13297,"Ġmembalikkan":13298,"Ġdiawasi":13299,"Ġfringe":13300,"Ġresikonya":13301,"Ġmung":13302,"Ġslo":13303,"Ġdent":13304,"Ġdekor":13305,"Ġdiak":13306,"Ġdixon":13307,"Ġmenandat":13308,"Ġmemuat":13309,"Ġmengambang":13310,"Ġfai":13311,"omagnet":13312,"Ġdimaafkan":13313,"Ġpelec":13314,"Ġpeluit":13315,"Ġsepadan":13316,"Ġpetanya":13317,"Ġpanama":13318,"Ġhatihatilah":13319,"Ġklon":13320,"Ġloe":13321,"Ġunsur":13322,"Ġdonnie":13323,"Ġmendengus":13324,"Ġsketsa":13325,"Ġnikki":13326,"Ġirama":13327,"Ġrossi":13328,"Ġmenahanku":13329,"Ġrichie":13330,"Ġbarangbarangmu":13331,"Ġhidungku":13332,"Ġmenuruni":13333,"Ġgabungan":13334,"Ġchristine":13335,"Ġsakti":13336,"Ġmemproduksi":13337,"Ġcucuku":13338,"Ġperhatianmu":13339,"Ġvicky":13340,"Ġtingginya":13341,"Ġsbg":13342,"Ġpemulihan":13343,"Ġperaturannya":13344,"Ġdm":13345,"Ġakuakan":13346,"elok":13347,"Ġlara":13348,"Ġlng":13349,"Ġmemarah":13350,"Ġmenggabungkan":13351,"ury":13352,"Ġreli":13353,"Ġgates":13354,"adie":13355,"alifikasi":13356,"alamanya":13357,"Ġpenurunan":13358,"Ġalison":13359,"Ġberpart":13360,"Ġmanik":13361,"Ġmenggul":13362,"Ġdiletakkan":13363,"Ġamster":13364,"Ġdiperoleh":13365,"Ġperginya":13366,"Ġmilan":13367,"Ġalasanku":13368,"ife":13369,"Ġstroke":13370,"Ġmenyerangku":13371,"Ġalias":13372,"Ġsmur":13373,"Ġsadarlah":13374,"Ġsumbangan":13375,"Ġlilith":13376,"Ġpinky":13377,"Ġusiamu":13378,"Ġphillip":13379,"Ġtornado":13380,"Ġsit":13381,"Ġduan":13382,"Ġjanet":13383,"Ġmemak":13384,"Ġkey":13385,"Ġmelekat":13386,"Ġseketika":13387,"Ġmenyunt":13388,"Ġfebr":13389,"Ġath":13390,"iannya":13391,"Ġmaurice":13392,"Ġchin":13393,"Ġaaku":13394,"Ġserp":13395,"Ġpemakan":13396,"Ġpemilu":13397,"Ġmenggag":13398,"Ġditakuti":13399,"Ġready":13400,"Ġsales":13401,"Ġotopsi":13402,"Ġupah":13403,"Ġesc":13404,"Ġevans":13405,"izat":13406,"Ġsisasisa":13407,"Ġpelacakan":13408,"Ġkeputusanku":13409,"Ġtaruhannya":13410,"aiiy":13411,"Ġwisata":13412,"Ġsepakbola":13413,"Ġmeragukannya":13414,"Ġsignifikan":13415,"Ġvenus":13416,"musuh":13417,"Ġventilasi":13418,"kalau":13419,"Ġditawarkan":13420,"Ġkrishna":13421,"gap":13422,"pie":13423,"Ġmuj":13424,"Ġmangsa":13425,"Ġtusukan":13426,"Ġyosh":13427,"Ġliter":13428,"idih":13429,"Ġpersa":13430,"iro":13431,"eke":13432,"umuran":13433,"Ġketerangan":13434,"Ġmalammu":13435,"Ġburu":13436,"Ġtrus":13437,"Ġfran":13438,"Ġcliff":13439,"Ġ49":13440,"Ġkumar":13441,"Ġwarri":13442,"Ġdiganggu":13443,"Ġbadannya":13444,"Ġdoor":13445,"Ġpalmer":13446,"Ġpohonpohon":13447,"hou":13448,"Ġmerubahnya":13449,"Ġtelingamu":13450,"uduki":13451,"Ġbubur":13452,"Ġkeberadaannya":13453,"Ġkartun":13454,"silakan":13455,"Ġprince":13456,"Ġluther":13457,"Ġvegetarian":13458,"Ġreynolds":13459,"Ġamsterdam":13460,"besar":13461,"tz":13462,"wh":13463,"wick":13464,"enie":13465,"Ġhormon":13466,"Ġmengeb":13467,"Ġwr":13468,"Ġwort":13469,"Ġfarm":13470,"Ġmencel":13471,"Ġmendapati":13472,"indas":13473,"Ġaltar":13474,"Ġiagi":13475,"Ġyee":13476,"Ġstacy":13477,"Ġmanfaat":13478,"Ġberdamai":13479,"eller":13480,"Ġambilah":13481,"Ġarcher":13482,"Ġhebatnya":13483,"Ġeasy":13484,"Ġantarkan":13485,"Ġradius":13486,"Ġhyuga":13487,"Ġcapua":13488,"Ġmenyimpang":13489,"Ġsenyuman":13490,"Ġingatanmu":13491,"yeah":13492,"Ġchristopher":13493,"Ġmembebaskanmu":13494,"Ġmerekamnya":13495,"Ġlaporannya":13496,"Ġbunker":13497,"Ġtriad":13498,"Ġnyamuk":13499,"Ġbroadway":13500,"Ġdinozzo":13501,"dad":13502,"oul":13503,"Ġkt":13504,"Ġspa":13505,"inus":13506,"Ġpisa":13507,"Ġberedar":13508,"aric":13509,"imo":13510,"Ġgenc":13511,"Ġgina":13512,"Ġnational":13513,"Ġmendahulu":13514,"ffin":13515,"Ġditerb":13516,"Ġmug":13517,"Ġpesiar":13518,"Ġarya":13519,"Ġmeet":13520,"Ġkathy":13521,"Ġbunganya":13522,"Ġkekal":13523,"eksual":13524,"Ġterpasang":13525,"Ġdonor":13526,"Ġdonovan":13527,"Ġrekam":13528,"Ġalibi":13529,"shah":13530,"andingannya":13531,"Ġpendapatku":13532,"Ġellis":13533,"Ġsensasi":13534,"Ġprotein":13535,"Ġriggs":13536,"Ġpierre":13537,"kenapa":13538,"Ġtinker":13539,"Ġmentraktir":13540,"Ġdikenakan":13541,"Ġgannicus":13542,"Ġsesederhana":13543,"Ġpersenjataan":13544,"Ġice":13545,"Ġmamp":13546,"Ġsle":13547,"atuhan":13548,"Ġmenantikan":13549,"Ġlaz":13550,"Ġjem":13551,"Ġjangg":13552,"Ġjengkel":13553,"Ġkev":13554,"arium":13555,"Ġouch":13556,"ekayasa":13557,"Ġmenyir":13558,"edahan":13559,"epuk":13560,"Ġkepul":13561,"Ġchamb":13562,"Ġvisa":13563,"Ġserakah":13564,"umpahan":13565,"Ġbei":13566,"Ġkesalahannya":13567,"ords":13568,"Ġsimran":13569,"Ġfaktor":13570,"Ġfederasi":13571,"Ġkontraktor":13572,"Ġmengancamku":13573,"Ġsophia":13574,"Ġkorupsi":13575,"Ġcirc":13576,"Ġcloud":13577,"Ġketidaks":13578,"Ġsweater":13579,"Ġmenodongkan":13580,"Ġjijik":13581,"Ġkekanakkanakan":13582,"Ġmenandatanganinya":13583,"42":13584,"cott":13585,"arin":13586,"Ġpaha":13587,"aps":13588,"Ġdiucapkan":13589,"Ġlajang":13590,"Ġberempat":13591,"Ġberitanya":13592,"Ġkeaman":13593,"Ġterindah":13594,"Ġmenyangkut":13595,"Ġterbawa":13596,"Ġpemotong":13597,"Ġmusnah":13598,"Ġlangley":13599,"Ġagensi":13600,"Ġpatch":13601,"Ġletakan":13602,"Ġbadshah":13603,"Ġkado":13604,"Ġmerindukanku":13605,"Ġbentuknya":13606,"Ġtargetnya":13607,"Ġpipi":13608,"Ġpenisku":13609,"Ġguruku":13610,"Ġkatakatanya":13611,"Ġbowling":13612,"Ġloncat":13613,"Ġdemonstrasi":13614,"Ġkebangkitan":13615,"pak":13616,"ines":13617,"unch":13618,"Ġmenuruti":13619,"Ġhw":13620,"Ġcuba":13621,"alui":13622,"Ġdatangi":13623,"Ġketahu":13624,"ipnotis":13625,"Ġberkelas":13626,"Ġburuan":13627,"Ġshim":13628,"Ġtrue":13629,"Ġsoul":13630,"Ġidentifikasi":13631,"Ġmenyerbu":13632,"Ġmilton":13633,"Ġblaine":13634,"Ġcantiknya":13635,"Ġberuntungnya":13636,"Ġsync":13637,"Ġbokongnya":13638,"Ġcabut":13639,"Ġtalon":13640,"Ġlaugh":13641,"Ġlagul":13642,"Ġsutra":13643,"Ġcelanaku":13644,"bersih":13645,"Ġdialog":13646,"abunga":13647,"Ġbeautif":13648,"Ġsquare":13649,"linya":13650,"Ġmona":13651,"Ġtisu":13652,"Ġhugo":13653,"isco":13654,"Ġmemanggang":13655,"Ġrayakan":13656,"Ġmerry":13657,"Ġgk":13658,"ebo":13659,"Ġ,,":13660,"aber":13661,"Ġfull":13662,"ayal":13663,"Ġmenghin":13664,"Ġseru":13665,"Ġsejuta":13666,"Ġbennett":13667,"Ġklip":13668,"Ġcrist":13669,"stal":13670,"Ġmenyebutku":13671,"organisir":13672,"Ġdikirimkan":13673,"Ġberputarputar":13674,"emary":13675,"Ġgabung":13676,"Ġradikal":13677,"Ġtangkapan":13678,"Ġmitchell":13679,"Ġgwen":13680,"Ġkesukaanmu":13681,"Ġpembersihan":13682,"Ġdawson":13683,"Ġunggul":13684,"Ġmaksimum":13685,"Ġpisaunya":13686,"fin":13687,"gom":13688,"his":13689,"hari":13690,"jid":13691,"mad":13692,"Ġmingg":13693,"Ġtia":13694,"Ġmenumb":13695,"Ġsac":13696,"Ġriz":13697,"ule":13698,"Ġnsa":13699,"uatan":13700,"antara":13701,"Ġmenghangat":13702,"uckin":13703,"Ġterbuang":13704,"Ġkeram":13705,"Ġthese":13706,"Ġasalkan":13707,"Ġasosiasi":13708,"Ġpolandia":13709,"Ġdarwin":13710,"Ġkosmos":13711,"Ġmenikahimu":13712,"engkok":13713,"Ġbirkh":13714,"Ġbooth":13715,"Ġditujukan":13716,"Ġpope":13717,"Ġmenelponnya":13718,"Ġlangitlangit":13719,"Ġtandanya":13720,"Ġberperan":13721,
[...]
